<s> 0
</s> 0
<pad> 0
<unk> 0
ie -0
▁w -1
▁p -2
ow -3
st -4
na -5
▁z -6
ni -7
ch -8
cz -9
rz -10
ra -11
▁s -12
ro -13
▁o -14
▁d -15
nie -16
▁k -17
ał -18
ny -19
ne -20
▁po -21
sk -22
li -23
go -24
▁m -25
▁i -26
▁na -27
▁t -28
ar -29
sz -30
rze -31
dz -32
▁1 -33
je -34
▁W -35
re -36
le -37
ów -38
ię -39
at -40
▁P -41
ci -42
an -43
▁b -44
er -45
▁do -46
mi -47
ka -48
ku -49
▁za -50
or -51
ła -52
nia -53
owa -54
on -55
▁ro -56
▁S -57
▁wy -58
▁u -59
ce -60
wa -61
ko -62
▁prze -63
cj -64
rzy -65
▁je -66
▁19 -67
la -68
▁g -69
▁( -70
ki -71
wi -72
▁a -73
ją -74
▁się -75
ty -76
ry -77
cy -78
▁K -79
▁M -80
en -81
▁st -82
no -83
▁2 -84
da -85
wo -86
ej -87
▁B -88
em -89
po -90
ski -91
ści -92
ło -93
iej -94
ta -95
dy -96
▁A -97
ru -98
ja -99
nych -100
▁cz -101
owy -102
▁od -103
▁N -104
tu -105
dzi -106
ost -107
ier -108
▁Po -109
cie -110
ego -111
▁l -112
▁nie -113
▁R -114
▁C -115
al -116
▁" -117
▁roku -118
▁D -119
▁ko -120
czy -121
▁O -122
▁J -123
▁Z -124
że -125
cze -126
ca -127
cji -128
▁20 -129
▁f -130
te -131
▁by -132
▁T -133
zy -134
as -135
▁G -136
tó -137
ia -138
to -139
nej -140
wie -141
ała -142
raz -143
▁któ -144
lo -145
am -146
ży -147
▁L -148
▁pod -149
skie -150
sta -151
ma -152
kie -153
szy -154
ły -155
▁I -156
ró -157
▁zost -158
du -159
łu -160
nego -161
▁– -162
si -163
pi -164
gi -165
dzie -166
▁przy -167
▁ty -168
▁ob -169
mie -170
owi -171
nym -172
ob -173
ga -174
▁re -175
▁li -176
▁ja -177
pa -178
▁ś -179
za -180
▁przez -181
in -182
▁F -183
ek -184
lu -185
ował -186
owie -187
owo -188
mu -189
cho -190
ata -191
▁roz -192
niu -193
▁jest -194
▁sz -195
▁dz -196
▁H -197
ną -198
ur -199
sa -200
skiego -201
▁r -202
de -203
▁Na -204
il -205
ść -206
▁został -207
owej -208
ud -209
sy -210
ak -211
niej -212
▁oraz -213
un -214
bi -215
▁wo -216
▁pro -217
▁jed -218
dni -219
wy -220
). -221
▁mi -222
fi -223
ół -224
▁U -225
▁c -226
▁E -227
skiej -228
▁pra -229
▁wie -230
▁in -231
▁mo -232
by -233
ków -234
▁te -235
ęp -236
sp -237
sze -238
▁„ -239
ska -240
os -241
gra -242
▁200 -243
sty -244
▁e -245
stęp -246
ub -247
▁h -248
▁ma -249
ona -250
owych -251
▁ze -252
kt -253
▁sp -254
▁kon -255
▁201 -256
), -257
sza -258
ri -259
um -260
▁zna -261
czą -262
▁pa -263
▁to -264
ut -265
mo -266
ran -267
19 -268
ierw -269
sto -270
▁był -271
owe -272
ez -273
▁który -274
el -275
jąc -276
▁n -277
ano -278
▁Ko -279
ony -280
kła -281
ało -282
do -283
ono -284
gu -285
sie -286
ały -287
cza -288
cja -289
▁jako -290
et -291
▁3 -292
rod -293
▁że -294
▁miej -295
pie -296
owego -297
men -298
▁lata -299
▁18 -300
zna -301
skich -302
rowa -303
jący -304
skim -305
ju -306
wó -307
▁ok -308
ję -309
ad -310
dze -311
bie -312
▁tak -313
ed -314
▁miejs -315
ery -316
▁które -317
▁tym -318
bo -319
▁sam -320
my -321
kiem -322
▁naj -323
▁ni -324
▁Pol -325
cu -326
▁jego -327
nika -328
00 -329
ii -330
ności -331
▁pierw -332
▁ch -333
▁go -334
rzą -335
su -336
czas -337
▁latach -338
owany -339
io -340
cki -341
▁199 -342
and -343
▁Mi -344
▁ra -345
▁woj -346
wią -347
ze -348
dzy -349
▁Ch -350
cyj -351
rę -352
▁pow -353
owym -354
▁dzie -355
▁dzi -356
one -357
▁ar -358
pu -359
cję -360
▁gru -361
▁spo -362
▁Wy -363
ji -364
▁przed -365
▁są -366
aty -367
cia -368
ck -369
▁dla -370
ol -371
▁czas -372
▁me -373
▁wz -374
ba -375
spo -376
bu -377
▁mie -378
rem -379
▁pi -380
łów -381
pe -382
jące -383
▁ka -384
▁194 -385
dział -386
▁sy -387
niem -388
▁także -389
uk -390
▁le -391
▁de -392
stwa -393
łą -394
▁ce -395
pra -396
wię -397
▁Od -398
cznych -399
▁Za -400
rza -401
tów -402
▁mu -403
zu -404
dob -405
▁rów -406
▁czę -407
▁St -408
czne -409
nak -410
▁swo -411
▁4 -412
▁wła -413
▁dru -414
art -415
", -416
▁wi -417
nik -418
om -419
▁Ja -420
ową -421
sła -422
wia -423
▁X -424
ców -425
▁V -426
sko -427
▁Sz -428
▁stan -429
nt -430
". -431
ary -432
się -433
lej -434
iędzy -435
ali -436
▁czy -437
▁5 -438
mia -439
ór -440
nii -441
▁pol -442
▁fi -443
▁Do -444
kład -445
ent -446
nież -447
sku -448
▁jak -449
▁Nie -450
▁Ś -451
sią -452
ory -453
▁ta -454
owania -455
nę -456
cznej -457
iel -458
es -459
▁bi -460
▁Pa -461
▁sta -462
kiego -463
▁198 -464
ża -465
ką -466
nic -467
cznie -468
czył -469
erw -470
▁Ka -471
▁jednak -472
▁or -473
ec -474
koń -475
▁197 -476
▁gra -477
nię -478
▁II -479
gani -480
▁Ro -481
cha -482
▁poz -483
▁również -484
▁wsp -485
▁193 -486
▁Ma -487
▁co -488
▁we -489
ral -490
stą -491
▁dy -492
unk -493
▁świ -494
▁tra -495
szt -496
óź -497
▁sty -498
ot -499
▁lub -500
ul -501
kę -502
▁195 -503
▁tego -504
▁6 -505
▁lat -506
▁sk -507
ność -508
▁wię -509
▁ut -510
▁An -511
▁Je -512
▁znaj -513
im -514
we -515
▁ży -516
kow -517
war -518
▁ot -519
▁ż -520
pre -521
ście -522
▁Li -523
czę -524
dza -525
róż -526
▁następ -527
kań -528
for -529
▁okre -530
▁naz -531
ge -532
▁jej -533
óźniej -534
▁192 -535
rą -536
▁kra -537
czny -538
▁os -539
ers -540
uro -541
▁Ra -542
ist -543
▁for -544
▁Mar -545
dził -546
▁nad -547
strz -548
owane -549
ól -550
▁In -551
▁da -552
stra -553
so -554
ubli -555
lę -556
he -557
▁gdzie -558
prowa -559
▁Ar -560
▁powie -561
cą -562
▁ba -563
▁Wo -564
▁była -565
▁op -566
is -567
py -568
nek -569
onu -570
▁została -571
▁mia -572
eł -573
arsza -574
▁sto -575
▁pre -576
ską -577
▁7 -578
co -579
pad -580
kona -581
▁196 -582
▁mar -583
▁17 -584
▁By -585
doby -586
▁Prze -587
▁pierwszy -588
ato -589
bud -590
us -591
▁8 -592
tem -593
▁Le -594
▁15 -595
▁bra -596
▁Mo -597
cje -598
lem -599
▁rozpo -600
▁miejsce -601
▁stanowi -602
▁wieku -603
ód -604
▁kolej -605
▁du -606
▁kom -607
szcze -608
wał -609
cznego -610
ron -611
▁Re -612
▁później -613
twa -614
olo -615
cząt -616
oru -617
bra -618
leż -619
owano -620
roma -621
▁jedno -622
owanie -623
czo -624
stąpi -625
zie -626
▁Bo -627
rzym -628
▁- -629
▁bo -630
zi -631
▁sie -632
lą -633
łon -634
stat -635
▁bar -636
▁ich -637
ńst -638
▁zm -639
▁Pod -640
▁głów -641
cią -642
▁zdoby -643
prze -644
▁prac -645
nem -646
▁bez -647
owała -648
▁rze -649
▁między -650
▁powo -651
▁wyda -652
▁16 -653
nymi -654
sia -655
▁występ -656
▁stycz -657
kach -658
cer -659
dnia -660
ród -661
”. -662
▁ju -663
▁kró -664
▁znajdu -665
szej -666
▁pół -667
szą -668
wiet -669
▁sze -670
szyst -671
▁kla -672
▁Sta -673
leg -674
fa -675
rześ -676
ene -677
ter -678
kaz -679
di -680
▁ru -681
lko -682
ti -683
kich -684
sł -685
▁wrześ -686
dzą -687
jących -688
▁rodzi -689
bli -690
od -691
▁9 -692
▁Warsza -693
▁poli -694
owana -695
wiąz -696
▁też -697
▁Ł -698
0. -699
▁(19 -700
–19 -701
atu -702
▁Cz -703
dnie -704
▁og -705
ok -706
tor -707
▁podczas -708
szcz -709
ren -710
szych -711
▁(" -712
ktu -713
▁no -714
▁Fran -715
kty -716
ńskiego -717
lar -718
rzu -719
▁organi -720
lan -721
▁kil -722
▁działa -723
▁kar -724
▁szko -725
▁raz -726
ób -727
▁ale -728
▁sez -729
▁oko -730
łuż -731
prez -732
dów -733
mii -734
▁części -735
wodni -736
▁były -737
ckiego -738
rów -739
▁tej -740
wer -741
▁12 -742
dzier -743
▁było -744
▁Bi -745
ług -746
▁czerw -747
mina -748
chi -749
rzę -750
▁funk -751
18 -752
pis -753
ym -754
ździer -755
strzost -756
▁swoje -757
▁10 -758
ników -759
▁czasie -760
oł -761
▁paździer -762
pnia -763
eri -764
den -765
ować -766
▁sier -767
▁al -768
▁wal -769
▁kie -770
▁im -771
cześ -772
ński -773
▁Uni -774
dzo -775
▁klu -776
▁Te -777
dem -778
▁prowa -779
▁miesz -780
se -781
▁wszyst -782
▁spra -783
jął -784
▁moż -785
wier -786
ort -787
cznym -788
▁lip -789
ciu -790
śli -791
▁człon -792
wan -793
rot -794
▁uży -795
ckiej -796
ha -797
ing -798
▁si -799
pada -800
▁tu -801
stan -802
▁która -803
zji -804
▁współ -805
dzenia -806
▁14 -807
▁ry -808
▁stycznia -809
nią -810
▁listo -811
▁bud -812
▁praw -813
nad -814
onie -815
▁stro -816
stem -817
łe -818
tar -819
ciw -820
sław -821
▁Kra -822
▁kwiet -823
▁ten -824
▁udział -825
lek -826
min -827
ara -828
▁trze -829
wę -830
▁Euro -831
ster -832
dą -833
gry -834
”, -835
tora -836
▁począt -837
gii -838
uch -839
▁Ob -840
mier -841
▁stud -842
▁świat -843
▁Kon -844
noc -845
nił -846
ryty -847
20 -848
▁wojny -849
nicy -850
▁ostat -851
ang -852
▁września -853
wór -854
▁róż -855
▁zespo -856
▁dział -857
▁ek -858
orów -859
▁fil -860
▁hist -861
owarzy -862
mery -863
pro -864
nku -865
▁Ba -866
ńskiej -867
cją -868
▁Pra -869
▁13 -870
ństwa -871
uł -872
▁Al -873
der -874
łoż -875
czną -876
wersy -877
strze -878
łę -879
res -880
tych -881
▁peł -882
szego -883
▁pozost -884
▁produ -885
mach -886
zacji -887
now -888
▁par -889
▁lu -890
▁war -891
wersyte -892
▁zwy -893
cię -894
▁już -895
uje -896
cach -897
cjal -898
rząd -899
▁woje -900
dł -901
▁gdy -902
ste -903
stru -904
hi -905
ng -906
stawi -907
ber -908
▁którym -909
rach -910
czu -911
ształ -912
ale -913
chni -914
▁października -915
▁więk -916
") -917
▁reprez -918
▁zało -919
▁zakoń -920
▁maja -921
▁niemie -922
▁Ż -923
II -924
szym -925
200 -926
cił -927
▁polity -928
▁przeciw -929
sce -930
▁Wi -931
wiąza -932
▁czerwca -933
▁grudnia -934
udy -935
pły -936
▁ofi -937
▁koń -938
▁ele -939
▁miasta -940
▁dw -941
usz -942
tra -943
▁tylko -944
▁następnie -945
▁sierpnia -946
▁miejsc -947
▁Polski -948
▁dwa -949
▁trzy -950
więk -951
języ -952
edług -953
▁of -954
kim -955
szo -956
▁tytu -957
▁lipca -958
▁191 -959
▁odby -960
▁marca -961
kar -962
nach -963
▁pocho -964
▁lo -965
▁powst -966
dar -967
kcji -968
rii -969
▁uzy -970
vi -971
▁której -972
▁być -973
▁11 -974
kowo -975
dziej -976
kami -977
▁których -978
scho -979
fe -980
kiej -981
tek -982
miast -983
▁Da -984
ner -985
▁połu -986
▁kwietnia -987
▁otrzym -988
▁nauk -989
▁Au -990
czna -991
menta -992
dmi -993
▁wraz -994
▁pla -995
▁osob -996
kry -997
▁arty -998
▁Naj -999
wem -1000
gie -1001
mis -1002
▁listopada -1003
stytu -1004
▁kości -1005
owanych -1006
▁mistrzost -1007
gro -1008
powie -1009
▁okrę -1010
▁au -1011
stwo -1012
▁Woj -1013
▁wyko -1014
czes -1015
▁podsta -1016
czenia -1017
ckich -1018
me -1019
▁Był -1020
waż -1021
ate -1022
syj -1023
▁Wiel -1024
▁tere -1025
wali -1026
▁mat -1027
niku -1028
▁tam -1029
▁Pi -1030
two -1031
▁dow -1032
▁pozy -1033
▁Or -1034
▁posia -1035
glę -1036
▁zam -1037
▁poja -1038
▁cał -1039
roni -1040
▁Wie -1041
▁Pro -1042
nu -1043
▁To -1044
nistra -1045
▁Uniwersyte -1046
trz -1047
▁stos -1048
▁Jed -1049
▁Ta -1050
▁języ -1051
-19 -1052
▁wa -1053
redni -1054
▁miał -1055
row -1056
▁druży -1057
stu -1058
spół -1059
zo -1060
▁należ -1061
słu -1062
▁dro -1063
sti -1064
gen -1065
▁wyso -1066
tera -1067
▁śmier -1068
łowie -1069
▁skład -1070
ąd -1071
▁lut -1072
▁para -1073
▁pom -1074
man -1075
▁bę -1076
▁dwó -1077
▁tem -1078
dniej -1079
▁znajduje -1080
let -1081
ew -1082
gą -1083
▁So -1084
be -1085
▁groma -1086
nicz -1087
▁samo -1088
▁muzy -1089
▁powsta -1090
czął -1091
▁jednost -1092
gól -1093
pera -1094
stąpił -1095
▁lutego -1096
ktor -1097
grał -1098
▁De -1099
▁cy -1100
onal -1101
▁wojsk -1102
▁on -1103
niesi -1104
kra -1105
▁Me -1106
▁pot -1107
▁może -1108
wą -1109
▁Pierw -1110
▁fina -1111
▁zak -1112
▁którego -1113
▁około -1114
▁zach -1115
▁Przy -1116
ckim -1117
▁zostały -1118
wach -1119
owały -1120
wódz -1121
▁ucze -1122
▁pomo -1123
chu -1124
stów -1125
ard -1126
enta -1127
niach -1128
▁kier -1129
▁system -1130
▁samym -1131
▁spot -1132
wal -1133
ecnie -1134
▁Sa -1135
dat -1136
ścia -1137
mal -1138
lep -1139
▁północ -1140
▁Polsce -1141
▁utwo -1142
dal -1143
▁dwóch -1144
ultu -1145
▁zie -1146
▁nich -1147
▁Ju -1148
▁jedy -1149
▁Jo -1150
bro -1151
pol -1152
żył -1153
czeniu -1154
czenie -1155
▁Jego -1156
▁zaj -1157
▁Mu -1158
ces -1159
▁ser -1160
▁środ -1161
nikiem -1162
śród -1163
▁związ -1164
▁la -1165
che -1166
bur -1167
lim -1168
▁zmie -1169
▁mło -1170
▁skła -1171
bę -1172
niec -1173
▁pił -1174
ństw -1175
szedł -1176
▁klasy -1177
▁ponad -1178
▁św -1179
▁nim -1180
▁publi -1181
▁bada -1182
cych -1183
ir -1184
▁innych -1185
▁pie -1186
▁włas -1187
dał -1188
▁gene -1189
niczy -1190
żu -1191
kal -1192
ve -1193
żej -1194
▁ist -1195
oną -1196
▁190 -1197
▁pły -1198
▁wzglę -1199
nosi -1200
▁Sy -1201
▁pię -1202
▁cho -1203
lii -1204
tej -1205
asa -1206
prac -1207
▁bie -1208
dno -1209
▁Jest -1210
▁star -1211
per -1212
ium -1213
▁(1 -1214
▁XV -1215
par -1216
▁Warszawie -1217
▁ukoń -1218
torem -1219
ługo -1220
pli -1221
ckie -1222
▁posta -1223
▁se -1224
▁wykona -1225
▁fa -1226
zm -1227
arów -1228
▁two -1229
mian -1230
owali -1231
▁część -1232
▁społe -1233
fika -1234
wój -1235
rek -1236
cka -1237
▁łą -1238
▁licz -1239
ńskim -1240
oła -1241
▁km -1242
merykań -1243
-1 -1244
len -1245
tro -1246
▁zło -1247
▁świata -1248
▁tych -1249
pisa -1250
▁uzna -1251
▁poprze -1252
▁kilka -1253
ich -1254
▁ksią -1255
wania -1256
fii -1257
kowie -1258
cej -1259
▁Wil -1260
▁Ni -1261
▁światowej -1262
▁okresie -1263
▁25 -1264
▁służ -1265
czony -1266
▁30 -1267
orii -1268
▁powi -1269
działu -1270
wane -1271
▁sezonie -1272
▁proje -1273
ówczas -1274
▁początku -1275
▁zaś -1276
jącego -1277
▁ła -1278
▁stra -1279
▁nau -1280
▁zawo -1281
biut -1282
▁szy -1283
wany -1284
▁sil -1285
kości -1286
▁rozpoczę -1287
▁tytuł -1288
▁Kości -1289
twie -1290
rotnie -1291
▁Narod -1292
▁spe -1293
▁poś -1294
th -1295
▁działal -1296
▁prof -1297
▁Jan -1298
▁kam -1299
niki -1300
wskiego -1301
jącej -1302
▁kad -1303
▁kraju -1304
▁La -1305
mów -1306
▁ją -1307
szczy -1308
sem -1309
▁zdobył -1310
▁otrzymał -1311
▁bardzo -1312
▁Se -1313
jąca -1314
▁rozgry -1315
▁Fi -1316
▁księ -1317
dow -1318
▁osób -1319
▁We -1320
▁budy -1321
▁Ha -1322
lat -1323
▁niż -1324
▁szcze -1325
praw -1326
▁sob -1327
bior -1328
sów -1329
ięki -1330
rony -1331
rab -1332
dę -1333
▁amerykań -1334
▁chara -1335
jem -1336
▁zwycię -1337
▁sek -1338
kowi -1339
▁Szko -1340
▁wsi -1341
bar -1342
jedno -1343
▁obie -1344
onych -1345
cześniej -1346
2. -1347
▁zamie -1348
mula -1349
▁met -1350
kowa -1351
▁osią -1352
▁można -1353
narod -1354
aną -1355
▁cie -1356
tym -1357
nienia -1358
▁zacho -1359
atoli -1360
ho -1361
▁położ -1362
dministra -1363
pej -1364
szcza -1365
▁Bra -1366
▁południ -1367
laz -1368
dach -1369
nami -1370
łow -1371
tal -1372
łości -1373
▁Lud -1374
▁ponow -1375
0, -1376
któ -1377
▁mieszkań -1378
ord -1379
▁gmi -1380
▁XI -1381
▁2007 -1382
▁Niem -1383
▁odpowie -1384
▁zat -1385
▁Dy -1386
stro -1387
▁oś -1388
ołnie -1389
▁miejscowo -1390
▁przeprowa -1391
▁terenie -1392
▁wojewódz -1393
▁2008 -1394
gna -1395
▁wielu -1396
ment -1397
▁ku -1398
▁XX -1399
▁Co -1400
ciel -1401
▁sztu -1402
lin -1403
▁Rze -1404
▁progra -1405
nictwa -1406
owało -1407
czonych -1408
aru -1409
▁wykorzy -1410
▁wers -1411
▁mają -1412
▁Y -1413
▁2011 -1414
liz -1415
▁tur -1416
▁2009 -1417
201 -1418
▁Ros -1419
żą -1420
cła -1421
., -1422
ęg -1423
kade -1424
▁obsz -1425
▁posiada -1426
▁dowód -1427
ria -1428
▁przypad -1429
ant -1430
▁lot -1431
it -1432
▁sku -1433
▁kat -1434
▁And -1435
liwo -1436
rzenia -1437
grani -1438
▁ci -1439
anów -1440
▁aut -1441
dzenie -1442
owymi -1443
ńskich -1444
ser -1445
tomiast -1446
▁natomiast -1447
▁part -1448
cego -1449
▁wówczas -1450
rytyj -1451
nica -1452
tr -1453
ver -1454
atun -1455
▁fran -1456
▁formula -1457
▁Be -1458
rew -1459
▁Świ -1460
▁powodu -1461
▁związa -1462
▁śmierci -1463
▁puł -1464
▁mę -1465
▁por -1466
▁gospo -1467
land -1468
▁2006 -1469
▁życia -1470
▁daw -1471
żenia -1472
▁każ -1473
▁III -1474
▁He -1475
▁spos -1476
▁Ber -1477
czyła -1478
zw -1479
▁kiedy -1480
licy -1481
▁kilku -1482
peł -1483
▁2010 -1484
▁gło -1485
▁wyb -1486
rócił -1487
wat -1488
▁zawie -1489
▁pró -1490
mar -1491
▁kieru -1492
▁narod -1493
cześnie -1494
▁okreś -1495
▁21 -1496
▁przedstawi -1497
▁nr -1498
▁189 -1499
jącym -1500
▁zawodni -1501
któw -1502
rum -1503
chy -1504
▁sprze -1505
▁jeden -1506
▁pracy -1507
wała -1508
gów -1509
▁zw -1510
▁24 -1511
▁uro -1512
▁jeszcze -1513
▁zostało -1514
▁uczest -1515
▁spraw -1516
▁an -1517
▁lud -1518
▁grupy -1519
▁żołnie -1520
▁uzysk -1521
▁ponownie -1522
▁tele -1523
gh -1524
▁wprowa -1525
pozy -1526
▁Podczas -1527
▁kultu -1528
nął -1529
▁Krzy -1530
▁celu -1531
zd -1532
kom -1533
▁reprezenta -1534
anu -1535
jącą -1536
▁Par -1537
▁rozpoczął -1538
▁v -1539
▁zosta -1540
tach -1541
ns -1542
▁długo -1543
scy -1544
▁jednym -1545
szech -1546
▁oj -1547
▁konku -1548
▁wpły -1549
sława -1550
łowa -1551
ler -1552
▁Si -1553
"). -1554
▁administra -1555
▁Kar -1556
▁samolo -1557
000 -1558
owski -1559
kształ -1560
▁uwa -1561
▁rzą -1562
podob -1563
giej -1564
ciej -1565
▁Bar -1566
osen -1567
▁wiele -1568
nar -1569
▁zespołu -1570
▁Sam -1571
forma -1572
▁głównie -1573
zj -1574
▁Ste -1575
▁Fe -1576
▁Gra -1577
▁Wa -1578
▁Ze -1579
▁bisku -1580
▁22 -1581
▁23 -1582
ią -1583
cen -1584
▁2014 -1585
▁powierz -1586
▁2012 -1587
ałe -1588
▁Następ -1589
▁tran -1590
logi -1591
▁gatun -1592
RR -1593
▁cią -1594
mienia -1595
qu -1596
mentu -1597
muje -1598
▁rodza -1599
les -1600
▁zaję -1601
chodzi -1602
III -1603
▁często -1604
mite -1605
▁ozna -1606
▁2013 -1607
leks -1608
kwi -1609
▁spotka -1610
▁dwie -1611
▁2005 -1612
▁kierow -1613
owaniu -1614
dziel -1615
▁so -1616
nim -1617
gar -1618
▁Zost -1619
ien -1620
wały -1621
▁właści -1622
owia -1623
▁Ok -1624
rzem -1625
▁charakt -1626
star -1627
szu -1628
gę -1629
▁dnia -1630
▁powiecie -1631
▁Stani -1632
▁pierwszej -1633
▁Bry -1634
▁którzy -1635
▁wiel -1636
organi -1637
▁siedzi -1638
▁wybra -1639
onów -1640
wać -1641
▁1945 -1642
▁nowo -1643
wski -1644
▁prezy -1645
▁drugi -1646
▁cze -1647
▁miała -1648
wanie -1649
tyw -1650
lenia -1651
▁US -1652
form -1653
▁podob -1654
▁będą -1655
▁Wło -1656
▁francu -1657
▁Lo -1658
br -1659
▁członkiem -1660
▁wcześniej -1661
▁kraj -1662
▁polski -1663
wyż -1664
▁dzieci -1665
rami -1666
▁najlep -1667
pę -1668
▁koniec -1669
▁Według -1670
szpa -1671
rzyma -1672
▁fir -1673
▁wscho -1674
▁przewodni -1675
▁Kró -1676
▁słu -1677
▁Zjedno -1678
▁2004 -1679
▁miejscu -1680
▁wszystkich -1681
daw -1682
▁28 -1683
racji -1684
▁budow -1685
por -1686
▁elekt -1687
zuje -1688
▁cent -1689
▁umie -1690
łem -1691
lega -1692
▁książ -1693
czący -1694
▁aby -1695
▁ak -1696
▁su -1697
dopodob -1698
czej -1699
▁Go -1700
▁popu -1701
cyjnych -1702
nisty -1703
rom -1704
ach -1705
▁Jó -1706
▁występu -1707
śnie -1708
▁profes -1709
▁27 -1710
▁większo -1711
byt -1712
ont -1713
▁ha -1714
lach -1715
▁wyniku -1716
▁eksp -1717
▁Polskiego -1718
▁gospodar -1719
▁tre -1720
▁funkcję -1721
▁rosyj -1722
nętrz -1723
ke -1724
▁Ge -1725
▁ga -1726
▁wypo -1727
▁26 -1728
▁osiąg -1729
▁archi -1730
nio -1731
▁Mat -1732
▁wspól -1733
żenie -1734
▁Su -1735
▁1939 -1736
ńska -1737
▁klub -1738
▁kobie -1739
▁Józe -1740
▁Roz -1741
tami -1742
wet -1743
▁Hi -1744
kaza -1745
▁syn -1746
▁rodziny -1747
▁pierwszym -1748
▁zd -1749
▁1954 -1750
krai -1751
▁najwięk -1752
▁Związ -1753
cjach -1754
▁roze -1755
ote -1756
bum -1757
cent -1758
▁mieszkańców -1759
▁Jana -1760
▁historii -1761
▁awan -1762
cin -1763
▁Ry -1764
tom -1765
sch -1766
got -1767
▁wynosi -1768
ati -1769
bą -1770
ódz -1771
▁drugiej -1772
kcie -1773
▁ramach -1774
▁meczu -1775
▁zespół -1776
▁mniej -1777
owią -1778
▁Wła -1779
▁Ga -1780
▁czym -1781
▁dowo -1782
▁strony -1783
owskiego -1784
▁prawo -1785
▁pomiędzy -1786
▁suk -1787
▁tr -1788
▁Lu -1789
cami -1790
pisał -1791
ńskie -1792
czności -1793
2, -1794
▁zbud -1795
stwie -1796
▁dwu -1797
▁2015 -1798
3, -1799
leży -1800
▁byli -1801
▁połą -1802
▁lecz -1803
▁pracował -1804
▁typu -1805
pij -1806
rowi -1807
tery -1808
▁niego -1809
▁sposób -1810
▁istnie -1811
sił -1812
kowej -1813
gło -1814
▁zgo -1815
▁niej -1816
czaj -1817
▁Ty -1818
dniu -1819
debiut -1820
▁innymi -1821
▁rej -1822
▁Instytu -1823
▁188 -1824
▁swoją -1825
▁ul -1826
rót -1827
fik -1828
dziła -1829
tego -1830
sied -1831
"), -1832
▁Stra -1833
tę -1834
ros -1835
encji -1836
▁organiza -1837
stos -1838
▁Joh -1839
▁zde -1840
▁pozosta -1841
▁zre -1842
▁jedynie -1843
▁Ru -1844
▁studia -1845
ósł -1846
▁Cent -1847
niesie -1848
choty -1849
ecznie -1850
▁Europy -1851
rocła -1852
▁Rady -1853
▁wice -1854
lni -1855
czono -1856
▁dzięki -1857
▁trzech -1858
▁szyb -1859
▁gór -1860
wana -1861
▁którą -1862
▁Ży -1863
▁ran -1864
▁pan -1865
▁swojej -1866
▁29 -1867
▁ata -1868
zja -1869
cyjne -1870
▁zasa -1871
▁zwie -1872
ciem -1873
SRR -1874
lia -1875
▁regi -1876
niósł -1877
andy -1878
▁Ho -1879
bry -1880
▁Stu -1881
▁znalaz -1882
pniu -1883
▁rozgryw -1884
tą -1885
▁turniej -1886
usza -1887
▁Pe -1888
▁Hen -1889
▁2016 -1890
moż -1891
▁wielo -1892
▁czyli -1893
▁stał -1894
▁pozycji -1895
wu -1896
▁Akade -1897
▁Pozna -1898
▁31 -1899
▁strze -1900
nes -1901
▁Ca -1902
▁okaz -1903
lił -1904
wiad -1905
▁wojnie -1906
▁względu -1907
▁koncer -1908
dzono -1909
▁tzw -1910
limpij -1911
▁San -1912
▁funkcj -1913
▁usta -1914
szenia -1915
lei -1916
▁my -1917
cenia -1918
cę -1919
▁Pie -1920
ff -1921
▁komp -1922
▁Gru -1923
ój -1924
▁Głów -1925
entu -1926
▁czte -1927
atali -1928
▁XIX -1929
▁ź -1930
▁The -1931
▁zajął -1932
▁średni -1933
▁obej -1934
lom -1935
▁razem -1936
ans -1937
publi -1938
misji -1939
▁mogą -1940
▁osa -1941
ięk -1942
▁sa -1943
▁znajd -1944
lenie -1945
nios -1946
▁Następnie -1947
▁obec -1948
▁Świę -1949
▁według -1950
nister -1951
▁och -1952
▁Ku -1953
▁Towarzy -1954
▁Cze -1955
▁rok -1956
▁np -1957
▁linii -1958
erwo -1959
owanego -1960
czone -1961
▁Part -1962
▁Sp -1963
ierę -1964
biera -1965
▁hi -1966
▁pun -1967
▁Bu -1968
▁świe -1969
▁krót -1970
▁utworz -1971
▁2000 -1972
▁mm -1973
lub -1974
▁Aleks -1975
▁Puch -1976
▁niewie -1977
kali -1978
grafi -1979
▁ne -1980
nal -1981
▁skrzy -1982
▁wśród -1983
ństwo -1984
▁Rob -1985
onej -1986
▁pojawi -1987
▁państw -1988
owanym -1989
szko -1990
▁zastęp -1991
▁cór -1992
▁gro -1993
chał -1994
glą -1995
▁komu -1996
va -1997
rzył -1998
▁zadebiut -1999
▁zawiera -2000
▁zmar -2001
logii -2002
▁Sto -2003
▁brytyj -2004
▁należą -2005
dami -2006
▁Pio -2007
▁ud -2008
del -2009
ton -2010
▁pier -2011
alu -2012
piero -2013
▁Mie -2014
▁rę -2015
▁film -2016
▁opera -2017
▁decy -2018
▁wol -2019
fek -2020
cjali -2021
▁konty -2022
▁2001 -2023
▁wło -2024
▁history -2025
▁zamiesz -2026
ph -2027
,5 -2028
grzy -2029
▁doty -2030
▁zap -2031
rzenie -2032
fikacji -2033
▁Dzie -2034
▁plan -2035
▁związku -2036
zmu -2037
ly -2038
▁mas -2039
▁Ne -2040
▁dom -2041
▁stanowisko -2042
▁sce -2043
rój -2044
▁nawet -2045
▁ki -2046
ator -2047
ten -2048
▁Francji -2049
▁rek -2050
▁2003 -2051
▁Kat -2052
wicz -2053
▁ang -2054
son -2055
cem -2056
naj -2057
▁litera -2058
▁ZSRR -2059
łat -2060
▁niektó -2061
kowe -2062
▁100 -2063
▁obraz -2064
▁zni -2065
zyj -2066
lew -2067
▁studi -2068
chow -2069
▁Poli -2070
czyna -2071
▁obo -2072
▁ona -2073
▁stru -2074
▁Op -2075
ałych -2076
gł -2077
▁stat -2078
wnętrz -2079
▁uzyskał -2080
waj -2081
▁podstawie -2082
fia -2083
wiąty -2084
▁nazwę -2085
▁Car -2086
▁kons -2087
szło -2088
sięcy -2089
▁wieś -2090
brze -2091
▁wyzna -2092
▁miejscowości -2093
▁2002 -2094
bardziej -2095
maga -2096
▁różnych -2097
▁Pre -2098
▁przyję -2099
pita -2100
▁pat -2101
kół -2102
krotnie -2103
ciela -2104
spoli -2105
czyć -2106
wizji -2107
▁gry -2108
▁mili -2109
▁kształ -2110
owanej -2111
▁Tu -2112
▁czasu -2113
▁Du -2114
▁pozio -2115
▁karie -2116
▁Uniwersytetu -2117
▁ukończył -2118
▁obro -2119
dziale -2120
▁Gór -2121
▁Armii -2122
bor -2123
wając -2124
▁mał -2125
▁opu -2126
▁186 -2127
arówno -2128
▁Aleksand -2129
eru -2130
▁Komite -2131
wod -2132
▁miasto -2133
▁sko -2134
skach -2135
▁zaczę -2136
▁świę -2137
▁podstaw -2138
ałym -2139
▁poje -2140
obec -2141
zeum -2142
▁swoich -2143
▁gminy -2144
▁przeciwko -2145
▁stwo -2146
▁2017 -2147
▁końca -2148
▁jedną -2149
tua -2150
▁Ki -2151
mieni -2152
50 -2153
▁Ser -2154
▁konstru -2155
ktyw -2156
nów -2157
▁szczegól -2158
▁1944 -2159
▁are -2160
▁Przed -2161
pew -2162
▁rośli -2163
▁szero -2164
dzna -2165
▁Ślą -2166
zio -2167
▁Zie -2168
▁awans -2169
ons -2170
▁wygra -2171
dania -2172
▁międzynarod -2173
▁kry -2174
▁Polskiej -2175
▁Chi -2176
▁reprezentacji -2177
nieważ -2178
▁Groma -2179
jen -2180
mniej -2181
▁187 -2182
▁musi -2183
▁reli -2184
▁1999 -2185
▁Gu -2186
cieli -2187
pod -2188
dzony -2189
▁połowie -2190
możli -2191
cyjnego -2192
▁Uniwersytecie -2193
tnie -2194
▁produk -2195
▁Został -2196
▁pierwsze -2197
▁utw -2198
▁punk -2199
cyjnej -2200
▁działalność -2201
▁album -2202
erytor -2203
▁For -2204
▁specjal -2205
▁Jednak -2206
▁zarzą -2207
▁tys -2208
amię -2209
▁pełnił -2210
▁ogło -2211
▁inter -2212
reta -2213
lacji -2214
karz -2215
▁zapro -2216
iera -2217
▁aż -2218
▁Pół -2219
▁Di -2220
▁tek -2221
▁wybu -2222
▁organiz -2223
czni -2224
▁bardziej -2225
▁kościoła -2226
▁twór -2227
chodzą -2228
▁stanie -2229
▁mor -2230
▁swojego -2231
▁włą -2232
▁trady -2233
ologi -2234
▁rozwi -2235
▁piosen -2236
▁Iz -2237
▁klubu -2238
▁państwa -2239
szenie -2240
▁dziedzi -2241
▁dokona -2242
▁okoli -2243
▁iż -2244
tedy -2245
▁szkoły -2246
cyjny -2247
▁Przez -2248
nością -2249
▁informa -2250
czych -2251
▁przedsta -2252
▁prawa -2253
▁Gre -2254
▁sobie -2255
▁nazy -2256
▁dodat -2257
▁grani -2258
▁swoim -2259
▁Zjednoczonych -2260
rąz -2261
▁zadebiutował -2262
dent -2263
are -2264
ralnej -2265
tury -2266
▁trakcie -2267
ura -2268
▁Akademii -2269
log -2270
▁opi -2271
▁Ostat -2272
▁Kor -2273
owod -2274
kro -2275
niego -2276
cep -2277
▁Wojsk -2278
6, -2279
▁bram -2280
organiz -2281
▁ludzi -2282
lony -2283
net -2284
ld -2285
▁regu -2286
▁Cho -2287
▁Am -2288
▁sym -2289
stanowi -2290
dań -2291
mysł -2292
▁wojen -2293
▁cię -2294
▁niewiel -2295
▁reprezent -2296
▁eg -2297
▁one -2298
▁niez -2299
ater -2300
▁bli -2301
▁1998 -2302
tychczas -2303
kowych -2304
ble -2305
koła -2306
▁wszystkie -2307
▁inne -2308
▁otwar -2309
▁ge -2310
▁domu -2311
▁Wal -2312
▁(18 -2313
1, -2314
rie -2315
▁sza -2316
oto -2317
▁the -2318
▁Tur -2319
▁Krakowie -2320
ger -2321
▁kontra -2322
▁oficjal -2323
▁Między -2324
▁Sch -2325
▁organizacji -2326
▁am -2327
▁żołnierzy -2328
▁pew -2329
▁poch -2330
▁członków -2331
ondy -2332
miany -2333
▁wybo -2334
▁konkur -2335
car -2336
twór -2337
nd -2338
▁zakre -2339
▁obecnie -2340
pat -2341
cką -2342
kowy -2343
▁(200 -2344
▁Okrę -2345
dzić -2346
▁doku -2347
las -2348
▁ter -2349
▁2018 -2350
▁towarzy -2351
kał -2352
▁fe -2353
▁Jako -2354
▁obowią -2355
▁Pow -2356
ham -2357
▁at -2358
▁Niemie -2359
▁poprzez -2360
▁autor -2361
1. -2362
ya -2363
▁znajdują -2364
▁pobli -2365
rech -2366
dol -2367
liwości -2368
The -2369
rysty -2370
▁żad -2371
ora -2372
▁wysp -2373
lina -2374
▁pis -2375
▁Zak -2376
▁takich -2377
▁meda -2378
▁Franci -2379
▁katoli -2380
gru -2381
▁terytor -2382
kle -2383
▁krzy -2384
siębior -2385
▁dni -2386
▁rozwo -2387
▁podzie -2388
▁zwo -2389
▁zarówno -2390
▁swój -2391
ktora -2392
▁cztery -2393
czego -2394
wano -2395
▁wystąpił -2396
ściu -2397
▁Lw -2398
▁Wrocła -2399
poś -2400
▁tę -2401
lnej -2402
▁El -2403
▁pracę -2404
▁przygot -2405
▁króla -2406
▁materi -2407
jach -2408
▁Karo -2409
menty -2410
▁USA -2411
atem -2412
▁wyposa -2413
▁więc -2414
▁rez -2415
▁Th -2416
ari -2417
▁wska -2418
fina -2419
▁składa -2420
ezpie -2421
▁zajm -2422
onomi -2423
▁Fa -2424
▁Henry -2425
▁wywo -2426
mor -2427
▁kościół -2428
▁wysokości -2429
▁pojedy -2430
▁urzę -2431
dopodobnie -2432
▁kur -2433
wolu -2434
▁należy -2435
cyd -2436
▁potem -2437
▁mistrzostw -2438
▁pomoc -2439
▁przypadku -2440
▁jednego -2441
▁rolę -2442
▁król -2443
▁genera -2444
▁samego -2445
▁zbi -2446
▁Amery -2447
▁poświę -2448
▁Sie -2449
▁powstał -2450
▁męż -2451
nin -2452
▁Związku -2453
▁mocy -2454
dnich -2455
▁Dz -2456
▁1997 -2457
dyna -2458
ralnego -2459
▁stanu -2460
4, -2461
lot -2462
▁euro -2463
czyn -2464
ortu -2465
▁Gdy -2466
▁dotychczas -2467
▁maszy -2468
▁mó -2469
▁opie -2470
▁kierunku -2471
▁postaci -2472
▁prezyden -2473
▁polskich -2474
▁popular -2475
▁metrów -2476
kość -2477
▁sezonu -2478
–199 -2479
raż -2480
▁miały -2481
▁potrze -2482
tości -2483
▁pokona -2484
▁cięż -2485
5, -2486
▁wyd -2487
▁wojska -2488
▁mian -2489
▁teren -2490
▁Mia -2491
wej -2492
▁filo -2493
▁miejsca -2494
gan -2495
30 -2496
lum -2497
▁min -2498
▁turnieju -2499
kazał -2500
łych -2501
▁czyn -2502
▁gromady -2503
▁Biał -2504
▁Anto -2505
▁sytua -2506
3. -2507
▁Obecnie -2508
▁poza -2509
▁mieście -2510
▁nauczy -2511
iece -2512
▁pas -2513
▁run -2514
nen -2515
▁reali -2516
sach -2517
poli -2518
▁Dru -2519
alo -2520
owiec -2521
▁świąty -2522
czeństwa -2523
▁zapew -2524
nter -2525
▁War -2526
▁charaktery -2527
śni -2528
krót -2529
▁rzecz -2530
ks -2531
▁prakty -2532
▁pierwszego -2533
▁parla -2534
tel -2535
broj -2536
▁projekt -2537
▁nag -2538
▁lokal -2539
▁duży -2540
▁najbardziej -2541
▁kontro -2542
▁olimpij -2543
dzone -2544
▁powoła -2545
kował -2546
pospoli -2547
▁kryty -2548
nictwo -2549
▁mistrzostwach -2550
▁nada -2551
gij -2552
▁Ada -2553
twem -2554
▁um -2555
▁Ang -2556
▁sprzeda -2557
cznymi -2558
▁chło -2559
–1 -2560
imna -2561
ńczy -2562
6. -2563
▁czar -2564
und -2565
▁Ponad -2566
▁jednostki -2567
▁pozna -2568
raty -2569
▁władz -2570
▁przeszedł -2571
▁Ed -2572
▁pry -2573
zależ -2574
ret -2575
▁powierzchni -2576
▁papie -2577
▁pracow -2578
▁warun -2579
oni -2580
▁batali -2581
▁rząd -2582
▁całkowi -2583
▁uni -2584
▁pułku -2585
nich -2586
▁meto -2587
▁biskup -2588
mit -2589
▁prez -2590
▁tru -2591
wskiej -2592
gó -2593
▁stronie -2594
▁Mistrzost -2595
▁Ce -2596
▁Spo -2597
staw -2598
łowy -2599
▁ści -2600
strza -2601
▁Andrze -2602
▁wspo -2603
moc -2604
-2 -2605
▁drew -2606
▁Dzi -2607
▁oficer -2608
łonek -2609
fry -2610
▁pochodzą -2611
▁IV -2612
nienie -2613
▁oby -2614
czki -2615
▁grup -2616
▁uli -2617
ina -2618
▁her -2619
▁Hu -2620
▁tłu -2621
▁struktu -2622
▁przej -2623
teres -2624
▁zain -2625
▁pisa -2626
rócz -2627
lerii -2628
▁szczy -2629
dgo -2630
▁współprac -2631
▁dopiero -2632
▁dal -2633
gn -2634
5. -2635
▁staro -2636
▁Pary -2637
▁spowod -2638
▁Rad -2639
cenie -2640
▁Czę -2641
groma -2642
nicj -2643
szka -2644
▁Ukrai -2645
czona -2646
zem -2647
▁Świata -2648
▁walki -2649
dź -2650
kacji -2651
rat -2652
▁gdyż -2653
dia -2654
▁1994 -2655
onor -2656
sługi -2657
ściej -2658
▁Rzy -2659
wego -2660
▁Ci -2661
▁katego -2662
▁pochodzi -2663
krótce -2664
▁zajmu -2665
▁1990 -2666
▁wielko -2667
róci -2668
działy -2669
▁von -2670
▁parafii -2671
▁będzie -2672
onego -2673
▁serii -2674
▁lek -2675
▁Zam -2676
▁oprac -2677
▁pe -2678
▁wyborach -2679
▁wybud -2680
▁wyróż -2681
▁przeniesi -2682
▁Pola -2683
▁uz -2684
owców -2685
dne -2686
atów -2687
▁oku -2688
▁powrócił -2689
▁1989 -2690
▁produkcji -2691
▁Uro -2692
▁armii -2693
gła -2694
▁Ło -2695
cko -2696
▁obsza -2697
▁kontynu -2698
▁godzi -2699
żony -2700
szła -2701
▁zali -2702
czka -2703
▁człowie -2704
cielem -2705
▁Tra -2706
dli -2707
▁Bryta -2708
▁Połu -2709
▁techni -2710
▁mal -2711
▁wier -2712
▁odzna -2713
▁wyści -2714
ległości -2715
▁Rzeczy -2716
lij -2717
dyj -2718
▁Nauk -2719
▁przyzna -2720
▁karierę -2721
▁sukces -2722
▁angiel -2723
jów -2724
owiada -2725
▁medal -2726
▁użyt -2727
mentów -2728
▁służby -2729
▁źród -2730
▁Wielkiej -2731
▁Kazi -2732
▁Ri -2733
▁obu -2734
▁Miej -2735
niczej -2736
▁Vi -2737
▁Północ -2738
▁długości -2739
7, -2740
▁przyby -2741
▁wyco -2742
▁Są -2743
▁Bel -2744
lnego -2745
▁dostęp -2746
▁wyłą -2747
▁doprowa -2748
pia -2749
▁50 -2750
▁ana -2751
▁zakończeniu -2752
▁dzien -2753
▁Ponadto -2754
▁1975 -2755
▁Os -2756
▁1996 -2757
rag -2758
▁wtedy -2759
▁oddział -2760
▁Har -2761
wych -2762
▁szere -2763
spek -2764
▁zmieni -2765
emu -2766
▁Europej -2767
▁Szcze -2768
▁waż -2769
▁kolejnych -2770
▁Począt -2771
▁1992 -2772
sh -2773
▁umieszcz -2774
pospolitej -2775
.) -2776
▁num -2777
▁Sk -2778
▁gó -2779
▁Stanisław -2780
▁mecz -2781
▁bezpoś -2782
▁Kazimie -2783
▁poko -2784
▁polskiej -2785
żynie -2786
▁następu -2787
▁pierwszych -2788
▁Jej -2789
▁reda -2790
▁0 -2791
alne -2792
anta -2793
▁sekreta -2794
▁powstania -2795
▁Her -2796
▁Włady -2797
▁Pet -2798
▁Pu -2799
▁cmenta -2800
widu -2801
atunek -2802
▁wobec -2803
ryj -2804
▁anty -2805
▁ostatecznie -2806
▁gen -2807
▁zorganiz -2808
▁takie -2809
▁sła -2810
▁proce -2811
▁rzeczy -2812
▁władzy -2813
▁Republi -2814
▁odkry -2815
rześci -2816
▁drugie -2817
▁1991 -2818
▁wzro -2819
wskim -2820
▁nazwa -2821
▁areszt -2822
▁Towarzystwa -2823
klu -2824
▁pła -2825
▁dyrek -2826
rych -2827
▁ciągu -2828
stw -2829
▁Kościoła -2830
lone -2831
▁kolo -2832
knię -2833
▁wę -2834
▁kolei -2835
▁Pla -2836
▁teat -2837
▁Kościół -2838
▁1918 -2839
▁pł -2840
▁wszystkim -2841
▁sport -2842
stał -2843
▁No -2844
▁węg -2845
unda -2846
▁szta -2847
ong -2848
▁ów -2849
serw -2850
▁objął -2851
▁per -2852
▁drużyny -2853
▁dwo -2854
ejm -2855
lnych -2856
▁radzie -2857
▁sre -2858
giem -2859
dnim -2860
▁przeby -2861
owaniem -2862
▁obszar -2863
4. -2864
▁siebie -2865
▁przestrze -2866
▁igrzy -2867
▁przedsiębior -2868
▁kandy -2869
czyz -2870
▁grupa -2871
▁występuje -2872
▁Nor -2873
emok -2874
▁sing -2875
▁zdecyd -2876
▁pos -2877
cyjnym -2878
▁dniu -2879
▁gwia -2880
▁świecie -2881
lnym -2882
rzymy -2883
jekt -2884
▁ilo -2885
▁osied -2886
rona -2887
▁kamie -2888
▁kana -2889
▁1919 -2890
tur -2891
bs -2892
▁rodzin -2893
–197 -2894
▁zmarł -2895
▁trafi -2896
bili -2897
▁samocho -2898
▁przezna -2899
wyczaj -2900
uber -2901
▁dra -2902
▁Kolej -2903
fie -2904
▁Sh -2905
▁Q -2906
ft -2907
lian -2908
▁szkole -2909
▁hand -2910
alnych -2911
gdy -2912
pień -2913
▁rozwiąza -2914
▁partii -2915
lne -2916
▁syna -2917
▁aktyw -2918
▁wersji -2919
▁Cy -2920
▁rzym -2921
▁spad -2922
▁piechoty -2923
▁1995 -2924
▁Południ -2925
▁żydow -2926
▁piłkar -2927
wła -2928
▁działania -2929
▁Komitetu -2930
alny -2931
zan -2932
linie -2933
▁klaszt -2934
niz -2935
danie -2936
dro -2937
kazu -2938
wanych -2939
▁(199 -2940
▁Wol -2941
▁Pan -2942
▁siedzibą -2943
▁nor -2944
ward -2945
wają -2946
panii -2947
pla -2948
▁1993 -2949
niejszych -2950
stal -2951
łach -2952
▁Gó -2953
▁ziem -2954
rowin -2955
▁opubli -2956
▁Kam -2957
ciec -2958
wala -2959
ąt -2960
wym -2961
orą -2962
▁tech -2963
▁Mosk -2964
dom -2965
ose -2966
▁Gene -2967
▁Tar -2968
▁zastos -2969
▁brze -2970
▁wyra -2971
▁nowe -2972
▁ulicy -2973
▁jednej -2974
▁Rosji -2975
kowski -2976
▁zakła -2977
tz -2978
▁Hol -2979
▁stopnia -2980
8, -2981
▁184 -2982
▁2019 -2983
▁środowi -2984
▁brąz -2985
kowego -2986
▁auto -2987
żem -2988
▁em -2989
all -2990
▁działalności -2991
▁ple -2992
▁fak -2993
gach -2994
mien -2995
▁Jez -2996
▁typ -2997
▁zawar -2998
ałości -2999
▁ani -3000
▁Mary -3001
owicz -3002
▁czego -3003
▁Fil -3004
▁1940 -3005
▁Gi -3006
cym -3007
▁wyje -3008
ela -3009
RN -3010
śla -3011
▁efek -3012
alnego -3013
▁(2 -3014
stria -3015
woli -3016
bliote -3017
▁ziemi -3018
▁początkowo -3019
▁kadencji -3020
spi -3021
▁gre -3022
sunię -3023
czno -3024
▁kor -3025
▁tworzą -3026
7. -3027
10 -3028
▁1943 -3029
kimi -3030
rzysta -3031
▁ogól -3032
ńską -3033
▁stwier -3034
▁eli -3035
au -3036
dywidu -3037
▁powstała -3038
▁drze -3039
▁warsza -3040
rium -3041
▁miesią -3042
gnie -3043
▁prę -3044
▁przyczy -3045
▁większość -3046
▁tygo -3047
▁ruchu -3048
▁województwa -3049
.. -3050
▁natu -3051
▁Józef -3052
▁zab -3053
▁1941 -3054
▁miało -3055
tion -3056
▁przedstawia -3057
▁Kana -3058
▁form -3059
▁odpowiedzi -3060
▁cm -3061
▁znale -3062
▁1920 -3063
▁Ol -3064
▁współpra -3065
ama -3066
▁prace -3067
ill -3068
▁ośrod -3069
▁poda -3070
▁nagra -3071
▁rad -3072
kowym -3073
emi -3074
nera -3075
pon -3076
▁Mon -3077
▁czterech -3078
▁pt -3079
▁województwie -3080
▁Bud -3081
▁stanowią -3082
▁Kraj -3083
dzia -3084
▁dziel -3085
▁spół -3086
▁Niemiec -3087
rzego -3088
▁doszło -3089
▁filozo -3090
▁dotyczą -3091
tacji -3092
źnie -3093
▁roślin -3094
▁wybrany -3095
dnio -3096
nist -3097
niczych -3098
▁osoby -3099
wen -3100
▁styczniu -3101
oria -3102
▁40 -3103
▁Państw -3104
▁oznacza -3105
ley -3106
konu -3107
cio -3108
atyw -3109
▁and -3110
▁Zacho -3111
▁koście -3112
▁psy -3113
▁Partii -3114
▁opar -3115
żyser -3116
▁wyż -3117
▁biegu -3118
▁najmniej -3119
▁aktor -3120
liny -3121
▁występował -3122
▁zwięk -3123
▁każdy -3124
▁grał -3125
▁zapo -3126
▁biał -3127
des -3128
▁twier -3129
▁nowego -3130
mencie -3131
▁zaw -3132
▁seri -3133
▁jednocześnie -3134
feren -3135
tow -3136
stości -3137
▁ponieważ -3138
▁uzyska -3139
▁prowadzi -3140
▁czoł -3141
▁nagro -3142
▁Muzeum -3143
▁prawdopodobnie -3144
bia -3145
▁uważa -3146
▁wrześniu -3147
skiem -3148
▁zakończył -3149
▁telewi -3150
▁przebie -3151
▁przyja -3152
tyka -3153
▁tor -3154
▁Maria -3155
zdy -3156
▁preze -3157
▁rodzaju -3158
▁powro -3159
▁Star -3160
▁bu -3161
▁zawod -3162
▁Komisji -3163
▁wody -3164
▁umożli -3165
–200 -3166
ńca -3167
wienia -3168
▁Lub -3169
ell -3170
▁up -3171
ału -3172
▁klasyfikacji -3173
padzie -3174
domo -3175
▁transp -3176
▁1942 -3177
dniego -3178
▁cesa -3179
cony -3180
8. -3181
zjum -3182
▁tro -3183
▁Wscho -3184
trze -3185
▁ukła -3186
▁Księ -3187
▁stosun -3188
▁Ła -3189
nicę -3190
tna -3191
▁Międzynarod -3192
▁rady -3193
▁ówczes -3194
lny -3195
duk -3196
▁Naz -3197
▁wykony -3198
▁młodzie -3199
▁chi -3200
▁000 -3201
stąpiła -3202
▁Początkowo -3203
▁cer -3204
▁życie -3205
▁kol -3206
▁pomocą -3207
ss -3208
rob -3209
▁finans -3210
▁fizy -3211
onym -3212
▁Londy -3213
▁nazwą -3214
plom -3215
▁Man -3216
▁nowy -3217
▁Japo -3218
nice -3219
▁budowy -3220
rozu -3221
▁pobliżu -3222
▁mów -3223
▁wydaw -3224
▁zda -3225
▁Ludwi -3226
▁artysty -3227
▁przegra -3228
▁reak -3229
▁Jor -3230
częściej -3231
▁Minister -3232
▁budyn -3233
▁dwuk -3234
▁większości -3235
▁składzie -3236
▁centrum -3237
▁europej -3238
▁bro -3239
▁odbył -3240
▁kompozy -3241
▁Rów -3242
:1 -3243
▁pu -3244
usa -3245
▁gatunków -3246
▁więzie -3247
▁sztuki -3248
np -3249
75 -3250
rad -3251
▁zabi -3252
▁przede -3253
nić -3254
▁Brytanii -3255
▁pierwszą -3256
zję -3257
▁Pierwszy -3258
▁budynku -3259
wange -3260
kla -3261
▁szla -3262
▁punktów -3263
▁Hiszpa -3264
rybu -3265
▁odci -3266
chem -3267
imnazjum -3268
▁czerwcu -3269
▁Teat -3270
fy -3271
ille -3272
▁funkcjon -3273
▁pierwo -3274
▁Kom -3275
tan -3276
świad -3277
▁urzą -3278
▁niektórych -3279
▁instru -3280
gre -3281
▁Char -3282
▁Wyż -3283
▁maju -3284
rześcija -3285
ling -3286
▁wewnętrz -3287
▁kapli -3288
▁położona -3289
▁j -3290
▁lidze -3291
▁cel -3292
czącym -3293
▁nazwy -3294
▁1. -3295
▁przeło -3296
▁ur -3297
dera -3298
kazy -3299
bit -3300
szty -3301
▁Austra -3302
▁podję -3303
▁zniesi -3304
ance -3305
ens -3306
ścił -3307
▁Mari -3308
▁indywidu -3309
▁rozwoju -3310
▁obszarze -3311
▁kolejne -3312
▁grudniu -3313
nowa -3314
▁okresu -3315
▁et -3316
czach -3317
▁polskiego -3318
▁ligi -3319
▁prawie -3320
▁bio -3321
zów -3322
9, -3323
▁wej -3324
▁dotar -3325
▁dołą -3326
anga -3327
▁tar -3328
▁dowódz -3329
wor -3330
▁głę -3331
▁ucie -3332
▁określa -3333
▁danych -3334
▁symbo -3335
grup -3336
▁nar -3337
▁Rober -3338
▁Bydgo -3339
▁najwyż -3340
▁broni -3341
▁zabyt -3342
cyjną -3343
owca -3344
▁185 -3345
dzkiej -3346
▁RP -3347
▁wod -3348
▁założy -3349
▁prowadził -3350
▁wpływ -3351
▁Zakła -3352
stę -3353
▁więcej -3354
niczył -3355
▁New -3356
▁prywat -3357
blem -3358
▁ludności -3359
▁1946 -3360
▁szef -3361
▁gi -3362
▁Pri -3363
▁spę -3364
▁Europie -3365
▁lotni -3366
▁marcu -3367
▁okres -3368
liwość -3369
▁wywal -3370
ńców -3371
▁zaczął -3372
▁zatru -3373
▁prowin -3374
▁proces -3375
▁konf -3376
▁granicy -3377
▁foto -3378
▁wysta -3379
▁XVIII -3380
▁władze -3381
▁mieszka -3382
▁skier -3383
iego -3384
▁Wydziału -3385
dra -3386
▁ks -3387
▁stopniu -3388
▁zostali -3389
▁Poznaniu -3390
▁obję -3391
▁udało -3392
▁choć -3393
▁inte -3394
owaną -3395
▁zakresie -3396
era -3397
▁doktora -3398
kre -3399
przy -3400
▁ener -3401
▁mode -3402
czek -3403
duje -3404
nast -3405
▁Zmar -3406
▁zgi -3407
▁lipcu -3408
owań -3409
▁współczes -3410
▁zagro -3411
▁wykorzysty -3412
▁prób -3413
fer -3414
▁ide -3415
▁uch -3416
mio -3417
▁ciała -3418
▁zale -3419
▁członek -3420
/19 -3421
▁choro -3422
jawi -3423
▁Pucharu -3424
▁nazwi -3425
▁zależ -3426
▁dniem -3427
▁wzię -3428
▁projektu -3429
▁Hist -3430
▁Mikoła -3431
mana -3432
noszą -3433
▁temat -3434
▁183 -3435
raca -3436
▁Wydziale -3437
eksy -3438
▁powszech -3439
zacja -3440
łta -3441
▁filmu -3442
▁uleg -3443
▁forma -3444
▁Win -3445
▁bezpośredni -3446
▁poru -3447
miar -3448
szły -3449
▁sprawie -3450
▁di -3451
stka -3452
▁ds -3453
lona -3454
▁Józefa -3455
60 -3456
40 -3457
▁nią -3458
dła -3459
▁przer -3460
▁liczba -3461
rand -3462
▁edy -3463
▁języka -3464
▁rzeczywi -3465
▁razy -3466
▁inicj -3467
▁pręd -3468
stych -3469
łaszcza -3470
▁boh -3471
▁siost -3472
pt -3473
▁Króle -3474
ple -3475
rea -3476
czeń -3477
▁Inter -3478
ługi -3479
gli -3480
mer -3481
▁bezpie -3482
▁mistrz -3483
rzut -3484
rodę -3485
▁obowiąz -3486
▁październiku -3487
▁prezydenta -3488
▁zbior -3489
rin -3490
▁Stanisława -3491
▁Dla -3492
▁trzeci -3493
▁przeję -3494
źni -3495
▁prote -3496
syw -3497
▁mis -3498
kon -3499
▁wido -3500
Po -3501
▁Kie -3502
▁czasów -3503
formy -3504
skar -3505
ght -3506
▁siły -3507
▁listopadzie -3508
nąć -3509
wz -3510
▁tysięcy -3511
▁pokry -3512
▁oto -3513
pła -3514
▁1972 -3515
zwo -3516
łó -3517
▁czasem -3518
▁przyro -3519
▁diece -3520
ami -3521
▁systemu -3522
▁nowych -3523
▁mand -3524
kowskiego -3525
▁pała -3526
▁premie -3527
wiu -3528
▁medy -3529
▁przykład -3530
nety -3531
▁asy -3532
▁My -3533
szony -3534
▁pojedyn -3535
▁drugim -3536
łość -3537
szczegól -3538
▁kategorii -3539
▁Tade -3540
▁względem -3541
▁cywi -3542
alnie -3543
wicza -3544
▁rzeź -3545
eli -3546
gły -3547
▁odda -3548
łowi -3549
▁znacznie -3550
▁prowadzą -3551
szczenia -3552
▁program -3553
▁Ot -3554
▁At -3555
▁liczne -3556
▁wykorzysta -3557
▁kultury -3558
▁Fo -3559
omb -3560
80 -3561
▁równo -3562
▁Mor -3563
mimo -3564
▁Szy -3565
ciąg -3566
▁potwier -3567
dzeniu -3568
▁mógł -3569
▁Cie -3570
Ma -3571
▁instytu -3572
▁kapi -3573
▁Organi -3574
▁każd -3575
▁sierpniu -3576
grafii -3577
▁zmian -3578
▁postanowi -3579
ctwa -3580
rucho -3581
żer -3582
▁Fer -3583
pni -3584
▁Mimo -3585
aksy -3586
▁stała -3587
twy -3588
dek -3589
▁wzią -3590
zację -3591
▁Pierwsze -3592
▁Czar -3593
▁przekształ -3594
▁dowódcy -3595
▁zainteres -3596
▁badania -3597
▁pięć -3598
asi -3599
ęt -3600
▁pełni -3601
▁1938 -3602
▁rejonie -3603
met -3604
pierw -3605
▁robo -3606
▁kontrakt -3607
▁arcy -3608
obie -3609
▁języku -3610
▁końcu -3611
▁Mło -3612
▁religij -3613
czyły -3614
ln -3615
▁pojawia -3616
▁Col -3617
chani -3618
atych -3619
▁kwietniu -3620
▁1980 -3621
▁Zło -3622
dłuż -3623
uka -3624
▁rezerw -3625
▁Chri -3626
cal -3627
▁zagrani -3628
deł -3629
szto -3630
/200 -3631
prawy -3632
▁tłuma -3633
▁Piotr -3634
gia -3635
świę -3636
▁Augu -3637
▁Gro -3638
9. -3639
▁zmu -3640
▁rozegrał -3641
wód -3642
▁myśli -3643
▁wygrał -3644
▁Była -3645
▁pomocy -3646
▁gmin -3647
▁start -3648
▁stara -3649
▁wykład -3650
śl -3651
▁jezio -3652
dzeniem -3653
▁1988 -3654
▁Ek -3655
▁czele -3656
▁FC -3657
▁2. -3658
▁srebr -3659
▁spa -3660
fo -3661
▁budowę -3662
pen -3663
▁zamknię -3664
ana -3665
▁Wojska -3666
mon -3667
jącymi -3668
wało -3669
▁oddziały -3670
▁jedna -3671
rus -3672
▁piłkarz -3673
czność -3674
▁odcin -3675
▁rzeki -3676
▁boj -3677
gał -3678
▁frag -3679
dzona -3680
▁stylu -3681
▁elektry -3682
landii -3683
owę -3684
alnej -3685
▁znany -3686
kończył -3687
schód -3688
niesienia -3689
ństwie -3690
▁turysty -3691
▁gatunek -3692
▁Jedno -3693
▁Łodzi -3694
▁Zarzą -3695
com -3696
▁Afry -3697
jazd -3698
▁wartości -3699
rzeń -3700
▁Warszawy -3701
chów -3702
szał -3703
owskiej -3704
vo -3705
▁charakterysty -3706
czym -3707
▁założ -3708
▁XVI -3709
szek -3710
▁rol -3711
▁1973 -3712
▁lutym -3713
żyt -3714
kuje -3715
▁Ti -3716
strzem -3717
▁1921 -3718
▁niezależ -3719
▁Dzięki -3720
ralny -3721
▁179 -3722
techni -3723
owości -3724
▁Mal -3725
prawi -3726
▁pole -3727
▁stacji -3728
▁Czerwo -3729
cyjna -3730
▁Bie -3731
▁niepod -3732
▁inżynie -3733
dor -3734
katoli -3735
▁konta -3736
żeniu -3737
▁Kultu -3738
zach -3739
pisy -3740
▁napę -3741
▁miejscowość -3742
▁Geor -3743
▁Con -3744
▁szybko -3745
▁trakt -3746
▁kobiet -3747
▁tworzy -3748
stym -3749
▁całej -3750
piera -3751
nęła -3752
latego -3753
▁Współ -3754
▁Pat -3755
▁(201 -3756
skimi -3757
bił -3758
ralnych -3759
▁ojca -3760
▁trój -3761
▁złoż -3762
▁. -3763
▁Rol -3764
▁przeniósł -3765
▁znalazł -3766
prezent -3767
▁rozegra -3768
burgu -3769
▁Zas -3770
uter -3771
▁party -3772
▁Później -3773
gazy -3774
▁jesie -3775
:0 -3776
▁słowa -3777
▁czaso -3778
▁Gromada -3779
cyjnie -3780
▁stopień -3781
▁zwłaszcza -3782
▁Tam -3783
54 -3784
owice -3785
▁drużyn -3786
▁małże -3787
▁telewizyj -3788
▁Bor -3789
▁180 -3790
▁1948 -3791
▁księcia -3792
▁Bru -3793
ologii -3794
pisu -3795
▁występują -3796
spa -3797
▁1928 -3798
▁narodowej -3799
oważ -3800
▁cały -3801
strzy -3802
▁dziś -3803
▁programu -3804
▁Stowarzy -3805
▁stre -3806
▁listy -3807
▁Nowym -3808
70 -3809
▁Straży -3810
nikami -3811
▁tempera -3812
hel -3813
ralnym -3814
▁badań -3815
stiwa -3816
▁zy -3817
▁Willi -3818
▁rządu -3819
▁sił -3820
▁ska -3821
▁Urodził -3822
▁Sztu -3823
▁juni -3824
▁śre -3825
▁Toma -3826
▁działań -3827
▁Radzie -3828
▁karierze -3829
jaw -3830
▁pta -3831
▁powiatu -3832
jąt -3833
▁pia -3834
▁1981 -3835
▁podjął -3836
wajcar -3837
▁doświad -3838
kol -3839
▁wypad -3840
▁Com -3841
▁roli -3842
mentar -3843
▁nadz -3844
▁młod -3845
▁Węg -3846
▁ad -3847
▁sło -3848
▁Zmarł -3849
niosła -3850
ując -3851
▁mężczyz -3852
▁Im -3853
▁wią -3854
▁he -3855
▁łu -3856
▁rozpoczęła -3857
wną -3858
▁1984 -3859
▁utworzono -3860
▁artyku -3861
▁mln -3862
▁ode -3863
▁Tak -3864
▁budynek -3865
▁kated -3866
25 -3867
versi -3868
wienie -3869
▁mistrzostwo -3870
kową -3871
pię -3872
▁Micha -3873
▁trans -3874
▁1986 -3875
żek -3876
▁Ke -3877
lec -3878
nowi -3879
▁dniach -3880
▁Sze -3881
▁rywali -3882
czącego -3883
▁Sal -3884
.: -3885
▁nadal -3886
▁wstąpił -3887
▁1, -3888
▁Kali -3889
▁człowieka -3890
▁ć -3891
▁1987 -3892
▁Zy -3893
▁Is -3894
▁specjali -3895
▁Puł -3896
▁brał -3897
▁drewnia -3898
lip -3899
oba -3900
▁rundzie -3901
▁hiszpa -3902
broje -3903
▁albu -3904
▁mianowany -3905
parta -3906
cjami -3907
▁Szwe -3908
▁wymaga -3909
▁Wor -3910
▁Izra -3911
▁możli -3912
edi -3913
▁debiut -3914
mysłu -3915
▁Mc -3916
taj -3917
▁Narodowej -3918
siej -3919
▁stanowiska -3920
use -3921
niczego -3922
▁Qu -3923
▁1947 -3924
▁polityk -3925
45 -3926
▁Instytutu -3927
czem -3928
▁Korpu -3929
▁akcji -3930
▁sobą -3931
▁1937 -3932
▁iz -3933
rzad -3934
▁nowej -3935
loty -3936
czeniem -3937
▁1982 -3938
rzędu -3939
kowany -3940
Na -3941
▁duchow -3942
▁nieu -3943
▁pochodzenia -3944
▁sub -3945
giel -3946
listy -3947
▁Paryżu -3948
▁Białoru -3949
iadomo -3950
-18 -3951
▁problem -3952
▁głównym -3953
▁klubie -3954
▁isto -3955
▁fabry -3956
▁wokół -3957
▁pasa -3958
gue -3959
▁1985 -3960
▁oce -3961
▁kro -3962
bach -3963
▁Bur -3964
osta -3965
▁zmiany -3966
▁Stanów -3967
▁chwi -3968
▁archite -3969
wart -3970
niejsze -3971
▁wyłącznie -3972
▁Wojcie -3973
12 -3974
angaż -3975
▁amerykański -3976
graf -3977
gram -3978
czyli -3979
▁Narodowego -3980
▁jednostka -3981
▁konkuren -3982
▁ataku -3983
▁serialu -3984
▁uda -3985
rygi -3986
▁tymże -3987
▁1983 -3988
▁1956 -3989
▁Order -3990
tuł -3991
niż -3992
▁funkcji -3993
str -3994
▁Lot -3995
▁firmy -3996
15 -3997
▁moc -3998
▁wrócił -3999
▁najczęściej -4000
▁północnej -4001
▁Ban -4002
emokraty -4003
dri -4004
▁reżyser -4005
▁wiej -4006
-3 -4007
▁niemieckiej -4008
ation -4009
▁kr -4010
tość -4011
▁szczególnie -4012
▁otrzymała -4013
mend -4014
dium -4015
nięcia -4016
▁układ -4017
remier -4018
orem -4019
▁Występ -4020
▁liczby -4021
▁gminie -4022
▁przebud -4023
▁konfli -4024
waniu -4025
ręb -4026
▁medali -4027
▁most -4028
▁Tym -4029
sc -4030
kin -4031
▁eta -4032
▁John -4033
▁uniwersyte -4034
▁obok -4035
▁punkt -4036
cznika -4037
▁60 -4038
▁(198 -4039
ame -4040
czech -4041
działa -4042
▁czwar -4043
migra -4044
▁Para -4045
▁nacze -4046
▁dyplom -4047
zer -4048
▁dia -4049
▁1976 -4050
ll -4051
żd -4052
▁Ant -4053
ciele -4054
▁1922 -4055
▁Niemczech -4056
▁magazy -4057
▁Centrum -4058
▁ho -4059
▁powieści -4060
jan -4061
▁mimo -4062
ori -4063
▁podej -4064
gip -4065
▁popar -4066
wangeli -4067
▁związane -4068
niony -4069
int -4070
▁Fry -4071
▁ograni -4072
ematy -4073
znaw -4074
alnym -4075
hy -4076
▁bry -4077
rzeniu -4078
zupeł -4079
▁książę -4080
berg -4081
▁brak -4082
▁Szkoły -4083
owskim -4084
▁wspiera -4085
cznik -4086
▁wziął -4087
▁ło -4088
tura -4089
▁posiad -4090
bisku -4091
dzkiego -4092
▁Poz -4093
▁konstruk -4094
▁przyj -4095
▁polsko -4096
▁Pier -4097
▁najważ -4098
niami -4099
ąb -4100
▁pozwala -4101
▁dziesię -4102
▁sieci -4103
▁zostaje -4104
▁samej -4105
▁kariery -4106
▁Anglii -4107
nicą -4108
▁powierzch -4109
▁kwa -4110
ralne -4111
nale -4112
▁miesięcy -4113
▁Dow -4114
▁podpisał -4115
▁nauki -4116
▁Film -4117
▁grze -4118
▁poszczegól -4119
▁wyro -4120
win -4121
▁temu -4122
▁wspar -4123
▁częścią -4124
dzonej -4125
ies -4126
▁wydał -4127
lekt -4128
lam -4129
▁japo -4130
▁koncert -4131
bów -4132
ął -4133
▁prezydent -4134
ов -4135
dzonych -4136
▁podobnie -4137
równa -4138
▁pamię -4139
oby -4140
▁Fre -4141
dzili -4142
▁Piechoty -4143
pów -4144
▁upad -4145
▁gromad -4146
łał -4147
▁albo -4148
▁Yo -4149
śle -4150
▁zajmował -4151
▁1950 -4152
watel -4153
▁Andrzej -4154
kowano -4155
▁południowo -4156
▁Bro -4157
▁XVII -4158
▁nigdy -4159
kowane -4160
▁placów -4161
▁Ale -4162
▁wspom -4163
tok -4164
▁rezy -4165
▁przewo -4166
▁Gar -4167
▁1970 -4168
ts -4169
▁Adam -4170
up -4171
onem -4172
ił -4173
posto -4174
mię -4175
kazuje -4176
▁należała -4177
lera -4178
▁zostać -4179
▁odp -4180
▁wschód -4181
▁zawodnikiem -4182
▁Mart -4183
sion -4184
▁wład -4185
▁Universi -4186
▁Prac -4187
stwem -4188
zę -4189
▁Ten -4190
▁finale -4191
▁wą -4192
▁ojciec -4193
dziela -4194
cina -4195
▁dywi -4196
▁głębo -4197
▁uroczy -4198
▁nomina -4199
▁istni -4200
▁biskupa -4201
▁krą -4202
zdu -4203
▁Marii -4204
▁Brytyj -4205
▁koło -4206
▁Cham -4207
nis -4208
▁świad -4209
ped -4210
stry -4211
▁służył -4212
▁uczestniczył -4213
▁ekonomi -4214
▁dwukrotnie -4215
▁Dol -4216
▁północno -4217
▁duże -4218
▁Nad -4219
gon -4220
▁Kur -4221
▁Rok -4222
▁Mich -4223
▁Ludowej -4224
▁Londynie -4225
▁1978 -4226
▁1979 -4227
mę -4228
–18 -4229
▁1968 -4230
▁sytuacji -4231
▁oba -4232
▁ołta -4233
▁Najwyż -4234
▁zakład -4235
żyć -4236
szuki -4237
▁wyjąt -4238
▁współpracy -4239
▁dź -4240
chowy -4241
▁właśnie -4242
dności -4243
▁żona -4244
▁zabud -4245
▁synem -4246
gady -4247
que -4248
▁1934 -4249
▁ude -4250
ven -4251
tycznych -4252
▁maszyn -4253
▁Puchar -4254
łami -4255
▁wzniesi -4256
▁zawodach -4257
▁zajęła -4258
▁zim -4259
▁Polskich -4260
czyk -4261
▁Samo -4262
▁możliwość -4263
▁1936 -4264
wate -4265
▁parafi -4266
▁meta -4267
tyczne -4268
▁VI -4269
▁charakter -4270
kupi -4271
/201 -4272
▁celem -4273
▁pozba -4274
▁zdo -4275
Ch -4276
▁prawosław -4277
▁rewolu -4278
▁zdobyła -4279
▁oficerów -4280
szył -4281
▁drogi -4282
▁rozpoczęto -4283
▁Trze -4284
cono -4285
▁ukrai -4286
▁śpie -4287
▁lep -4288
▁barwach -4289
lami -4290
▁Cor -4291
▁Dob -4292
▁182 -4293
owicach -4294
wił -4295
▁postać -4296
▁1974 -4297
▁przemysł -4298
▁Niemcy -4299
▁niemiecki -4300
▁reformy -4301
▁Francu -4302
▁chrześcija -4303
▁wytwór -4304
twarza -4305
▁całkowicie -4306
szono -4307
▁nauczyciel -4308
▁1969 -4309
▁handl -4310
▁Polska -4311
▁zagrał -4312
▁sch -4313
sen -4314
▁formie -4315
dziesią -4316
ostęp -4317
▁południowej -4318
pal -4319
▁ban -4320
▁blo -4321
▁wio -4322
▁liście -4323
maty -4324
ździe -4325
▁Dywizji -4326
trza -4327
▁elimina -4328
▁minister -4329
mieniu -4330
▁niemieckich -4331
▁hu -4332
▁punkty -4333
▁wchodzi -4334
andii -4335
▁wybuchu -4336
▁okupa -4337
▁mistrza -4338
▁guber -4339
ądź -4340
lt -4341
▁zas -4342
▁bitwie -4343
▁en -4344
▁akade -4345
hu -4346
▁niemal -4347
▁stand -4348
▁dostar -4349
▁drodze -4350
▁Bri -4351
szość -4352
▁pancer -4353
▁czerwo -4354
▁okręgu -4355
czości -4356
▁okrętów -4357
▁pią -4358
▁Wrocławiu -4359
ciar -4360
terze -4361
stiwalu -4362
▁Konstan -4363
▁1960 -4364
asy -4365
▁wicemi -4366
▁muzyki -4367
▁Chry -4368
▁1949 -4369
▁Han -4370
▁Matki -4371
▁szereg -4372
▁dobrze -4373
▁Więk -4374
wojen -4375
▁try -4376
wnątrz -4377
▁Eu -4378
gat -4379
▁0, -4380
kiew -4381
▁konie -4382
▁filmie -4383
ore -4384
obi -4385
▁poważ -4386
kan -4387
▁rodzinie -4388
▁odzy -4389
pow -4390
▁czasopis -4391
▁rozbud -4392
▁możliwości -4393
uri -4394
▁całym -4395
rzbie -4396
▁Arty -4397
▁Republiki -4398
stąpie -4399
▁rzad -4400
▁Spe -4401
▁bur -4402
▁Krzyżem -4403
▁jednostek -4404
siem -4405
▁połowy -4406
dr -4407
▁zagra -4408
▁Ziemi -4409
▁utrzyma -4410
▁Lwowie -4411
▁różne -4412
▁obrony -4413
▁Muzy -4414
▁swego -4415
▁wczes -4416
▁Ofi -4417
▁, -4418
▁młody -4419
▁port -4420
tne -4421
▁Gdań -4422
▁spotkaniu -4423
▁igrzyskach -4424
▁1930 -4425
▁szpita -4426
▁1977 -4427
gmu -4428
pisany -4429
aliz -4430
▁magi -4431
▁odwie -4432
mat -4433
▁Lubli -4434
▁Środ -4435
▁odbyła -4436
▁zmniej -4437
▁mieli -4438
▁3. -4439
▁Per -4440
▁oskar -4441
▁zwykle -4442
burg -4443
zwyczaj -4444
▁okręt -4445
▁1924 -4446
▁Stan -4447
▁Oprócz -4448
▁stad -4449
▁Davi -4450
skę -4451
jewódz -4452
14 -4453
▁obejmu -4454
▁orga -4455
▁dowódca -4456
▁80. -4457
▁studiował -4458
▁terytorium -4459
nne -4460
▁Często -4461
nocy -4462
▁Mona -4463
▁ścia -4464
▁Prezy -4465
nicze -4466
▁kolejny -4467
▁uwagę -4468
▁wro -4469
▁sezon -4470
szki -4471
▁Ostatecznie -4472
▁zachód -4473
▁radi -4474
▁ofiar -4475
▁austria -4476
▁sę -4477
rak -4478
ściach -4479
▁zau -4480
▁momentu -4481
oli -4482
▁obra -4483
▁wybrze -4484
KP -4485
▁wspólnie -4486
ńcu -4487
▁nową -4488
▁rozwój -4489
▁rozgrywek -4490
▁Jerzy -4491
▁Hiszpanii -4492
deracji -4493
kl -4494
▁Aust -4495
▁Jaku -4496
▁najstar -4497
▁olimpijskich -4498
▁Nazwa -4499
▁świątyni -4500
▁Cmenta -4501
undu -4502
Li -4503
▁Stanach -4504
grze -4505
▁sukce -4506
▁Rom -4507
▁Mad -4508
hip -4509
▁ostatni -4510
▁Regi -4511
▁Rosyj -4512
▁obwo -4513
▁dob -4514
▁1971 -4515
▁sześć -4516
▁wyraz -4517
▁uszko -4518
naście -4519
kiewicz -4520
13 -4521
west -4522
▁profesor -4523
nastu -4524
▁bądź -4525
▁Cel -4526
▁postęp -4527
▁1961 -4528
typ -4529
▁żół -4530
▁zachodniej -4531
port -4532
cząc -4533
ct -4534
▁Łą -4535
▁studiów -4536
▁kos -4537
gres -4538
▁Podob -4539
▁dzisiej -4540
sar -4541
▁polskim -4542
dnik -4543
▁1952 -4544
▁terytori -4545
▁pierwsza -4546
." -4547
▁przeniesiony -4548
▁ca -4549
dzania -4550
cone -4551
▁imię -4552
owiem -4553
▁pochowany -4554
rzch -4555
▁wybor -4556
▁odw -4557
▁Maz -4558
▁obserw -4559
▁zaangaż -4560
▁wyjechał -4561
zygn -4562
▁zgodnie -4563
OP -4564
▁zewnętrz -4565
▁komi -4566
nęło -4567
puszcz -4568
▁Wśród -4569
czyło -4570
▁Er -4571
wscho -4572
dale -4573
▁komunika -4574
▁Ab -4575
65 -4576
▁orygi -4577
▁otrzyma -4578
prawia -4579
39 -4580
▁Wszyst -4581
▁arcybisku -4582
▁Wilhel -4583
▁1917 -4584
▁polska -4585
▁ros -4586
▁kierun -4587
her -4588
▁1959 -4589
▁500 -4590
▁bomb -4591
▁Bydgoszczy -4592
▁90. -4593
▁Mał -4594
▁Ich -4595
▁ląd -4596
bina -4597
▁działacz -4598
▁oni -4599
tari -4600
▁nagrodę -4601
ułgar -4602
▁Ir -4603
▁coraz -4604
▁naro -4605
▁zbli -4606
dwie -4607
Le -4608
dago -4609
▁1958 -4610
▁chemi -4611
iem -4612
daniem -4613
porząd -4614
▁1967 -4615
▁wywalczył -4616
▁rozpoczyna -4617
▁ochrony -4618
▁samodziel -4619
▁1935 -4620
▁służbę -4621
chód -4622
▁Wz -4623
▁proble -4624
dziło -4625
▁mary -4626
▁przysz -4627
▁głos -4628
dzeń -4629
▁półfina -4630
wacji -4631
▁Zygmu -4632
▁Moskwie -4633
▁zdol -4634
▁zaprojekt -4635
▁prowincji -4636
kur -4637
żnej -4638
▁Jak -4639
pan -4640
▁mająt -4641
niowej -4642
▁komór -4643
wol -4644
▁Ist -4645
ografi -4646
▁dr -4647
▁nimi -4648
▁ukaz -4649
żeli -4650
▁dem -4651
▁poe -4652
▁1957 -4653
▁Praw -4654
▁nieco -4655
▁Kry -4656
▁stanowisku -4657
▁Meksy -4658
▁materiał -4659
▁Zo -4660
▁wkrótce -4661
▁Lin -4662
▁Park -4663
▁walk -4664
11 -4665
dery -4666
▁Zna -4667
▁meczach -4668
▁dzielnicy -4669
▁cech -4670
▁kandydat -4671
dzki -4672
godnie -4673
▁nosi -4674
▁pracu -4675
▁Pił -4676
▁głosów -4677
▁histor -4678
pii -4679
▁ministra -4680
▁pięciu -4681
▁zniesionej -4682
▁wymieni -4683
▁Władysław -4684
▁edu -4685
▁walce -4686
wami -4687
▁powstały -4688
▁trafił -4689
▁reje -4690
tt -4691
▁rozgrywkach -4692
▁1962 -4693
▁trzecie -4694
▁dzień -4695
▁krę -4696
lonych -4697
▁zmia -4698
lig -4699
rego -4700
kana -4701
put -4702
▁wnę -4703
seud -4704
genty -4705
rzyst -4706
▁proto -4707
▁1954–197 -4708
▁1932 -4709
▁zwyczaj -4710
▁Pawła -4711
bin -4712
szewi -4713
▁zbyt -4714
gal -4715
▁Szkole -4716
▁techno -4717
:2 -4718
onach -4719
ine -4720
miu -4721
nione -4722
▁Nowo -4723
▁niezna -4724
▁pozycję -4725
▁przełomie -4726
zacho -4727
went -4728
▁dek -4729
▁średniowie -4730
▁kg -4731
▁70. -4732
tąd -4733
▁Cam -4734
▁polskie -4735
nina -4736
▁Ogól -4737
stki -4738
▁1964 -4739
▁Spraw -4740
▁1954–1972. -4741
64 -4742
sków -4743
wiek -4744
▁be -4745
dnią -4746
leń -4747
▁królew -4748
▁wydany -4749
▁asyst -4750
▁spotkania -4751
▁& -4752
▁Jorku -4753
▁World -4754
waża -4755
▁operacji -4756
▁odrzu -4757
▁południe -4758
▁Powie -4759
▁Pau -4760
lecia -4761
óz -4762
▁utwór -4763
▁wzdłuż -4764
▁Komu -4765
▁1951 -4766
▁maj -4767
▁przyjął -4768
▁informacji -4769
▁wypro -4770
▁szkołę -4771
▁kształt -4772
ning -4773
▁błę -4774
wszy -4775
cjona -4776
erium -4777
▁Żydów -4778
▁1929 -4779
▁zbroj -4780
lis -4781
niżej -4782
▁178 -4783
▁ilości -4784
▁Niektó -4785
▁80 -4786
▁1966 -4787
-200 -4788
▁północy -4789
▁szefa -4790
rei -4791
▁Strze -4792
ktury -4793
chii -4794
▁diecezji -4795
▁1933 -4796
▁artylerii -4797
▁1927 -4798
▁Wraz -4799
▁powy -4800
35 -4801
16 -4802
▁kwali -4803
tona -4804
mos -4805
79 -4806
bezpie -4807
▁odbud -4808
▁podziału -4809
▁1965 -4810
cjonal -4811
har -4812
sło -4813
▁Wkrótce -4814
▁inicjaty -4815
aksymal -4816
▁przyłą -4817
nicznej -4818
▁Toru -4819
▁konsek -4820
▁mężczyzn -4821
▁Oś -4822
▁Studi -4823
▁premiera -4824
mienie -4825
78 -4826
legi -4827
▁mur -4828
lik -4829
▁En -4830
▁Ben -4831
gno -4832
ceum -4833
▁koncep -4834
▁tram -4835
mem -4836
▁mala -4837
▁zbo -4838
▁jas -4839
▁finału -4840
▁wszedł -4841
▁studen -4842
–198 -4843
▁wynika -4844
▁Ukończył -4845
▁profesora -4846
▁wiadomo -4847
kolwiek -4848
żyła -4849
▁szwe -4850
▁tabli -4851
▁dokład -4852
▁nowym -4853
▁grupie -4854
atorem -4855
▁Słowa -4856
▁siedem -4857
▁dziewię -4858
72 -4859
▁zb -4860
ciaż -4861
▁piłka -4862
▁Kla -4863
dników -4864
ung -4865
fini -4866
▁Krzyszto -4867
▁wchodzą -4868
▁należał -4869
76 -4870
▁powołany -4871
▁konstrukcji -4872
fan -4873
rowia -4874
zempla -4875
▁głównych -4876
▁zaty -4877
▁powin -4878
▁bezpośrednio -4879
–201 -4880
▁umożliwia -4881
▁przekaza -4882
▁stopni -4883
▁uzupeł -4884
▁poci -4885
szymi -4886
▁zebra -4887
ase -4888
▁zao -4889
▁powrocie -4890
rzo -4891
▁strzelił -4892
ure -4893
▁założył -4894
▁hrab -4895
▁Północnej -4896
ospo -4897
▁łącznie -4898
▁Bal -4899
dziły -4900
zą -4901
spon -4902
▁znaczenie -4903
val -4904
▁1926 -4905
wki -4906
▁autorem -4907
▁zrezygn -4908
▁zdję -4909
▁bowiem -4910
▁ponadto -4911
wiat -4912
▁1925 -4913
▁urodził -4914
▁osiem -4915
jny -4916
▁ukończeniu -4917
▁Sło -4918
▁dowódcą -4919
▁pozostał -4920
▁mecze -4921
start -4922
▁utra -4923
czając -4924
▁Och -4925
chodził -4926
Za -4927
▁dość -4928
gię -4929
unt -4930
▁ustal -4931
▁Zespół -4932
▁Politechni -4933
bsol -4934
▁rodzaj -4935
sami -4936
ństwem -4937
bel -4938
▁lig -4939
▁nazwie -4940
▁obrę -4941
▁1914 -4942
▁Kultury -4943
sam -4944
▁egzempla -4945
▁pomie -4946
▁Nowy -4947
▁1931 -4948
▁skar -4949
weł -4950
Ro -4951
cjalisty -4952
▁Aleksandra -4953
▁przetr -4954
▁zajmując -4955
rabi -4956
op -4957
▁Tat -4958
▁1923 -4959
▁drugiego -4960
▁Michał -4961
▁śmierć -4962
denty -4963
▁wycof -4964
▁zasię -4965
▁model -4966
▁trwa -4967
▁35 -4968
▁płyty -4969
▁Karola -4970
lana -4971
▁zu -4972
▁korpu -4973
▁utworów -4974
▁1953 -4975
▁zespole -4976
▁zawsze -4977
noś -4978
▁wyja -4979
▁wios -4980
▁tereny -4981
bus -4982
▁Fin -4983
dano -4984
▁Sza -4985
tyki -4986
pach -4987
▁nocy -4988
▁Grand -4989
▁Publi -4990
rator -4991
▁eksplo -4992
▁kościele -4993
▁związany -4994
▁kapita -4995
▁bibliote -4996
▁Instytucie -4997
▁szlach -4998
▁Ham -4999
▁podwod -5000
kiet -5001
id -5002
sis -5003
▁zakon -5004
▁kampanii -5005
48 -5006
minarium -5007
▁zgroma -5008
▁przebywał -5009
▁TV -5010
gląd -5011
▁przypo -5012
owani -5013
▁Cha -5014
łyn -5015
▁obozu -5016
▁Południowej -5017
▁py -5018
▁czasach -5019
ropoli -5020
▁Wis -5021
▁mandat -5022
▁sprzę -5023
▁organizację -5024
▁kre -5025
▁podróż -5026
rzyć -5027
▁skaza -5028
kowana -5029
▁1963 -5030
▁polega -5031
rio -5032
lizacji -5033
szczenie -5034
▁spotyka -5035
▁napisał -5036
▁honor -5037
▁dziennika -5038
▁zatrudni -5039
▁Piotra -5040
gami -5041
▁uczelni -5042
▁Tele -5043
▁(3 -5044
żna -5045
▁1955 -5046
▁zjawi -5047
▁blisko -5048
▁sygna -5049
PR -5050
▁2, -5051
▁Rich -5052
▁jeśli -5053
▁nastąpi -5054
owość -5055
▁Niemców -5056
▁ofer -5057
▁Brazy -5058
skry -5059
▁rozbi -5060
ofi -5061
▁komend -5062
▁istnieje -5063
▁ogra -5064
▁Gali -5065
▁Ange -5066
▁Większość -5067
roz -5068
▁Wieś -5069
▁Już -5070
▁obszary -5071
▁samolotów -5072
obecnie -5073
▁University -5074
żar -5075
▁odwo -5076
▁mieści -5077
▁dużą -5078
▁oddziału -5079
▁leś -5080
KS -5081
▁krajach -5082
▁aresztowany -5083
▁akademi -5084
not -5085
ps -5086
▁siedmi -5087
▁psycho -5088
▁dyrektorem -5089
▁Japonii -5090
kli -5091
▁epi -5092
▁rozwija -5093
▁naukowych -5094
.). -5095
▁Aut -5096
▁Unii -5097
▁rynku -5098
nat -5099
▁odszedł -5100
▁całego -5101
▁skute -5102
17 -5103
▁osiągnął -5104
▁speł -5105
lla -5106
▁Świętego -5107
▁mało -5108
▁Jerzego -5109
▁opozy -5110
▁Kated -5111
▁bezpieczeństwa -5112
▁dalej -5113
▁malar -5114
edia -5115
▁króle -5116
pres -5117
▁mono -5118
▁wynik -5119
▁kata -5120
▁tytułem -5121
▁Kiedy -5122
▁Ucze -5123
dae -5124
larów -5125
▁bohater -5126
rektor -5127
▁400 -5128
▁Orderu -5129
▁ster -5130
▁cmentarzu -5131
▁Pru -5132
żone -5133
▁język -5134
▁awansował -5135
▁Jagiel -5136
▁dzieła -5137
▁spotkań -5138
▁spi -5139
▁gatunku -5140
▁niemieckiego -5141
▁Kazimierz -5142
▁dlatego -5143
lli -5144
▁PR -5145
▁Australii -5146
▁Zarządu -5147
▁(„ -5148
▁stronę -5149
▁masy -5150
▁ciąg -5151
▁głównego -5152
▁Gda -5153
▁obli -5154
ront -5155
68 -5156
▁niepo -5157
▁William -5158
tes -5159
▁Włoch -5160
▁częściowo -5161
sługu -5162
liza -5163
▁poło -5164
▁robot -5165
▁jakie -5166
▁ł -5167
turę -5168
▁urząd -5169
▁150 -5170
słowa -5171
▁sąsie -5172
▁zastąpi -5173
nator -5174
wczy -5175
dnych -5176
▁liczbę -5177
cea -5178
▁grzbie -5179
▁dużej -5180
▁Frydery -5181
▁Szwajcar -5182
▁brązowy -5183
▁zaczyna -5184
lców -5185
nerem -5186
▁chci -5187
▁ruch -5188
▁Znaj -5189
▁Oko -5190
▁ostatnich -5191
▁"" -5192
▁scena -5193
mir -5194
▁rzu -5195
lną -5196
raw -5197
obraz -5198
▁Kata -5199
▁charak -5200
▁Jose -5201
▁przestrzeni -5202
▁przewodniczącym -5203
pole -5204
▁wez -5205
▁koncent -5206
▁Bole -5207
▁spędził -5208
▁60. -5209
▁podium -5210
▁regular -5211
lie -5212
czonej -5213
▁kali -5214
▁zespołem -5215
▁Wielko -5216
▁prędkości -5217
▁fron -5218
▁łaci -5219
▁gimnazjum -5220
▁SS -5221
▁wil -5222
▁Nowej -5223
69 -5224
▁stron -5225
rząt -5226
▁zamku -5227
miej -5228
▁wielkości -5229
loka -5230
vy -5231
letni -5232
nieniu -5233
▁Polaków -5234
▁mię -5235
▁70 -5236
tw -5237
▁wschodniej -5238
▁Pierwsza -5239
▁pary -5240
▁uczestniczy -5241
▁Miasto -5242
anna -5243
▁Scho -5244
Ar -5245
lesty -5246
▁następujące -5247
can -5248
▁reorgani -5249
▁probo -5250
▁albumu -5251
wzglę -5252
▁urucho -5253
▁dolarów -5254
▁oficjalnie -5255
▁tutaj -5256
▁miast -5257
▁zasia -5258
▁Champi -5259
derem -5260
▁zaata -5261
▁potrzeb -5262
chot -5263
▁herbu -5264
▁300 -5265
▁wykształ -5266
▁Wielkiego -5267
AN -5268
▁rezu -5269
▁cztero -5270
kładzie -5271
Re -5272
▁pru -5273
62 -5274
▁Tre -5275
▁okrętu -5276
▁it -5277
▁zniszcz -5278
... -5279
rzony -5280
▁zdobywając -5281
▁Wyższej -5282
▁znane -5283
▁Sport -5284
jo -5285
fra -5286
▁drużyna -5287
▁Ak -5288
▁korzysta -5289
▁zato -5290
skokatoli -5291
▁Berlinie -5292
szcie -5293
Bi -5294
lić -5295
▁Dywi -5296
▁pojawił -5297
hol -5298
▁obejmuje -5299
▁pocią -5300
▁krzyż -5301
▁pseud -5302
pł -5303
▁kolek -5304
bert -5305
▁Stefa -5306
▁Norwe -5307
▁upraw -5308
szel -5309
zda -5310
▁komputer -5311
▁skut -5312
▁Archi -5313
cona -5314
mentem -5315
jąć -5316
▁oryginal -5317
▁samolotu -5318
ąż -5319
▁Zbi -5320
czania -5321
▁parlamentar -5322
minu -5323
łym -5324
▁przyw -5325
▁Warszawskiego -5326
owników -5327
wii -5328
▁rozpozna -5329
grywając -5330
▁okrą -5331
szar -5332
▁maksymal -5333
▁generała -5334
▁podda -5335
▁Tadeusz -5336
▁podat -5337
▁wycofa -5338
▁Thom -5339
strowa -5340
dio -5341
▁zamord -5342
▁pło -5343
▁ustanowi -5344
▁Najwięk -5345
▁zwierzę -5346
▁Nato -5347
▁Nowa -5348
nati -5349
▁drużynie -5350
▁jesienią -5351
nan -5352
▁dyrektora -5353
▁Okręgu -5354
24 -5355
rest -5356
▁zi -5357
ted -5358
rodzenia -5359
▁batalionu -5360
▁Natomiast -5361
▁opisu -5362
▁krajów -5363
▁Poza -5364
ntów -5365
▁Por -5366
▁pory -5367
▁tematy -5368
▁Karol -5369
▁nawią -5370
turze -5371
▁ukazał -5372
▁wyj -5373
▁Zgroma -5374
▁wygranym -5375
dry -5376
▁Bla -5377
ult -5378
ejmu -5379
▁obrębie -5380
styczne -5381
▁Bożej -5382
▁stało -5383
▁uwagi -5384
▁Warszawa -5385
zją -5386
▁pilo -5387
▁kolum -5388
▁napis -5389
rzymu -5390
nień -5391
▁Korpusu -5392
▁zalicza -5393
owiat -5394
skona -5395
▁har -5396
▁płyt -5397
▁Jam -5398
osob -5399
▁skutek -5400
▁poszuki -5401
kwid -5402
▁leżą -5403
▁kawa -5404
▁osiąga -5405
▁zaprezent -5406
▁mechani -5407
▁napisa -5408
▁wzmian -5409
▁Jaro -5410
▁jaki -5411
skiemu -5412
▁As -5413
▁okazji -5414
▁Słu -5415
▁obiekt -5416
▁dokumenta -5417
ciła -5418
▁kierował -5419
▁muzeum -5420
▁zazwyczaj -5421
▁Ur -5422
leb -5423
▁Mag -5424
▁Austrii -5425
skał -5426
▁wynosiła -5427
lica -5428
▁narciar -5429
▁Wielkopol -5430
miot -5431
▁redak -5432
▁Ligi -5433
▁pasażer -5434
▁Wale -5435
–1998 -5436
▁Mikołaja -5437
rzymał -5438
▁udziału -5439
ńcy -5440
▁cyklu -5441
▁książki -5442
▁ab -5443
▁układu -5444
▁położone -5445
▁Kazimierza -5446
▁odległości -5447
▁zawodów -5448
▁wersja -5449
wanego -5450
▁porozu -5451
▁najpierw -5452
alną -5453
▁wyścigu -5454
▁wystart -5455
nnych -5456
▁wypoży -5457
3) -5458
▁Ruch -5459
▁charakterze -5460
▁wynikiem -5461
▁znajdował -5462
ronu -5463
▁licznych -5464
sek -5465
▁łat -5466
▁wyspy -5467
▁Kil -5468
łego -5469
▁gmina -5470
▁rodzina -5471
▁bieg -5472
▁komite -5473
▁ciem -5474
▁odznaczony -5475
▁budowla -5476
▁zajmuje -5477
ńsko -5478
▁milionów -5479
żę -5480
kowskiej -5481
▁przypomina -5482
▁fol -5483
tory -5484
van -5485
▁stolicy -5486
▁Mil -5487
▁młodzież -5488
▁matematy -5489
polu -5490
▁uzbroje -5491
-4 -5492
▁zaczęła -5493
▁porówna -5494
▁miesza -5495
▁wokali -5496
▁odcinku -5497
90 -5498
ath -5499
atora -5500
▁przewi -5501
▁stały -5502
▁Miasta -5503
gosła -5504
czer -5505
zują -5506
ład -5507
▁podwój -5508
chosłowa -5509
▁żoną -5510
czonym -5511
Sz -5512
▁XIV -5513
67 -5514
▁mówi -5515
▁pokonał -5516
▁Super -5517
▁Rzymie -5518
krot -5519
1) -5520
▁znaleź -5521
gór -5522
tował -5523
▁klasztor -5524
cić -5525
▁cesarza -5526
▁wybuch -5527
anka -5528
▁grzy -5529
▁juniorów -5530
▁skon -5531
rzał -5532
▁Królestwa -5533
ys -5534
▁us -5535
▁dat -5536
▁trener -5537
cjon -5538
▁meczów -5539
▁dwor -5540
▁zmienia -5541
▁pozostałych -5542
▁Tom -5543
▁odpowiada -5544
▁bazy -5545
▁tytułu -5546
▁pola -5547
ciół -5548
▁Wsp -5549
▁4. -5550
▁Jagiello -5551
eryj -5552
▁dawna -5553
▁Mas -5554
▁arab -5555
▁Brze -5556
▁szkół -5557
waniem -5558
rób -5559
▁leży -5560
38 -5561
czonego -5562
▁Sano -5563
prawie -5564
▁int -5565
▁świet -5566
74 -5567
▁Dwa -5568
▁Wyso -5569
głę -5570
niał -5571
ón -5572
▁ście -5573
▁zaraz -5574
▁położony -5575
KW -5576
owska -5577
▁ewangeli -5578
▁Pomimo -5579
▁zwierząt -5580
▁doj -5581
▁nagrody -5582
▁amb -5583
▁pocz -5584
▁wystawi -5585
szone -5586
▁Prawo -5587
▁przywód -5588
▁krótko -5589
▁dłuż -5590
▁[ -5591
ospodar -5592
ciąż -5593
cyfi -5594
▁sąd -5595
▁przemian -5596
▁mini -5597
▁gar -5598
▁przesz -5599
rzone -5600
▁potra -5601
▁mon -5602
▁sami -5603
tak -5604
▁chwili -5605
wości -5606
wers -5607
lus -5608
▁Roy -5609
żeń -5610
▁dwoma -5611
▁Wojewódz -5612
▁Air -5613
▁VII -5614
▁niepodległości -5615
▁stosunku -5616
▁sur -5617
▁emigra -5618
▁musiał -5619
dło -5620
ич -5621
ziono -5622
▁CH -5623
▁Azji -5624
bri -5625
▁służą -5626
charze -5627
mont -5628
▁ogrom -5629
▁Ameryki -5630
▁zawodników -5631
ome -5632
żeniem -5633
▁Ana -5634
▁córki -5635
▁piosenki -5636
ownik -5637
ond -5638
▁dług -5639
▁Wysp -5640
▁tygodni -5641
▁Robert -5642
▁pok -5643
lender -5644
wiera -5645
▁Henryk -5646
▁zależności -5647
AS -5648
▁inten -5649
▁długi -5650
▁Champions -5651
▁ochro -5652
▁ukry -5653
▁zwycięstwo -5654
żo -5655
▁Wszystkie -5656
nta -5657
▁autorstwa -5658
▁funda -5659
▁poszczególnych -5660
▁rzymskokatoli -5661
Ko -5662
28 -5663
▁kardyna -5664
tycznej -5665
▁mistrzem -5666
▁Piosen -5667
▁sięga -5668
ug -5669
sę -5670
▁Świat -5671
▁Pom -5672
▁emery -5673
illa -5674
▁umiej -5675
▁brata -5676
raj -5677
▁lekko -5678
stycznych -5679
▁okolicach -5680
▁owo -5681
▁Ksią -5682
▁Rumu -5683
6) -5684
▁utwory -5685
▁skle -5686
komo -5687
▁bru -5688
IS -5689
AT -5690
bru -5691
mią -5692
▁− -5693
kony -5694
cku -5695
▁śle -5696
▁Zgodnie -5697
owskich -5698
▁utrzymy -5699
▁niektóre -5700
▁niewoli -5701
▁1915 -5702
▁niemieckie -5703
▁epo -5704
▁gości -5705
▁zbudowany -5706
▁taj -5707
▁teorii -5708
▁PZ -5709
▁drzew -5710
▁Legi -5711
▁chłop -5712
riar -5713
▁elementy -5714
cle -5715
nau -5716
zar -5717
▁Dział -5718
perium -5719
▁góry -5720
▁stanął -5721
mami -5722
▁Ter -5723
▁Prawa -5724
▁inicjatywy -5725
▁przebiega -5726
nictwie -5727
▁Henryka -5728
▁dynast -5729
▁Władysława -5730
▁Paweł -5731
▁KP -5732
▁Igrzy -5733
▁uczni -5734
▁ugrup -5735
▁Dro -5736
▁drugą -5737
▁obron -5738
▁rzędu -5739
fr -5740
▁osobi -5741
BC -5742
▁portu -5743
mil -5744
spozy -5745
▁głównej -5746
▁ostatnim -5747
▁pierwot -5748
▁samolot -5749
▁Los -5750
▁Sejm -5751
▁poraż -5752
pel -5753
czyków -5754
▁gę -5755
rasta -5756
22 -5757
kowania -5758
▁Ró -5759
lomet -5760
▁złoty -5761
antów -5762
▁nume -5763
gor -5764
▁Tour -5765
▁całą -5766
▁Część -5767
▁klim -5768
wskich -5769
gół -5770
▁far -5771
▁zli -5772
▁swej -5773
▁poję -5774
▁ogłosił -5775
▁Grupa -5776
▁występujący -5777
▁Egip -5778
▁ślu -5779
▁Tomasz -5780
czen -5781
▁walkach -5782
dać -5783
▁klasztoru -5784
fre -5785
▁zrealiz -5786
▁władzę -5787
▁Prix -5788
▁Szwecji -5789
toni -5790
55 -5791
▁sztuk -5792
▁każdym -5793
▁kano -5794
▁architek -5795
▁Czerwonej -5796
▁tamtej -5797
34 -5798
▁póź -5799
▁Oj -5800
▁moder -5801
wien -5802
▁bitwy -5803
stej -5804
amięt -5805
▁przekona -5806
32 -5807
niła -5808
▁Cer -5809
▁rozsze -5810
▁oczy -5811
▁del -5812
▁kobiety -5813
▁Nau -5814
▁finał -5815
▁minut -5816
▁świa -5817
▁zakresu -5818
▁konferen -5819
▁System -5820
▁prosto -5821
▁potrzeby -5822
▁XIII -5823
▁związanych -5824
anki -5825
bii -5826
▁pełnią -5827
▁internet -5828
▁opuścił -5829
▁straż -5830
▁krąż -5831
▁gatunki -5832
▁działał -5833
▁wzgó -5834
ero -5835
▁anali -5836
▁obser -5837
▁napa -5838
rabin -5839
▁ćwier -5840
▁status -5841
▁węz -5842
▁zwolen -5843
▁Swo -5844
▁spośród -5845
▁Kawa -5846
▁zamach -5847
uth -5848
tuje -5849
▁kapła -5850
▁edycji -5851
dna -5852
▁zaledwie -5853
▁szó -5854
▁reprezentu -5855
▁zagranicznych -5856
▁politycznych -5857
▁hy -5858
dzin -5859
▁Każ -5860
▁Społe -5861
wska -5862
▁usunię -5863
leniu -5864
La -5865
▁zastępcą -5866
szczę -5867
▁kadry -5868
ścić -5869
PS -5870
▁rozkaz -5871
ródeł -5872
▁Wojen -5873
święt -5874
▁Peł -5875
▁pali -5876
▁Mer -5877
7) -5878
▁mag -5879
▁odbywa -5880
▁macie -5881
▁Istnie -5882
▁Latem -5883
▁City -5884
kała -5885
58 -5886
Bo -5887
▁najniż -5888
▁poto -5889
▁począ -5890
pty -5891
▁Dra -5892
▁patro -5893
biter -5894
▁Nowego -5895
alna -5896
▁przekro -5897
lna -5898
▁zaa -5899
▁formal -5900
hr -5901
▁życiu -5902
kąd -5903
▁drob -5904
ziony -5905
▁doktor -5906
▁prawdzi -5907
▁utworu -5908
▁Obo -5909
▁VIII -5910
kowała -5911
▁Czer -5912
▁wysła -5913
fikowany -5914
▁sześciu -5915
dzając -5916
▁wyróżnia -5917
▁Pomo -5918
▁Lea -5919
czycy -5920
▁wych -5921
▁parku -5922
▁osiągnię -5923
▁Championship -5924
tus -5925
▁6: -5926
▁pę -5927
zz -5928
▁Olimpij -5929
▁ono -5930
▁córkę -5931
ległość -5932
▁dwudzie -5933
▁32 -5934
szyscy -5935
stała -5936
▁poślu -5937
▁środowiska -5938
▁lok -5939
▁Łu -5940
▁formy -5941
▁Klub -5942
para -5943
żego -5944
nemu -5945
▁habili -5946
▁kli -5947
▁Tran -5948
pag -5949
▁leka -5950
44 -5951
wencji -5952
▁Peters -5953
▁Igna -5954
▁Hel -5955
▁źródeł -5956
▁dobra -5957
▁mieć -5958
▁oprócz -5959
▁wicepre -5960
logia -5961
▁zabytków -5962
▁stu -5963
▁administracji -5964
skutek -5965
Ba -5966
dagogi -5967
▁Uczest -5968
▁Bibliote -5969
▁poniżej -5970
▁główny -5971
▁Pierwszym -5972
▁wszel -5973
▁funkcje -5974
▁Ex -5975
▁Ponieważ -5976
▁największych -5977
zje -5978
▁obsługi -5979
▁wojskowych -5980
▁George -5981
▁Musi -5982
narki -5983
niom -5984
▁Białorusi -5985
▁starożyt -5986
▁zarządu -5987
52 -5988
pital -5989
kownika -5990
▁ofice -5991
▁zastępca -5992
ion -5993
▁regional -5994
▁istnienia -5995
▁grupę -5996
▁powróci -5997
dzkim -5998
▁uzyskała -5999
▁średniej -6000
▁90 -6001
wanej -6002
▁Zwy -6003
▁przegrał -6004
▁arche -6005
▁decyzję -6006
▁poziomie -6007
▁konkursie -6008
▁domów -6009
▁Klu -6010
▁stowarzy -6011
▁choroby -6012
▁Pozost -6013
ury -6014
lokaliz -6015
▁rozm -6016
▁elementów -6017
▁Prowa -6018
▁lite -6019
▁dotarł -6020
▁komunisty -6021
▁ton -6022
▁czemu -6023
▁twórczości -6024
▁numer -6025
▁całości -6026
▁unie -6027
▁zamów -6028
▁niewy -6029
▁atak -6030
▁Gospodar -6031
konując -6032
▁ramienia -6033
▁legen -6034
▁wybiera -6035
▁tle -6036
▁szczyt -6037
Ra -6038
▁Pas -6039
kowskim -6040
▁nowoczes -6041
▁brat -6042
▁okolicy -6043
▁pośredni -6044
▁otwo -6045
▁30. -6046
▁okupacji -6047
nki -6048
ls -6049
▁cesar -6050
niowych -6051
▁oz -6052
▁tradycji -6053
▁seria -6054
▁zlikwid -6055
▁momencie -6056
pływ -6057
▁weszły -6058
ctwo -6059
mawia -6060
dora -6061
▁papieża -6062
lon -6063
ctwem -6064
▁pozbawi -6065
rzyła -6066
▁Kle -6067
▁polityki -6068
▁próby -6069
▁oddziałów -6070
▁Val -6071
kwida -6072
sun -6073
▁następnym -6074
▁Andrzeja -6075
▁komis -6076
▁tysią -6077
▁zawodnik -6078
▁ślą -6079
▁Stowarzyszenia -6080
▁długość -6081
▁Stefan -6082
▁powstało -6083
tka -6084
▁mona -6085
▁modelu -6086
▁wieży -6087
▁des -6088
▁Ve -6089
Pa -6090
brzy -6091
▁Gdańsku -6092
▁niszczy -6093
▁Demokraty -6094
▁Oby -6095
▁braku -6096
▁opowiada -6097
MS -6098
▁ogro -6099
▁herb -6100
▁udziałem -6101
▁każdej -6102
częszcz -6103
czących -6104
atorów -6105
▁czą -6106
▁wizy -6107
▁dotyczące -6108
▁Bre -6109
St -6110
▁Adama -6111
▁ol -6112
▁plu -6113
▁budynków -6114
▁duch -6115
▁konstytu -6116
▁Sc -6117
unkowo -6118
▁Nag -6119
owce -6120
lacja -6121
49 -6122
scypli -6123
▁aktu -6124
▁pozwoli -6125
krę -6126
▁skom -6127
▁postanowił -6128
▁zdrowia -6129
▁ćwierć -6130
▁szkoła -6131
▁grający -6132
▁Cmentarzu -6133
▁ogranicz -6134
vel -6135
▁Portu -6136
▁Dodat -6137
▁kandyd -6138
73 -6139
tycznego -6140
mował -6141
▁baro -6142
▁zatwier -6143
▁międzywojen -6144
▁wojennych -6145
▁skupi -6146
▁Lip -6147
orze -6148
▁Straż -6149
kłada -6150
bsolwent -6151
▁pal -6152
▁Pucharze -6153
tomaty -6154
mann -6155
▁Europejskiej -6156
▁firma -6157
▁pracowników -6158
▁poziom -6159
▁wykonaw -6160
▁Tro -6161
▁przyrody -6162
▁transport -6163
▁Pal -6164
ują -6165
▁Afryki -6166
▁więzienia -6167
▁3, -6168
▁Antoni -6169
▁silnik -6170
▁Katarzy -6171
▁zwolni -6172
▁prezesem -6173
▁zare -6174
▁kwest -6175
▁srebrny -6176
▁Franciszka -6177
▁rezer -6178
▁Sil -6179
▁energii -6180
gier -6181
▁znalazła -6182
63 -6183
ciąga -6184
niono -6185
▁kompanii -6186
postol -6187
szczeniu -6188
▁Anna -6189
mieniem -6190
▁publikacji -6191
29 -6192
▁Argenty -6193
rej -6194
án -6195
”). -6196
zało -6197
fu -6198
▁rekord -6199
▁klubem -6200
noty -6201
bami -6202
▁końc -6203
mus -6204
▁symboli -6205
▁żony -6206
pier -6207
▁wielokrotnie -6208
▁Kos -6209
▁Obie -6210
▁książek -6211
▁zakończyła -6212
▁podporząd -6213
▁zapropon -6214
wic -6215
antem -6216
▁granicach -6217
▁uzysku -6218
▁Koście -6219
▁przedstawicieli -6220
▁Franciszek -6221
▁opiera -6222
▁znajdowała -6223
▁rzeczywistości -6224
▁Kij -6225
▁Formu -6226
▁wyniki -6227
▁słow -6228
▁kadłu -6229
▁Instytut -6230
berta -6231
▁batalion -6232
▁zespołów -6233
▁punktu -6234
rael -6235
▁wydana -6236
riusz -6237
▁dużych -6238
Nie -6239
▁Dar -6240
jusz -6241
▁Również -6242
▁dywizji -6243
torów -6244
▁walczył -6245
▁50. -6246
▁Plan -6247
▁każdego -6248
nowie -6249
▁Funda -6250
▁1975–1998 -6251
▁śla -6252
▁Aleksander -6253
burga -6254
▁Parla -6255
In -6256
▁Mistrzostw -6257
sona -6258
▁zapa -6259
▁filmów -6260
uba -6261
ałość -6262
legium -6263
przewodni -6264
▁najlepszych -6265
lege -6266
▁potę -6267
stusa -6268
▁Komis -6269
▁kierownikiem -6270
▁generał -6271
ionie -6272
▁Port -6273
▁regionu -6274
”) -6275
chę -6276
▁ostatnie -6277
▁literatury -6278
▁kompa -6279
▁fazie -6280
▁związek -6281
▁zgło -6282
▁włączono -6283
entem -6284
▁druga -6285
▁45 -6286
Mi -6287
▁rodu -6288
ational -6289
▁naukę -6290
kłady -6291
▁Mistrzostwa -6292
▁węgier -6293
dowo -6294
▁Rud -6295
▁Obrony -6296
▁Sek -6297
▁Grzego -6298
bet -6299
▁odbi -6300
ląd -6301
▁Ochrony -6302
▁uważ -6303
▁niebie -6304
ołów -6305
▁sowie -6306
biega -6307
▁Okręg -6308
▁premier -6309
▁konserw -6310
▁Gimnazjum -6311
▁powiat -6312
▁Narodów -6313
▁odzyska -6314
▁członkowie -6315
:00 -6316
▁puch -6317
gr -6318
CA -6319
fen -6320
▁Ad -6321
▁Krajowej -6322
66 -6323
▁Że -6324
czar -6325
▁fla -6326
gla -6327
padł -6328
▁odpowiednio -6329
▁brz -6330
▁los -6331
ey -6332
▁IX -6333
▁zlokaliz -6334
▁dosta -6335
▁pojem -6336
▁dziedzinie -6337
▁pułk -6338
łowe -6339
▁wyru -6340
▁konsu -6341
▁obiektów -6342
▁Ger -6343
dziem -6344
▁Król -6345
▁polu -6346
niczym -6347
▁jeziora -6348
▁Najświęt -6349
▁bog -6350
róg -6351
▁poby -6352
▁Ukrainy -6353
▁Danie -6354
stia -6355
ałę -6356
▁Bogu -6357
▁Gol -6358
▁koszt -6359
▁zasadni -6360
▁wierz -6361
miona -6362
59 -6363
▁medale -6364
▁Trzy -6365
dowi -6366
▁przet -6367
▁Palesty -6368
▁minist -6369
ower -6370
▁Zało -6371
▁zro -6372
21 -6373
De -6374
▁wypeł -6375
▁minu -6376
▁kolejno -6377
yo -6378
biu -6379
▁podkre -6380
▁Związek -6381
▁1916 -6382
▁znana -6383
▁der -6384
▁Dąb -6385
▁wpływem -6386
▁sprowa -6387
▁wewnątrz -6388
urę -6389
anda -6390
▁noc -6391
▁metra -6392
▁mikro -6393
▁Boh -6394
ville -6395
▁Zbignie -6396
▁możliwe -6397
onuje -6398
▁kamien -6399
nior -6400
▁znanych -6401
▁odnale -6402
▁sekretarzem -6403
▁Jednocześnie -6404
▁boi -6405
niesienie -6406
cel -6407
37 -6408
▁likwida -6409
muni -6410
▁Rada -6411
▁Rec -6412
▁eki -6413
pią -6414
▁Ministerstwa -6415
▁Bał -6416
▁zabezpie -6417
▁dynastii -6418
▁Alex -6419
▁przedmio -6420
westy -6421
▁obsa -6422
mierz -6423
-199 -6424
▁metody -6425
▁Kro -6426
26 -6427
czące -6428
kowanie -6429
▁Ali -6430
▁dzieł -6431
▁Lou -6432
trow -6433
▁tymczas -6434
▁Juli -6435
▁osiedla -6436
kul -6437
▁mogły -6438
▁wojskowej -6439
▁zmienił -6440
▁wystąpi -6441
▁ture -6442
▁promo -6443
pl -6444
drze -6445
▁innego -6446
▁Bob -6447
stego -6448
▁impre -6449
23 -6450
▁Czy -6451
▁dywizj -6452
rozo -6453
▁Las -6454
▁podró -6455
niowe -6456
▁mogła -6457
▁kilomet -6458
▁poglą -6459
▁KM -6460
odow -6461
▁zle -6462
arę -6463
fel -6464
▁Holandii -6465
▁ludz -6466
ford -6467
▁własną -6468
▁AK -6469
▁zamieszki -6470
▁Wojciech -6471
szona -6472
▁Ogólno -6473
▁nur -6474
▁obywatel -6475
▁panowania -6476
▁zła -6477
▁prą -6478
▁super -6479
nęły -6480
Wy -6481
god -6482
▁Michała -6483
▁innym -6484
▁Długo -6485
▁Em -6486
▁eska -6487
wiając -6488
▁Met -6489
niejszym -6490
36 -6491
▁Sił -6492
▁tramwaj -6493
▁powietrz -6494
▁gita -6495
▁dziesią -6496
▁sprawował -6497
▁umieszczono -6498
żbie -6499
wanym -6500
▁Sła -6501
▁Mont -6502
ingu -6503
tis -6504
▁dyrektor -6505
▁Pracował -6506
▁udał -6507
▁źródła -6508
▁tow -6509
▁ustalono -6510
▁Miał -6511
▁Mistrz -6512
▁sekretarz -6513
▁terenach -6514
▁metropoli -6515
▁załogi -6516
▁ćwierćfina -6517
kładem -6518
▁PRL -6519
▁Niektóre -6520
▁Konstanty -6521
waną -6522
▁Nacze -6523
bil -6524
▁konkurencji -6525
▁fakt -6526
▁licen -6527
31 -6528
▁Fl -6529
▁Angeles -6530
zmem -6531
waku -6532
▁kosz -6533
▁linia -6534
▁Batali -6535
rzymuje -6536
▁ką -6537
▁Ram -6538
ralną -6539
▁odbyły -6540
▁ucz -6541
▁zdecydował -6542
▁gali -6543
▁Podstaw -6544
▁strate -6545
▁obszaru -6546
▁Meksyku -6547
▁Dopiero -6548
miana -6549
zia -6550
łej -6551
▁Kamie -6552
▁środków -6553
SP -6554
▁wystąpiła -6555
▁wytwarza -6556
▁samorząd -6557
▁synów -6558
szeniu -6559
▁dochodzi -6560
▁Techni -6561
nikach -6562
▁francuski -6563
▁1000 -6564
szyła -6565
▁astro -6566
▁użytku -6567
▁Gal -6568
▁klę -6569
▁Open -6570
▁będąc -6571
▁droga -6572
▁zakupi -6573
▁zbudowano -6574
▁Dom -6575
▁podpisa -6576
czał -6577
▁szczę -6578
▁School -6579
▁Royal -6580
42 -6581
▁większych -6582
sin -6583
▁intensyw -6584
ise -6585
▁matka -6586
ston -6587
▁trzeciej -6588
los -6589
▁Chor -6590
▁1910 -6591
▁is -6592
biego -6593
▁XII -6594
▁pałacu -6595
▁główną -6596
▁kolejnym -6597
nei -6598
▁Chrystusa -6599
▁tj -6600
▁Rozpo -6601
▁Bułgar -6602
▁warunkach -6603
king -6604
▁krwi -6605
▁miejscach -6606
▁jede -6607
▁Ces -6608
▁Medy -6609
▁unik -6610
▁Cla -6611
▁Krzysztof -6612
▁Jas -6613
ownie -6614
▁Podobnie -6615
▁Rez -6616
tacza -6617
47 -6618
rowo -6619
▁Szczeci -6620
▁powstanie -6621
Ka -6622
national -6623
▁przejął -6624
▁Królew -6625
ęb -6626
▁1912 -6627
NA -6628
▁dowództwem -6629
▁odniósł -6630
▁społeczności -6631
fil -6632
▁reprezentant -6633
▁szefem -6634
óg -6635
▁dodatkowo -6636
▁sztafe -6637
▁Maciej -6638
▁Edward -6639
Ja -6640
▁docho -6641
ann -6642
natu -6643
nizacji -6644
▁piłkarską -6645
▁europejskich -6646
▁serwi -6647
łod -6648
▁kolejnej -6649
▁wyspie -6650
▁Hit -6651
▁wzmoc -6652
▁Frank -6653
▁odręb -6654
▁Stefana -6655
56 -6656
▁odróż -6657
▁Liceum -6658
): -6659
▁Węgier -6660
▁Edu -6661
▁Rzeszy -6662
▁Pracy -6663
rzeniem -6664
▁współpracę -6665
▁amerykańskich -6666
▁bibli -6667
zdów -6668
▁Krakowa -6669
▁dotychczasowych -6670
▁posiadał -6671
▁5. -6672
▁° -6673
▁bło -6674
▁sprzedaży -6675
▁dużym -6676
27 -6677
▁kryzy -6678
▁majątku -6679
▁zarządza -6680
▁sal -6681
▁/ -6682
▁zbiór -6683
pem -6684
▁cerkiew -6685
▁Divi -6686
▁nastąpiło -6687
kien -6688
46 -6689
denta -6690
▁propozy -6691
▁połączenia -6692
tki -6693
▁spek -6694
▁gwiazd -6695
▁dołączył -6696
▁brzegu -6697
); -6698
▁Kas -6699
▁upadku -6700
▁obowiązki -6701
33 -6702
▁kontynuował -6703
stanie -6704
▁Opera -6705
▁dowodził -6706
▁wybudowano -6707
mą -6708
▁bazie -6709
szta -6710
▁Jeszcze -6711
▁Syn -6712
ield -6713
▁przewodniczący -6714
▁zmo -6715
57 -6716
▁India -6717
śnia -6718
▁samoloty -6719
▁Zdoby -6720
deo -6721
leni -6722
▁okręty -6723
▁powyżej -6724
▁owa -6725
terna -6726
▁taki -6727
▁Głównym -6728
lasy -6729
▁Flo -6730
▁× -6731
▁Katowicach -6732
▁wprowadzono -6733
ime -6734
set -6735
▁Elżbie -6736
▁rocz -6737
▁Szta -6738
▁Nr -6739
▁prezbiter -6740
▁ekspery -6741
▁Państwa -6742
▁kore -6743
▁kru -6744
zuł -6745
▁post -6746
▁Włoszech -6747
▁godzin -6748
FA -6749
asad -6750
▁informacje -6751
▁Ludwika -6752
inform -6753
▁dokonał -6754
▁zamiast -6755
▁jednakże -6756
▁Ly -6757
▁nieo -6758
wad -6759
▁gaz -6760
andar -6761
▁generalnej -6762
zującej -6763
▁zaopat -6764
▁stałe -6765
▁opisa -6766
▁Szwajcarii -6767
▁Krzyża -6768
▁poleg -6769
▁parafia -6770
▁wstęp -6771
▁kontynen -6772
amy -6773
▁administrację -6774
▁Brygady -6775
chach -6776
▁własne -6777
osto -6778
lonej -6779
▁karabin -6780
▁nieprzy -6781
lanie -6782
▁kan -6783
ryt -6784
łano -6785
▁inspi -6786
▁Atlan -6787
▁podział -6788
▁atmos -6789
▁Wene -6790
▁ozdob -6791
▁Przemy -6792
dge -6793
owatych -6794
KWD -6795
▁płci -6796
▁tą -6797
▁sztabu -6798
▁opan -6799
▁promieni -6800
▁wartość -6801
▁zareje -6802
▁KC -6803
▁walkę -6804
▁sak -6805
▁misji -6806
▁grafi -6807
▁psychi -6808
▁Została -6809
▁zatytuł -6810
▁Konkur -6811
▁cerkwi -6812
bal -6813
▁Wiedniu -6814
▁Lublinie -6815
▁cen -6816
▁obywate -6817
▁Politechniki -6818
▁160 -6819
fery -6820
▁got -6821
▁przeci -6822
▁Tor -6823
spie -6824
pha -6825
łowo -6826
▁powięk -6827
▁san -6828
polskiego -6829
▁gu -6830
▁opa -6831
▁linię -6832
▁partyzan -6833
▁Skar -6834
▁producent -6835
chan -6836
▁Nar -6837
▁upamięt -6838
skami -6839
▁przemysłu -6840
▁realiz -6841
▁zamek -6842
▁przeprowadzonej -6843
kor -6844
▁znajdowały -6845
żne -6846
▁Stary -6847
▁sprzy -6848
▁Ost -6849
eno -6850
arda -6851
▁hipo -6852
▁wciąż -6853
▁wymienia -6854
▁Ver -6855
niona -6856
▁poten -6857
śmie -6858
tic -6859
pisów -6860
beli -6861
▁Raj -6862
▁1905 -6863
▁producen -6864
▁120 -6865
▁opowie -6866
▁Biel -6867
▁ostrze -6868
▁Około -6869
▁prezent -6870
61 -6871
dan -6872
▁odebra -6873
stami -6874
▁League -6875
ściem -6876
ych -6877
▁wysoko -6878
manisty -6879
▁piel -6880
ris -6881
▁pisma -6882
nel -6883
▁porusza -6884
órek -6885
▁Katoli -6886
źnia -6887
kładu -6888
▁drogą -6889
"; -6890
▁United -6891
▁kwalifika -6892
bat -6893
▁dorob -6894
tana -6895
▁większe -6896
▁rewolucji -6897
tyczny -6898
▁igrzysk -6899
▁pers -6900
jona -6901
▁Johna -6902
▁większą -6903
▁chroni -6904
▁wysł -6905
▁gabi -6906
▁młodych -6907
▁pacje -6908
▁rosyjskiej -6909
▁Pia -6910
▁pamięci -6911
▁przegranym -6912
▁Krzyż -6913
-8 -6914
mion -6915
siła -6916
▁Ośrod -6917
▁gromada -6918
szów -6919
rzono -6920
▁sposob -6921
▁pomi -6922
▁chociaż -6923
▁odnosi -6924
Te -6925
▁Polo -6926
▁Hal -6927
▁Gromadę -6928
nien -6929
▁agen -6930
▁kal -6931
▁gola -6932
▁van -6933
▁katastro -6934
▁Kier -6935
▁seku -6936
▁Tri -6937
▁Polskę -6938
dliwości -6939
▁swych -6940
▁papież -6941
▁tworząc -6942
▁Nagro -6943
▁Granicznej -6944
▁szerokości -6945
▁zaga -6946
prawdopodob -6947
bow -6948
obowią -6949
rybuna -6950
▁nadzwyczaj -6951
▁kopal -6952
ąk -6953
▁kapitu -6954
▁College -6955
▁liczyła -6956
▁NKWD -6957
▁38 -6958
stość -6959
▁kory -6960
jonal -6961
▁Jedy -6962
▁rozu -6963
▁zwyciężył -6964
tację -6965
▁włó -6966
▁Pała -6967
▁ujaw -6968
dzał -6969
ktorów -6970
▁niezwy -6971
▁Rodzi -6972
▁lewej -6973
▁zabra -6974
▁filozofii -6975
▁podleg -6976
▁study -6977
żona -6978
▁mieszkal -6979
▁skąd -6980
▁Młodzie -6981
ras -6982
▁cza -6983
▁krzyża -6984
▁interpre -6985
▁koali -6986
▁stacja -6987
▁procesu -6988
ciera -6989
▁profesorem -6990
▁Budy -6991
▁Festi -6992
ан -6993
▁historię -6994
▁West -6995
óbr -6996
▁Oddziału -6997
cus -6998
▁rządów -6999
▁Sko -7000
▁sol -7001
▁Towarzystwo -7002
▁decyzji -7003
▁córka -7004
▁szczególności -7005
41 -7006
hen -7007
▁chor -7008
▁identy -7009
▁torped -7010
▁Pułku -7011
▁ewaku -7012
▁bol -7013
▁Fron -7014
nnie -7015
syła -7016
▁społecznych -7017
▁Ję -7018
▁weszła -7019
▁Brał -7020
tyj -7021
łowę -7022
▁styl -7023
▁naby -7024
wów -7025
▁Cal -7026
▁Wspól -7027
▁pozytyw -7028
▁wyna -7029
▁startu -7030
▁amerykańskiej -7031
rzyli -7032
▁dą -7033
ue -7034
dząc -7035
Mar -7036
▁zanie -7037
gera -7038
▁20. -7039
▁stosunkowo -7040
▁Paw -7041
▁odcinek -7042
▁siód -7043
▁warunki -7044
▁Aby -7045
▁Spi -7046
▁funkcjonowały -7047
▁Tymczas -7048
▁wypiera -7049
czeki -7050
▁czwart -7051
▁kierunkiem -7052
▁Saint -7053
▁floty -7054
dzów -7055
▁Bez -7056
▁pozostałe -7057
▁wypadku -7058
▁postawi -7059
lacje -7060
▁Roman -7061
▁pojawiły -7062
▁Sejmu -7063
▁terytorialnego -7064
▁History -7065
▁cesarz -7066
▁pałac -7067
uszy -7068
dt -7069
dnika -7070
▁bran -7071
▁hote -7072
pas -7073
▁krze -7074
▁główne -7075
▁niedo -7076
▁Sier -7077
▁ręce -7078
▁rosyjski -7079
▁standard -7080
▁uj -7081
▁sen -7082
▁Mis -7083
▁zwycięz -7084
▁pojawiła -7085
▁zapewnia -7086
71 -7087
▁niemieckim -7088
▁południu -7089
cał -7090
▁zostanie -7091
▁trenerem -7092
▁wskutek -7093
OS -7094
▁wąt -7095
▁deput -7096
gs -7097
ban -7098
▁moty -7099
▁roman -7100
▁brytyjski -7101
▁matki -7102
▁zasi -7103
▁Sztuki -7104
▁list -7105
▁nieza -7106
mistrz -7107
▁ilość -7108
▁więźni -7109
▁proboszcz -7110
▁Śląska -7111
▁pomnik -7112
▁Bir -7113
▁braci -7114
▁używane -7115
▁mieszkańcy -7116
ksy -7117
puł -7118
▁holender -7119
▁1900 -7120
lit -7121
▁Włodzi -7122
▁Grupy -7123
▁chciał -7124
▁Administra -7125
▁Min -7126
▁test -7127
kownik -7128
▁wrę -7129
▁przydzie -7130
▁Frie -7131
53 -7132
▁win -7133
▁Fili -7134
▁Paul -7135
▁egzemplarzy -7136
▁Wydział -7137
sel -7138
▁uwzglę -7139
▁Czechosłowa -7140
miąt -7141
▁miejscem -7142
noślą -7143
▁zako -7144
▁wolności -7145
▁skrzydła -7146
▁Jerozo -7147
▁potom -7148
▁skali -7149
▁posł -7150
wans -7151
▁inżynier -7152
▁Zbroj -7153
▁listę -7154
▁wiat -7155
▁lubel -7156
ake -7157
niły -7158
▁uchwały -7159
rich -7160
▁pomy -7161
polskim -7162
▁regionie -7163
▁starsze -7164
▁Kru -7165
ologiczne -7166
.), -7167
▁Polskim -7168
43 -7169
▁klasie -7170
▁ziemia -7171
▁Mę -7172
ander -7173
▁dobry -7174
▁Wę -7175
sport -7176
owanymi -7177
▁pokoj -7178
▁ogólno -7179
▁seminarium -7180
▁doskona -7181
▁Mur -7182
▁metal -7183
edy -7184
▁ręko -7185
▁następnych -7186
dii -7187
nictwem -7188
▁koron -7189
iny -7190
obój -7191
żka -7192
▁propag -7193
▁zmien -7194
szyn -7195
kiedy -7196
▁założony -7197
▁wzor -7198
▁zł -7199
▁not -7200
puszcza -7201
▁terenów -7202
ott -7203
owicza -7204
▁Ameri -7205
▁pełno -7206
▁polską -7207
▁wojskowy -7208
▁wyprze -7209
▁izrael -7210
▁właścicielem -7211
czkę -7212
▁seksu -7213
lary -7214
51 -7215
▁trium -7216
▁Kiel -7217
▁Smo -7218
rzona -7219
▁dystan -7220
▁Projekt -7221
▁wzrostu -7222
▁Wew -7223
▁Pierwo -7224
▁Tek -7225
▁najważniejszych -7226
▁Record -7227
▁dorad -7228
prawdopodobniej -7229
▁car -7230
▁chory -7231
▁sędzi -7232
▁Litera -7233
▁wróci -7234
▁jedynym -7235
śnię -7236
dla -7237
▁ludność -7238
stein -7239
▁obrazu -7240
▁siedzibę -7241
▁młodzieży -7242
▁Boga -7243
grafia -7244
jeżd -7245
▁Ameryce -7246
▁trenera -7247
▁zbie -7248
▁wykonał -7249
▁Lek -7250
▁UE -7251
▁National -7252
▁przemy -7253
▁zniesienia -7254
way -7255
▁Ira -7256
▁dostał -7257
lety -7258
▁państwo -7259
żenił -7260
łos -7261
▁przewa -7262
ctor -7263
han -7264
▁problemy -7265
tny -7266
yer -7267
▁= -7268
▁kasz -7269
▁James -7270
▁Vo -7271
gni -7272
hn -7273
▁recen -7274
wicy -7275
▁ryzy -7276
▁rozwinię -7277
▁zbro -7278
▁1973, -7279
▁mąż -7280
owcy -7281
▁rozpoczęły -7282
▁późniejszych -7283
▁stoli -7284
cili -7285
▁kurs -7286
styki -7287
prawę -7288
cław -7289
▁Zwycię -7290
▁straty -7291
▁wago -7292
▁Stre -7293
ire -7294
▁celów -7295
▁ps -7296
dowych -7297
▁trasy -7298
▁turnie -7299
▁sześci -7300
ceae -7301
▁powtó -7302
▁wygrała -7303
BA -7304
▁Jad -7305
▁monar -7306
dowa -7307
▁Rosja -7308
▁kaplicy -7309
▁ses -7310
▁mody -7311
▁Autor -7312
▁uczniów -7313
▁Tadeusza -7314
▁bel -7315
▁automaty -7316
ye -7317
▁skó -7318
▁Jednakże -7319
▁Zim -7320
▁Elekt -7321
▁terenu -7322
niczą -7323
▁Działa -7324
▁Posia -7325
owiska -7326
stanowie -7327
▁Czech -7328
świet -7329
▁Broni -7330
▁rąk -7331
▁zginął -7332
▁dowództwo -7333
▁Anny -7334
▁czer -7335
iz -7336
▁uprawia -7337
▁Cza -7338
▁Dal -7339
▁Izraela -7340
▁parlamentu -7341
▁powierzchnię -7342
remo -7343
▁Bezpie -7344
▁powią -7345
▁wyjątkiem -7346
▁udostęp -7347
▁wzrost -7348
gum -7349
▁1913 -7350
▁stali -7351
▁siat -7352
są -7353
▁formacji -7354
▁francuskiej -7355
dziesiątych -7356
rali -7357
cuje -7358
▁bramek -7359
▁eduka -7360
Prze -7361
▁ustawy -7362
▁złożył -7363
▁pierwotnie -7364
ker -7365
▁konkursu -7366
%. -7367
ętności -7368
ralna -7369
▁pięk -7370
▁zrezygnował -7371
ES -7372
▁Emi -7373
▁nabo -7374
▁Drugi -7375
-198 -7376
▁Robot -7377
▁Partia -7378
▁Buk -7379
▁festiwalu -7380
▁itp -7381
▁zespoły -7382
▁komisji -7383
nij -7384
▁36 -7385
▁żadnych -7386
▁zatrzyma -7387
bliż -7388
▁partia -7389
rur -7390
▁wybit -7391
▁placu -7392
▁Zaj -7393
▁poseł -7394
▁plat -7395
▁technik -7396
▁znalazły -7397
▁1911 -7398
lizmu -7399
▁biorą -7400
tycznie -7401
▁artystów -7402
▁obiektu -7403
▁późniejszym -7404
▁linie -7405
gur -7406
▁Konstytu -7407
▁elektroni -7408
Al -7409
▁Hand -7410
onę -7411
ür -7412
77 -7413
▁powoduje -7414
▁potrafi -7415
▁Award -7416
▁skazany -7417
▁Kilka -7418
▁Wydaw -7419
▁Club -7420
▁reform -7421
ré -7422
▁tyle -7423
▁normal -7424
▁obozie -7425
pular -7426
▁uruchomi -7427
cymi -7428
2) -7429
logiczne -7430
▁Cesar -7431
▁Jezio -7432
orth -7433
▁przeciwie -7434
▁Mel -7435
xi -7436
spektora -7437
▁silnie -7438
▁organami -7439
▁prawej -7440
▁własnych -7441
choł -7442
▁opis -7443
▁reprezentował -7444
heim -7445
▁Odzna -7446
95 -7447
▁Francis -7448
▁szeroko -7449
▁Brazylii -7450
▁kapitana -7451
zował -7452
▁bohate -7453
▁głowy -7454
▁jedyny -7455
▁Wito -7456
▁napast -7457
▁realizacji -7458
▁swą -7459
rodzi -7460
▁scho -7461
▁Łuka -7462
▁przybył -7463
chium -7464
pela -7465
▁udzie -7466
▁pisarz -7467
mag -7468
▁uznał -7469
rai -7470
▁radio -7471
▁zwycięstwa -7472
rena -7473
▁imienia -7474
▁ulega -7475
▁Uniwersytet -7476
▁stary -7477
alność -7478
łom -7479
▁Jednym -7480
cąc -7481
▁inwesty -7482
▁Che -7483
▁International -7484
▁bolszewi -7485
▁dyscypli -7486
▁porząd -7487
▁popeł -7488
▁wyborów -7489
wców -7490
ateli -7491
bić -7492
▁Sob -7493
▁ilu -7494
▁Jos -7495
▁interw -7496
▁przyjęty -7497
▁zobowią -7498
▁transportu -7499
lania -7500
▁poinform -7501
▁wiejską -7502
▁urzędu -7503
niosły -7504
won -7505
▁1: -7506
▁zabu -7507
▁planie -7508
▁Jeden -7509
▁Af -7510
▁bal -7511
▁kontu -7512
▁Wiktor -7513
▁let -7514
tzw -7515
▁sprawy -7516
▁tren -7517
częszczał -7518
▁mieszkał -7519
▁Jac -7520
▁inni -7521
▁osi -7522
▁33 -7523
▁rosną -7524
▁odgry -7525
▁uję -7526
stek -7527
▁rejon -7528
▁artyle -7529
jor -7530
▁' -7531
▁stanowiły -7532
plo -7533
▁Dre -7534
pora -7535
▁tekst -7536
▁wspomina -7537
▁równa -7538
▁Jezusa -7539
▁ostatniej -7540
▁orbi -7541
▁dóbr -7542
lta -7543
▁Trój -7544
skryp -7545
▁kart -7546
▁dziew -7547
▁populacji -7548
▁raj -7549
▁międzynarodowej -7550
▁przestęp -7551
▁pobytu -7552
▁Tru -7553
▁żołnierze -7554
▁silnika -7555
▁GRN -7556
▁Oficer -7557
▁opublikował -7558
▁odmów -7559
▁Kongre -7560
▁Znajduje -7561
▁pojedynku -7562
▁podlega -7563
czącą -7564
▁orze -7565
dzkimi -7566
▁wrocła -7567
▁móz -7568
zajem -7569
▁zesta -7570
▁soli -7571
tychmiast -7572
▁1908 -7573
sud -7574
▁pienię -7575
▁wystar -7576
▁osła -7577
4) -7578
▁naci -7579
Pro -7580
tyk -7581
▁kształcie -7582
▁Toruniu -7583
▁Imperium -7584
▁francuskiego -7585
fon -7586
▁170 -7587
▁wydarzenia -7588
żach -7589
▁szkoleni -7590
▁teledy -7591
bol -7592
▁Celnej -7593
▁zdob -7594
▁Jeśli -7595
▁Szkoła -7596
Do -7597
▁Sar -7598
łuma -7599
▁wykonane -7600
line -7601
▁któremu -7602
▁cześć -7603
▁ON -7604
▁Bun -7605
▁produkcję -7606
▁Jack -7607
▁powiąza -7608
▁obja -7609
▁pomimo -7610
▁zbiera -7611
▁zaprze -7612
▁protestan -7613
mani -7614
▁reżyserii -7615
▁córką -7616
prawa -7617
▁Sztuk -7618
dnienia -7619
▁wywia -7620
zny -7621
▁republi -7622
▁stylem -7623
▁Zygmunt -7624
ścią -7625
▁natychmiast -7626
▁flo -7627
żonych -7628
▁Kot -7629
▁drugo -7630
▁substan -7631
▁marszał -7632
czak -7633
▁zarzu -7634
▁trzecim -7635
tali -7636
▁Kost -7637
dle -7638
▁budowie -7639
▁tuż -7640
lany -7641
▁ratu -7642
▁Pancer -7643
▁Filo -7644
▁kultur -7645
dała -7646
▁Służ -7647
▁zaczęły -7648
Mo -7649
▁remont -7650
Sa -7651
▁barwy -7652
▁Tech -7653
▁poziomu -7654
▁zremis -7655
▁małżeństwa -7656
▁Duch -7657
▁Rado -7658
enty -7659
kazano -7660
▁całe -7661
▁Monachium -7662
wiał -7663
▁przebo -7664
▁Generalnego -7665
▁sekretarza -7666
▁autora -7667
▁podróży -7668
▁gwał -7669
▁opisy -7670
▁Jean -7671
▁lokalnych -7672
▁Mikołaj -7673
▁defini -7674
▁sztafecie -7675
szli -7676
▁ładu -7677
▁Marian -7678
▁gospoda -7679
należ -7680
▁folwar -7681
▁Dodatkowo -7682
▁ciało -7683
inga -7684
▁początek -7685
vie -7686
▁mistrzostwa -7687
owem -7688
▁Med -7689
▁Były -7690
▁sumie -7691
▁przywi -7692
▁przepły -7693
niesieniu -7694
cielami -7695
▁posła -7696
gby -7697
▁sama -7698
zując -7699
▁komplek -7700
lnie -7701
▁Prawosław -7702
▁zwal -7703
▁modli -7704
▁mogli -7705
▁pokoju -7706
rzwi -7707
▁narodowymi -7708
▁dawnej -7709
▁pw -7710
▁znaleźć -7711
▁poez -7712
mistrza -7713
phy -7714
▁Festiwalu -7715
▁ostate -7716
▁granicę -7717
▁pseudo -7718
▁zasady -7719
kańskiej -7720
▁Yor -7721
▁Europejskiego -7722
▁spoży -7723
Pol -7724
▁Bene -7725
▁Obec -7726
▁CD -7727
▁Van -7728
kryty -7729
▁Kolo -7730
▁medycy -7731
▁wysokość -7732
▁studentów -7733
▁przyjaciół -7734
▁6. -7735
▁powietrza -7736
▁wszyscy -7737
lio -7738
ric -7739
gent -7740
▁przywró -7741
try -7742
▁Pen -7743
▁członka -7744
▁dale -7745
▁kontroli -7746
fię -7747
▁grunt -7748
▁najlepszy -7749
▁uzyskując -7750
▁najmniejsza -7751
mara -7752
▁emit -7753
▁najwy -7754
▁spoczy -7755
▁ner -7756
▁naukowy -7757
▁podziem -7758
▁Mistrzostwach -7759
▁dysku -7760
▁Bezpieczeństwa -7761
▁Red -7762
▁napię -7763
▁Izby -7764
▁przeży -7765
▁deko -7766
▁amerykańskiego -7767
▁dar -7768
▁pracowała -7769
cząca -7770
▁skró -7771
▁społeczeństwa -7772
cjone -7773
▁boku -7774
▁dworze -7775
▁Mot -7776
▁jaski -7777
▁obcho -7778
▁Zel -7779
▁wyglą -7780
▁firmę -7781
▁nied -7782
▁wnio -7783
▁Leona -7784
▁Zasługi -7785
▁debiutan -7786
▁własnej -7787
▁Sym -7788
▁Głównego -7789
▁grupą -7790
▁przekra -7791
▁wielkiego -7792
▁niewielkie -7793
gas -7794
▁Auto -7795
▁"„ -7796
▁Budow -7797
▁używa -7798
▁Komitet -7799
▁wypierając -7800
▁Luk -7801
▁zadaniem -7802
▁Tere -7803
▁struktury -7804
▁ptaków -7805
▁wypowie -7806
▁wyproduk -7807
▁tajem -7808
ON -7809
▁prezbiterium -7810
zeku -7811
▁Powiat -7812
▁David -7813
▁Austria -7814
ówki -7815
▁kosmi -7816
▁rundy -7817
▁pamiąt -7818
lak -7819
stecz -7820
▁Bibli -7821
▁prędkość -7822
▁Grecji -7823
dny -7824
▁zginęło -7825
▁zmieniono -7826
gatyw -7827
▁badaw -7828
98 -7829
▁urządzenia -7830
▁ryb -7831
chami -7832
▁Spół -7833
▁określi -7834
▁północny -7835
nó -7836
▁Arab -7837
▁zastąpił -7838
stach -7839
▁stosuje -7840
▁Studiował -7841
▁Pon -7842
▁statu -7843
▁policji -7844
run -7845
▁podstawowym -7846
▁You -7847
▁doda -7848
▁Bat -7849
▁wydoby -7850
ós -7851
czeb -7852
▁warszt -7853
▁1906 -7854
Co -7855
▁Jakub -7856
▁Sara -7857
▁przeszłości -7858
dzień -7859
▁podejm -7860
▁dużo -7861
▁wojną -7862
▁Wilhelm -7863
▁przechowy -7864
▁1/ -7865
nęli -7866
▁Miejsc -7867
kari -7868
leś -7869
▁1954. -7870
tymi -7871
▁wiek -7872
▁różno -7873
▁nazywa -7874
▁zwolniony -7875
▁najniższego -7876
ełm -7877
anom -7878
owal -7879
konuje -7880
dencji -7881
mera -7882
▁Men -7883
gorz -7884
dzonego -7885
dowy -7886
▁stwierdził -7887
▁Taj -7888
▁Wojennej -7889
▁lotu -7890
▁1907 -7891
kiewicza -7892
▁komitetu -7893
▁politycznej -7894
wentu -7895
▁równoleg -7896
▁służy -7897
▁Kalifor -7898
▁śmi -7899
▁zano -7900
▁Antoniego -7901
▁odej -7902
▁będący -7903
▁narzę -7904
▁spółki -7905
▁startował -7906
▁trzydzie -7907
niło -7908
▁gminną -7909
▁wydarzeń -7910
▁zupeł -7911
▁sej -7912
▁Jugosła -7913
▁Dia -7914
▁Odrodzenia -7915
tnych -7916
▁Gromady -7917
▁Norwegii -7918
nom -7919
▁systemie -7920
AP -7921
▁Poch -7922
ian -7923
atach -7924
niejszy -7925
▁materiałów -7926
▁twa -7927
▁bratem -7928
▁kot -7929
▁Whi -7930
wiaty -7931
mai -7932
▁ulic -7933
▁powstaniu -7934
▁Ala -7935
▁kul -7936
▁Departa -7937
▁geografi -7938
die -7939
▁Armia -7940
▁Organizacji -7941
▁łódz -7942
▁Pis -7943
▁front -7944
▁przeprowadzono -7945
▁Lan -7946
▁rokiem -7947
logicznych -7948
▁dotyczących -7949
▁obiekty -7950
▁funkcjona -7951
▁dane -7952
▁ludzie -7953
▁Rej -7954
▁miastem -7955
▁społecznej -7956
▁resta -7957
▁rakiet -7958
▁światła -7959
arka -7960
▁węgla -7961
▁Sim -7962
▁uczy -7963
col -7964
▁nazwiska -7965
▁4, -7966
▁handlu -7967
▁ukazała -7968
▁telewizji -7969
▁zarazem -7970
▁Leo -7971
▁Ludwik -7972
kształcą -7973
▁Vir -7974
▁ochot -7975
▁wyścig -7976
pienia -7977
▁Album -7978
▁radami -7979
▁Iwan -7980
▁gospodarki -7981
▁terro -7982
▁75 -7983
▁Adol -7984
▁staty -7985
diece -7986
fund -7987
czanie -7988
▁Wiele -7989
▁eko -7990
▁wiceprzewodni -7991
dyn -7992
steru -7993
▁Michael -7994
▁wystartował -7995
▁przeciwieństwie -7996
kat -7997
styczny -7998
▁Br -7999
samo -8000
▁pozostawał -8001
▁reszt -8002
nionych -8003
stąpienia -8004
▁instytucji -8005
▁Can -8006
▁Hor -8007
▁którymi -8008
▁Gor -8009
niosek -8010
kingu -8011
-201 -8012
ślad -8013
▁wiary -8014
stycznej -8015
▁spotkał -8016
▁oblę -8017
▁Należ -8018
bieg -8019
ezon -8020
stanu -8021
▁Występuje -8022
▁Wielki -8023
miary -8024
▁tworzenia -8025
▁tekstu -8026
młod -8027
▁dzieło -8028
▁takiej -8029
▁związana -8030
▁kup -8031
▁elektro -8032
▁Sha -8033
▁Chin -8034
▁Monte -8035
▁wiedzy -8036
kanów -8037
zur -8038
▁żyw -8039
▁Bryga -8040
▁Lubel -8041
▁nomin -8042
szyć -8043
stian -8044
▁Zgromadzenia -8045
rady -8046
conych -8047
▁spotkanie -8048
GRN -8049
szowie -8050
▁siedmiu -8051
▁przeniesiono -8052
▁południowy -8053
dziesię -8054
▁wytwórni -8055
▁kilometrów -8056
▁reorganizującej -8057
▁gromadzkimi -8058
▁Belgii -8059
▁małe -8060
▁skierowany -8061
▁publicy -8062
▁Marek -8063
▁relacji -8064
▁zrze -8065
▁ustawi -8066
mb -8067
▁skrzyż -8068
▁wielki -8069
▁Kraków -8070
MP -8071
▁krawę -8072
▁sum -8073
▁inny -8074
▁triumf -8075
▁Panny -8076
▁nastąpił -8077
lor -8078
▁Fryderyka -8079
▁egza -8080
▁statku -8081
▁odsło -8082
▁Sąd -8083
▁wykorzyst -8084
▁Stat -8085
▁Piosenki -8086
▁okazał -8087
▁nadał -8088
▁Morza -8089
▁Del -8090
▁Kło -8091
▁Rumunii -8092
ds -8093
cro -8094
▁samochodów -8095
obra -8096
▁Mark -8097
▁obronie -8098
▁tamże -8099
▁1909 -8100
▁ewolu -8101
Wi -8102
▁formę -8103
ович -8104
▁Fu -8105
▁nieli -8106
gy -8107
▁męża -8108
▁zaliczył -8109
▁tera -8110
▁kończy -8111
▁kierownika -8112
▁zaczęto -8113
▁Dowódz -8114
nicza -8115
▁Maryi -8116
▁stopniowo -8117
▁Karierę -8118
▁lekarz -8119
▁kanadyj -8120
▁stworzył -8121
▁ubo -8122
różnic -8123
▁forte -8124
▁Records -8125
▁powszechnie -8126
▁kolor -8127
▁Wykona -8128
▁cier -8129
▁gaze -8130
▁warunków -8131
pp -8132
▁staje -8133
▁pozostaje -8134
▁Mak -8135
▁Parku -8136
▁podpis -8137
▁wewnętrznych -8138
▁komisa -8139
czeństwo -8140
▁Honor -8141
dian -8142
▁Rock -8143
stre -8144
▁WRN -8145
kura -8146
▁Domi -8147
▁Potem -8148
▁fazy -8149
jazdu -8150
▁Licz -8151
onomii -8152
▁mecha -8153
ash -8154
▁fun -8155
nickiego -8156
nda -8157
▁pokonując -8158
▁klucz -8159
ologicznych -8160
▁opowia -8161
▁Sak -8162
▁gier -8163
▁wykry -8164
▁„" -8165
▁swobo -8166
▁Mieczy -8167
▁Art -8168
▁ożenił -8169
▁domy -8170
▁Portuga -8171
▁cechy -8172
▁poety -8173
▁figu -8174
owskie -8175
▁budynki -8176
▁programie -8177
▁Poto -8178
▁singel -8179
new -8180
▁muzykę -8181
▁pewien -8182
jami -8183
▁fabu -8184
ux -8185
ściami -8186
▁Łącznie -8187
▁naukowe -8188
▁połączenie -8189
▁wojnę -8190
cedo -8191
▁proś -8192
▁wyklu -8193
foni -8194
▁Let -8195
▁Świad -8196
▁majątek -8197
▁termi -8198
▁odbyło -8199
▁Blu -8200
▁litur -8201
▁rzeką -8202
nieniem -8203
▁szer -8204
▁sceny -8205
ódź -8206
honor -8207
▁doliny -8208
▁MS -8209
▁dawnego -8210
▁problemów -8211
poru -8212
▁gnia -8213
▁Okręt -8214
vin -8215
szem -8216
▁rządzie -8217
▁żadnego -8218
▁gle -8219
rzami -8220
▁używany -8221
▁założenia -8222
▁Pułk -8223
▁Sol -8224
▁Blo -8225
▁pokar -8226
▁międzywojennym -8227
don -8228
czość -8229
▁ary -8230
▁procesie -8231
▁lotnictwa -8232
▁Parafia -8233
▁największe -8234
▁Druży -8235
▁publika -8236
▁podod -8237
▁Piłsud -8238
▁Fir -8239
▁włoski -8240
dnicy -8241
▁bla -8242
▁rzadko -8243
▁drogę -8244
▁odnot -8245
▁uczył -8246
▁organizacja -8247
▁rock -8248
▁systemem -8249
▁umożliwi -8250
ese -8251
cago -8252
▁stracił -8253
▁PS -8254
▁najlepszym -8255
759 -8256
▁Augusta -8257
▁gromadzkiej -8258
▁norwe -8259
stycznego -8260
▁parlamentarnych -8261
▁niebezpie -8262
▁rannych -8263
▁Najlep -8264
▁patriar -8265
▁powieść -8266
ówka -8267
żki -8268
▁zatem -8269
▁rodziną -8270
▁miejskich -8271
▁dotychczasowej -8272
▁goty -8273
▁Bernar -8274
▁przeprowadził -8275
▁siedziba -8276
▁selek -8277
▁Danii -8278
więcej -8279
▁większej -8280
▁Członek -8281
mierza -8282
▁jaką -8283
▁lokat -8284
▁hra -8285
▁ofen -8286
czką -8287
▁wersję -8288
jnych -8289
▁Socjalisty -8290
▁Gri -8291
▁Phi -8292
▁koncentra -8293
▁prom -8294
▁domowej -8295
ction -8296
▁jazdy -8297
▁oparciu -8298
▁usług -8299
▁Kad -8300
▁konspi -8301
▁rezult -8302
wca -8303
▁Hy -8304
pina -8305
▁Góry -8306
AF -8307
ńsku -8308
niejszą -8309
▁pogrze -8310
▁autobu -8311
▁rywalizacji -8312
ast -8313
▁codzie -8314
▁Janusz -8315
▁okazało -8316
▁Kolejne -8317
-5 -8318
▁Pięk -8319
▁WW -8320
▁prawdopodob -8321
stitu -8322
▁uległ -8323
▁zwany -8324
▁pewne -8325
▁trwał -8326
ńczyków -8327
Or -8328
▁Far -8329
▁języków -8330
▁słabo -8331
▁Obywatel -8332
▁stąd -8333
▁prezesa -8334
▁miejskiej -8335
▁alko -8336
▁kierownik -8337
▁niem -8338
▁puchar -8339
▁strzelców -8340
nowo -8341
▁Pana -8342
▁rangi -8343
▁brygady -8344
▁spotkaniach -8345
▁koszy -8346
▁współczesnych -8347
▁naczy -8348
ei -8349
ropo -8350
▁założona -8351
pił -8352
▁Pło -8353
▁Kir -8354
czącej -8355
▁prowadzone -8356
▁kolejowej -8357
osenek -8358
▁1904 -8359
▁wszystko -8360
▁żydowskiej -8361
”), -8362
▁młodo -8363
kł -8364
▁płk -8365
▁wód -8366
▁nazwisko -8367
mień -8368
▁wyt -8369
▁48 -8370
▁zakonu -8371
▁Euge -8372
▁węd -8373
▁Funk -8374
▁pospoli -8375
▁ostatniego -8376
▁składu -8377
▁gabine -8378
▁samochód -8379
dakty -8380
lację -8381
▁małych -8382
▁Budynek -8383
▁swoi -8384
▁maszyny -8385
▁pl -8386
▁mówią -8387
▁Szczy -8388
kowanych -8389
▁żonaty -8390
▁zbrodni -8391
▁posa -8392
▁piosenek -8393
▁przechodzi -8394
▁Ken -8395
regu -8396
▁Prace -8397
▁materiału -8398
ołem -8399
▁Ele -8400
cien -8401
▁zdołał -8402
▁junior -8403
▁wydała -8404
▁Świętej -8405
▁Kolum -8406
▁34 -8407
niowego -8408
mur -8409
▁przeciwnika -8410
▁Olimpijskich -8411
▁chce -8412
▁Irlandii -8413
▁rośliny -8414
▁dzieli -8415
czoną -8416
▁imieniu -8417
▁Post -8418
▁publicznej -8419
▁Oba -8420
▁Wówczas -8421
omet -8422
▁hal -8423
onstru -8424
▁gwiaz -8425
ide -8426
▁daje -8427
▁pomocnika -8428
▁kost -8429
99 -8430
jew -8431
formacji -8432
nawia -8433
▁kontrol -8434
▁krew -8435
▁bramkę -8436
▁Mazowie -8437
szczeń -8438
▁amuni -8439
▁północnym -8440
▁7. -8441
▁wniosek -8442
▁zadania -8443
jne -8444
▁Music -8445
cek -8446
rał -8447
▁numerem -8448
AR -8449
▁Marcin -8450
▁posiadają -8451
▁gmach -8452
ins -8453
▁opuści -8454
▁podło -8455
onymi -8456
▁zakłada -8457
▁największym -8458
ão -8459
▁egzeku -8460
waran -8461
▁zastępcy -8462
▁Wojskowego -8463
▁tekstów -8464
▁Wtedy -8465
▁8759 -8466
▁odzie -8467
▁Zygmunta -8468
nistycznej -8469
▁Zato -8470
▁zasadzie -8471
▁NS -8472
▁otacza -8473
▁Należy -8474
▁zajęli -8475
▁Warszawskiej -8476
▁dokonano -8477
▁współpracował -8478
▁600 -8479
▁obrońcy -8480
▁teore -8481
▁Olszty -8482
▁hipote -8483
▁Sanoku -8484
▁Najświętszej -8485
skute -8486
▁dźwię -8487
▁granica -8488
przestrze -8489
szewski -8490
▁Stron -8491
ney -8492
śmy -8493
▁takim -8494
▁austra -8495
▁prostoką -8496
szę -8497
▁duszpa -8498
Dzie -8499
▁czu -8500
▁Staro -8501
▁ham -8502
▁serca -8503
▁Rz -8504
▁godziny -8505
▁Teatru -8506
powo -8507
▁ćwi -8508
▁oporu -8509
con -8510
▁Thomas -8511
▁dróg -8512
▁porzu -8513
▁wra -8514
tacja -8515
▁dekana -8516
▁stoi -8517
▁uniemożli -8518
5) -8519
▁muzuł -8520
▁królem -8521
▁zachodu -8522
piec -8523
▁usy -8524
letniej -8525
2), -8526
▁wydania -8527
▁zapowie -8528
▁Minist -8529
▁oper -8530
kanie -8531
▁wierzchoł -8532
▁komuni -8533
Ga -8534
▁szac -8535
▁rejestru -8536
▁szpitala -8537
▁ós -8538
▁wnętrza -8539
▁osiągnięcia -8540
▁perku -8541
jeździe -8542
▁Mili -8543
▁zróżnic -8544
Cz -8545
▁osia -8546
ień -8547
tle -8548
▁piosenka -8549
▁samych -8550
enu -8551
▁hodow -8552
▁warszawskiego -8553
ródziem -8554
▁Wojskowej -8555
kowska -8556
▁porównaniu -8557
dowe -8558
▁przedstawiciel -8559
▁Sztabu -8560
sus -8561
▁Radio -8562
▁słucha -8563
▁wojewo -8564
▁pisał -8565
dzę -8566
▁Inne -8567
▁latem -8568
▁odwoła -8569
▁Pierwszą -8570
▁King -8571
▁kadrze -8572
▁wykorzystu -8573
▁fundu -8574
▁prowadzenia -8575
▁Zach -8576
▁Orderem -8577
▁wiernych -8578
▁karę -8579
▁Alba -8580
▁scenie -8581
▁miesiące -8582
▁podaje -8583
▁ust -8584
▁wyraźnie -8585
▁Bet -8586
▁Gale -8587
▁wojna -8588
▁Dan -8589
wieniu -8590
▁filozofi -8591
▁Wali -8592
▁rozwiązania -8593
▁użyciu -8594
▁nastąpiła -8595
sena -8596
▁marki -8597
▁zadań -8598
▁trzykrotnie -8599
czami -8600
▁zazna -8601
▁przedłu -8602
▁następnego -8603
▁związków -8604
▁Prus -8605
▁spowodowało -8606
▁orkie -8607
▁ostro -8608
chowie -8609
▁gwiazdy -8610
▁5, -8611
ume -8612
▁zamian -8613
zel -8614
▁Polskie -8615
▁medalista -8616
najmniej -8617
▁przystąpi -8618
▁przegrywając -8619
▁Š -8620
▁pięcio -8621
dzonym -8622
▁okoliczności -8623
ев -8624
▁Daw -8625
▁żywo -8626
mych -8627
▁bramki -8628
miera -8629
▁białoru -8630
▁śmiercią -8631
fur -8632
▁800 -8633
▁zarejestrowa -8634
▁37 -8635
dziesiąt -8636
So -8637
own -8638
▁Wier -8639
▁emeryturę -8640
fera -8641
▁Mistrzów -8642
▁działanie -8643
▁Turcji -8644
▁Państwowej -8645
▁Równo -8646
▁Ai -8647
▁Góra -8648
▁trasie -8649
niny -8650
macie -8651
▁sateli -8652
gle -8653
▁Prawdopodobnie -8654
▁wspomnia -8655
/199 -8656
SS -8657
▁prz -8658
▁gale -8659
▁Jadwi -8660
▁kontrow -8661
▁więźniów -8662
▁kole -8663
▁Wcześniej -8664
wice -8665
▁Parlamentu -8666
amery -8667
▁rozpow -8668
▁Gli -8669
▁sform -8670
▁epar -8671
▁Powsta -8672
▁Historii -8673
wschodniej -8674
▁Bli -8675
▁Wit -8676
▁bronią -8677
▁Filip -8678
▁pokładzie -8679
▁technologii -8680
▁sąsia -8681
▁Paryża -8682
▁polityczne -8683
▁wyzwo -8684
pin -8685
▁bater -8686
dnej -8687
▁umoc -8688
▁Vol -8689
▁barw -8690
▁likwidacji -8691
vić -8692
stron -8693
▁uplas -8694
▁raczej -8695
▁standar -8696
▁2: -8697
chen -8698
▁mniejsze -8699
gio -8700
▁warst -8701
▁wywiad -8702
▁zadanie -8703
▁1500 -8704
▁zakwali -8705
▁właściciel -8706
ball -8707
komu -8708
▁Najbardziej -8709
▁południowym -8710
▁Kal -8711
ałą -8712
▁pojemności -8713
▁Rzymu -8714
▁opozycji -8715
padła -8716
▁zajęcia -8717
▁konferencji -8718
▁Edwar -8719
▁wspó -8720
▁byłego -8721
▁jakości -8722
▁obserwa -8723
zowie -8724
▁obejm -8725
▁granicą -8726
dzieli -8727
▁stoczni -8728
▁stosowane -8729
▁Wer -8730
▁skal -8731
towany -8732
▁Wilnie -8733
▁Chicago -8734
▁przeszła -8735
kować -8736
▁Wyda -8737
▁wymia -8738
AM -8739
tani -8740
pola -8741
▁August -8742
▁wikari -8743
sau -8744
▁swym -8745
3), -8746
▁Wios -8747
▁tronu -8748
▁wprowadza -8749
▁(4 -8750
▁Et -8751
▁zdobyli -8752
▁Sądu -8753
nty -8754
ktem -8755
▁negatyw -8756
▁obronił -8757
2). -8758
▁wschodzie -8759
▁klubów -8760
▁takiego -8761
▁miłości -8762
▁uroczystości -8763
▁chę -8764
▁ada -8765
▁zaczęli -8766
dzka -8767
▁kło -8768
trzu -8769
▁obni -8770
▁najlepiej -8771
ić -8772
▁bas -8773
jechał -8774
3). -8775
▁Wojciecha -8776
pto -8777
▁oczeki -8778
▁poży -8779
▁10. -8780
▁zwiększa -8781
▁tury -8782
▁Koło -8783
▁Mickie -8784
▁soł -8785
dzkich -8786
lowej -8787
▁Feli -8788
▁Śląsku -8789
▁Kobie -8790
▁Miesz -8791
▁obrazy -8792
▁należący -8793
▁przyczyną -8794
▁przedstawiciele -8795
▁jakim -8796
▁Tego -8797
▁rankingu -8798
ningra -8799
▁Pomor -8800
▁podobne -8801
▁obwodu -8802
▁wkro -8803
▁płat -8804
▁dozna -8805
▁wydanie -8806
▁komunikacji -8807
▁cuk -8808
▁dźwięk -8809
▁tabeli -8810
Ta -8811
natora -8812
▁oświad -8813
▁zastosowanie -8814
▁kl -8815
jskiej -8816
▁magazyn -8817
▁Wielo -8818
▁wyraź -8819
▁szczegół -8820
▁Zd -8821
▁zaku -8822
▁australij -8823
▁arcybiskup -8824
▁Wielka -8825
▁miastach -8826
▁mając -8827
▁alian -8828
▁poślubił -8829
▁historyk -8830
▁wst -8831
łac -8832
▁sukcesy -8833
▁Eli -8834
▁opada -8835
▁Stowarzyszenie -8836
▁Ara -8837
czyński -8838
▁kolejowa -8839
▁baz -8840
▁popiera -8841
▁fragment -8842
▁fre -8843
▁spełnia -8844
▁pseudonim -8845
RD -8846
▁FI -8847
▁mni -8848
lesa -8849
▁armia -8850
▁zabój -8851
▁warszawskim -8852
ken -8853
shi -8854
▁Bazy -8855
lonym -8856
▁broń -8857
atury -8858
▁reaktyw -8859
▁rosyjskiego -8860
spozycji -8861
▁własnością -8862
▁eksploata -8863
▁korzy -8864
▁Komen -8865
▁Produ -8866
pany -8867
▁pobiera -8868
▁Raci -8869
▁Finlandii -8870
▁największą -8871
ałem -8872
▁Alfre -8873
▁najbliż -8874
▁wzniesiono -8875
▁posel -8876
▁inwa -8877
▁miejskie -8878
siaj -8879
▁Lwowa -8880
▁łączy -8881
kło -8882
Ne -8883
To -8884
▁dziecko -8885
▁Roberta -8886
▁systemów -8887
▁Gwia -8888
▁ONZ -8889
▁nieprze -8890
▁magistra -8891
sji -8892
▁brytyjskiej -8893
ben -8894
ałymi -8895
▁Gmina -8896
▁ceremo -8897
założy -8898
▁przedmiot -8899
▁Tem -8900
▁konkurs -8901
płat -8902
▁odcinków -8903
▁budże -8904
▁termin -8905
▁cmentarz -8906
CO -8907
▁zaro -8908
▁wzięła -8909
pania -8910
▁sojusz -8911
▁rozstrze -8912
▁żołnierz -8913
▁awansowany -8914
▁bok -8915
▁geo -8916
▁rebe -8917
▁umieszczone -8918
▁zatrudniony -8919
▁równocześnie -8920
▁Gil -8921
▁sekcji -8922
NO -8923
▁Nowe -8924
▁liczbie -8925
▁Kanadzie -8926
▁wschodu -8927
wskie -8928
▁okręg -8929
▁Program -8930
sil -8931
▁wcie -8932
▁Korei -8933
▁Frontu -8934
▁Mac -8935
▁niezbę -8936
▁muzyczny -8937
▁Jerozoli -8938
▁zamieszku -8939
▁katedry -8940
▁własnego -8941
strakla -8942
demok -8943
▁ambasa -8944
▁pyta -8945
▁umiejętności -8946
▁kontakt -8947
1). -8948
stoku -8949
▁zasad -8950
▁złotych -8951
▁redaktorem -8952
▁Federacji -8953
▁PAN -8954
rica -8955
▁168 -8956
▁utworzenia -8957
▁opisał -8958
▁znajo -8959
▁Powo -8960
▁panu -8961
▁religii -8962
Be -8963
lonego -8964
▁dziennik -8965
▁przystos -8966
▁fał -8967
▁przebieg -8968
▁trz -8969
▁sklasy -8970
▁lekkoat -8971
▁indywidualnych -8972
▁Wisły -8973
▁goli -8974
edii -8975
▁ułat -8976
▁dziej -8977
nosząc -8978
▁paliwa -8979
▁trudności -8980
kret -8981
cher -8982
ring -8983
▁biz -8984
Me -8985
ск -8986
głów -8987
▁wydziału -8988
▁krajobraz -8989
▁przynależ -8990
▁has -8991
▁Fizy -8992
▁zjedno -8993
▁pion -8994
▁Black -8995
▁średnicy -8996
▁konfliktu -8997
▁39 -8998
ky -8999
▁znajdowało -9000
▁trwały -9001
▁środkowej -9002
▁Utwór -9003
▁Hele -9004
▁ośmiu -9005
▁służb -9006
▁Było -9007
▁Don -9008
▁Przyja -9009
▁Uz -9010
▁adi -9011
ronów -9012
▁duża -9013
▁osady -9014
▁występów -9015
▁odcinka -9016
▁kawalerii -9017
oro -9018
▁wskazuje -9019
▁pras -9020
▁lokali -9021
wum -9022
vers -9023
▁Brow -9024
▁wysokie -9025
▁wyżej -9026
▁sieć -9027
▁przyszłości -9028
tos -9029
ckimi -9030
ccy -9031
▁układzie -9032
▁Zamo -9033
▁kaden -9034
▁Szczegól -9035
▁liczeb -9036
▁wywie -9037
▁zarząd -9038
pież -9039
▁Sre -9040
▁uwię -9041
▁wykaz -9042
jskiego -9043
▁świątynia -9044
wce -9045
▁cele -9046
żyli -9047
▁sporzą -9048
▁sukcesów -9049
-10 -9050
▁Que -9051
plan -9052
▁osiągnęła -9053
▁uczestników -9054
▁więzieniu -9055
olog -9056
śc -9057
▁7, -9058
stam -9059
▁hit -9060
▁Foto -9061
▁widzów -9062
ugh -9063
łam -9064
▁miesię -9065
▁korespon -9066
pami -9067
▁szcząt -9068
▁kompozytor -9069
▁zamieszkał -9070
6). -9071
elek -9072
▁zawody -9073
1), -9074
▁samobój -9075
bera -9076
▁przekazy -9077
▁razie -9078
▁cyfr -9079
▁pojazdu -9080
sche -9081
▁grubo -9082
▁ufund -9083
▁powołano -9084
vis -9085
▁neuro -9086
tet -9087
haus -9088
▁(190 -9089
▁medi -9090
▁sukcesem -9091
ves -9092
▁plane -9093
▁obwodzie -9094
▁czasopisma -9095
czają -9096
▁ranny -9097
▁Hein -9098
▁Richard -9099
▁Słowacji -9100
▁— -9101
▁Ate -9102
▁otwarto -9103
▁dyplomaty -9104
▁Va -9105
▁Bisku -9106
▁pierście -9107
▁Esto -9108
▁Sezon -9109
▁lider -9110
▁największy -9111
▁swe -9112
▁pojazdów -9113
▁zatytułowany -9114
▁Ostatni -9115
▁158 -9116
nieść -9117
▁własności -9118
▁garniz -9119
▁obecności -9120
▁SRR -9121
▁Bitwa -9122
▁zachodzie -9123
zachodniej -9124
▁słyn -9125
▁Martin -9126
▁zachowania -9127
▁zasiadał -9128
▁piłkarski -9129
▁napo -9130
▁naw -9131
▁ukończyła -9132
▁ugrupowania -9133
▁Kanady -9134
▁zamachu -9135
▁gracz -9136
pą -9137
▁Most -9138
▁nowa -9139
▁spadł -9140
▁wojskowego -9141
▁zapas -9142
lerow -9143
prowadził -9144
ranie -9145
▁chorych -9146
▁fal -9147
▁Pły -9148
▁występowania -9149
▁poro -9150
▁rezerwy -9151
▁inform -9152
▁Gatunek -9153
▁Powszech -9154
spekty -9155
▁różnorod -9156
▁ochron -9157
▁Vin -9158
▁Zespo -9159
▁otrzymy -9160
▁popularność -9161
▁umowę -9162
▁Jakuba -9163
wood -9164
▁1903 -9165
daleko -9166
▁drog -9167
▁księży -9168
▁Zawod -9169
▁edukacji -9170
▁dzia -9171
▁towarzyskim -9172
tain -9173
tnej -9174
▁próbu -9175
▁logi -9176
▁Marka -9177
strzega -9178
lią -9179
▁wojskową -9180
logię -9181
▁reakcji -9182
▁prowadzenie -9183
▁innej -9184
▁statek -9185
▁interes -9186
▁najmłod -9187
▁drużyną -9188
▁dynami -9189
dzią -9190
macji -9191
taż -9192
▁Bart -9193
▁odczy -9194
▁trwała -9195
▁Bułgarii -9196
▁placówki -9197
▁wicepreze -9198
▁rosyjskich -9199
▁Lam -9200
▁Plat -9201
cs -9202
▁obecnej -9203
dzię -9204
▁Peter -9205
▁Bio -9206
4). -9207
ienie -9208
▁reż -9209
▁Rosyjskiego -9210
tną -9211
▁grzbiet -9212
▁przypadkach -9213
jnego -9214
▁nagród -9215
▁pienią -9216
▁Kre -9217
orąży -9218
lent -9219
lista -9220
▁następuje -9221
bio -9222
owisko -9223
eksu -9224
okrotnie -9225
▁obrazów -9226
▁przekazał -9227
▁mani -9228
▁wywoła -9229
▁Mało -9230
▁laure -9231
▁rzę -9232
▁bak -9233
▁efekcie -9234
▁Zbigniew -9235
wka -9236
ges -9237
▁polityczną -9238
rer -9239
▁fragmenty -9240
▁Two -9241
▁popraw -9242
▁Stru -9243
▁Lite -9244
lice -9245
▁ber -9246
▁sprin -9247
ważnie -9248
ffa -9249
▁wprowadził -9250
wory -9251
▁loka -9252
▁Bog -9253
nasto -9254
▁such -9255
▁czasami -9256
▁Gry -9257
▁trzyma -9258
▁aku -9259
▁stawia -9260
▁Trybuna -9261
▁Można -9262
▁Gie -9263
pomor -9264
▁PZPR -9265
▁przeszko -9266
▁get -9267
▁Łódz -9268
▁ośrodek -9269
▁Zbrojnych -9270
▁mężczy -9271
▁prowadziła -9272
▁Py -9273
tero -9274
cti -9275
kowice -9276
nięcie -9277
ор -9278
▁TVP -9279
▁zupełnie -9280
▁architektury -9281
▁odbior -9282
▁+ -9283
▁mające -9284
dują -9285
▁praktyce -9286
ий -9287
▁powiedział -9288
▁Barce -9289
▁wpisa -9290
▁okup -9291
▁Ekonomi -9292
ppe -9293
TA -9294
▁Ji -9295
bour -9296
▁org -9297
▁zauwa -9298
▁ste -9299
tycznym -9300
▁własny -9301
▁czter -9302
▁Wilhelma -9303
tum -9304
▁wszech -9305
▁Oli -9306
▁chro -9307
lane -9308
cówka -9309
▁admi -9310
▁ciep -9311
gencji -9312
▁pewnym -9313
▁Biura -9314
▁artykułów -9315
▁morza -9316
▁próbował -9317
▁Fal -9318
▁wyboru -9319
An -9320
dam -9321
jako -9322
strybu -9323
▁znaczenia -9324
▁prezes -9325
skop -9326
▁130 -9327
▁płytę -9328
▁pogo -9329
▁upamiętnia -9330
▁wzór -9331
rar -9332
▁UN -9333
czyka -9334
▁Czas -9335
nicznych -9336
▁wypożyczony -9337
iła -9338
▁kto -9339
liana -9340
gl -9341
the -9342
jeżdża -9343
▁południa -9344
udi -9345
▁Rio -9346
▁ślub -9347
▁synte -9348
▁uhonor -9349
▁czarno -9350
▁poeta -9351
frastru -9352
▁bezpośre -9353
▁Reprezent -9354
▁Poznań -9355
▁skupia -9356
▁zasięgu -9357
▁Charles -9358
▁elementem -9359
Je -9360
▁płycie -9361
vá -9362
▁140 -9363
▁zbudowana -9364
▁Galicji -9365
▁konkret -9366
▁Zi -9367
▁Polską -9368
dana -9369
▁lasy -9370
urowi -9371
obo -9372
hor -9373
__ -9374
▁Rus -9375
uszem -9376
▁koni -9377
▁ordyna -9378
▁Ogólnokształcą -9379
▁hrabiego -9380
mentami -9381
▁specjalnych -9382
4), -9383
atorium -9384
▁dziennikarz -9385
▁sły -9386
▁majora -9387
▁dzisiaj -9388
▁bydgo -9389
▁ołtarz -9390
▁grę -9391
▁zmianie -9392
▁sprawi -9393
▁zasługi -9394
▁Ministra -9395
▁publicznych -9396
Lo -9397
▁rozgrywa -9398
▁Świąty -9399
▁obyd -9400
▁pracach -9401
▁temperatury -9402
▁Lar -9403
▁Sos -9404
▁Sty -9405
▁Obok -9406
▁sprawą -9407
▁nazywany -9408
TV -9409
▁Dlatego -9410
▁pozycje -9411
▁zewnątrz -9412
▁profesjonal -9413
ranu -9414
▁(8 -9415
▁250 -9416
sługuje -9417
▁Hali -9418
▁rozgrywki -9419
jski -9420
tnym -9421
istnie -9422
PA -9423
▁wielkim -9424
▁Dem -9425
▁boga -9426
▁przełoż -9427
owską -9428
▁Copa -9429
formu -9430
▁urat -9431
Da -9432
на -9433
▁Premier -9434
▁Radia -9435
tał -9436
szości -9437
▁budowa -9438
▁nożnej -9439
mym -9440
▁neut -9441
▁dawnych -9442
▁szlak -9443
▁Max -9444
▁odz -9445
▁deka -9446
▁katolicki -9447
▁Liczba -9448
Wo -9449
▁znajdujący -9450
▁Jugosławii -9451
▁8. -9452
▁kombina -9453
▁otrzymu -9454
▁obszarów -9455
▁Petersburgu -9456
▁park -9457
▁Glo -9458
lakty -9459
▁strefy -9460
granicza -9461
▁Chinach -9462
▁półfinale -9463
▁zaba -9464
▁media -9465
▁KOP -9466
-9 -9467
▁as -9468
▁kola -9469
▁słów -9470
▁teor -9471
▁Regional -9472
ownika -9473
wiązał -9474
▁Jeh -9475
▁średnio -9476
▁fotografi -9477
później -9478
▁gwałtow -9479
▁istnieją -9480
▁Wych -9481
▁muzycznych -9482
▁kilkanaście -9483
▁Jesie -9484
ceniu -9485
▁argum -9486
▁rysun -9487
▁angielskim -9488
▁stacjon -9489
6), -9490
niania -9491
▁słab -9492
7). -9493
owic -9494
üh -9495
▁dwór -9496
gel -9497
▁dotąd -9498
▁Nagrody -9499
▁uczel -9500
▁przyczyn -9501
▁natar -9502
Ha -9503
uti -9504
▁żą -9505
▁nego -9506
▁Dowód -9507
▁macierzy -9508
TP -9509
zujący -9510
▁rozebra -9511
▁Bolesław -9512
▁dziewięć -9513
▁() -9514
nieśli -9515
▁Pradze -9516
▁imieniem -9517
▁krajowych -9518
▁rekor -9519
▁Napole -9520
▁Oddział -9521
▁doros -9522
▁moskie -9523
▁Meda -9524
▁ojcem -9525
▁Samolo -9526
▁Szczecinie -9527
▁Gran -9528
▁Młodzieży -9529
▁starszeństwem -9530
▁równowa -9531
▁legi -9532
▁filmach -9533
▁Friedri -9534
fal -9535
▁doro -9536
▁wybory -9537
▁wzajem -9538
▁Afryce -9539
▁przełę -9540
▁użytkow -9541
tonu -9542
▁zwień -9543
▁tka -9544
▁reelek -9545
▁Małgorz -9546
▁paramet -9547
portu -9548
▁istniała -9549
▁zamont -9550
▁Lee -9551
▁Usta -9552
▁miesiącach -9553
kopa -9554
▁apli -9555
▁kaz -9556
▁Mali -9557
▁szach -9558
lav -9559
▁niekiedy -9560
nor -9561
▁mianował -9562
▁3: -9563
▁toż -9564
▁insta -9565
▁ogłoszono -9566
▁usu -9567
▁określenie -9568
magał -9569
▁rodziców -9570
▁zanu -9571
▁Każdy -9572
żyse -9573
▁kompleks -9574
▁Czechosłowacji -9575
▁razu -9576
ktery -9577
▁spekta -9578
zen -9579
stel -9580
rowany -9581
▁intere -9582
▁pozostałości -9583
klo -9584
zon -9585
▁lasów -9586
śnienia -9587
▁kolejną -9588
▁podporu -9589
▁Szkołę -9590
▁SC -9591
▁Edwarda -9592
jak -9593
kowanej -9594
▁uległa -9595
▁autorów -9596
▁odmien -9597
ryw -9598
▁Cup -9599
▁rozleg -9600
▁dokładnie -9601
wiec -9602
▁Radzieckiego -9603
▁presti -9604
▁językiem -9605
▁nasi -9606
▁płyta -9607
▁przydzielony -9608
niemie -9609
logicznej -9610
tru -9611
niczka -9612
▁zmarła -9613
▁Cieszy -9614
▁danego -9615
▁Rzym -9616
▁Cas -9617
▁ściany -9618
▁dzisiejszego -9619
▁bó -9620
▁Niemcami -9621
▁książce -9622
▁65 -9623
glu -9624
▁żonę -9625
▁Inżynie -9626
▁pojawiają -9627
▁Razem -9628
▁lw -9629
ceń -9630
▁dysk -9631
▁Ny -9632
9) -9633
ik -9634
▁powinien -9635
żną -9636
▁widzenia -9637
▁Ministrów -9638
▁podstawowej -9639
▁niesp -9640
▁posłu -9641
▁wojskowe -9642
▁piosenkar -9643
▁Celem -9644
kowskich -9645
▁częstot -9646
▁Iza -9647
▁zwyk -9648
▁nadzor -9649
▁piłkarzem -9650
lię -9651
▁RF -9652
▁wydaje -9653
czce -9654
▁wyspa -9655
▁zasob -9656
▁Fun -9657
▁osadni -9658
▁katolickiego -9659
biła -9660
▁Pierwotnie -9661
▁Wewnętrz -9662
▁Floty -9663
▁szpitalu -9664
▁Cur -9665
▁pomaga -9666
_1 -9667
ild -9668
▁wykorzystywane -9669
▁ir -9670
▁Navy -9671
▁piłki -9672
▁Wers -9673
▁Santa -9674
▁adwo -9675
▁nadano -9676
▁Die -9677
▁środku -9678
▁archidiece -9679
▁miliona -9680
▁zała -9681
▁Konty -9682
▁osoba -9683
▁Narodowy -9684
GB -9685
▁górnej -9686
▁Specjal -9687
dziesięciu -9688
▁1,5 -9689
zylij -9690
▁Starego -9691
ол -9692
dzkie -9693
▁łańcu -9694
▁powojen -9695
▁Bon -9696
▁zoba -9697
▁mocno -9698
▁silniki -9699
▁Teo -9700
▁działaczy -9701
uli -9702
▁wybrzeża -9703
ör -9704
mac -9705
nili -9706
▁przyrodni -9707
dzieć -9708
kowatych -9709
▁siostry -9710
▁Pięknych -9711
▁żeby -9712
torzy -9713
▁dominu -9714
▁uzbroj -9715
▁wilgot -9716
lili -9717
▁dot -9718
▁ministrem -9719
▁Gabr -9720
▁Księstwa -9721
▁nominację -9722
▁władza -9723
▁umowy -9724
▁drewna -9725
chać -9726
▁koncertów -9727
▁Bran -9728
▁strategi -9729
▁brytyjskich -9730
cyjnymi -9731
zui -9732
czasie -9733
▁Rek -9734
▁zysk -9735
▁Rem -9736
▁szczycie -9737
▁opieku -9738
▁Przedsiębior -9739
chodź -9740
inę -9741
szyng -9742
ńczycy -9743
▁sytuacja -9744
▁rynek -9745
▁czołgów -9746
▁ziel -9747
▁morder -9748
ćmi -9749
▁koł -9750
goty -9751
▁Gdyni -9752
▁wielkie -9753
▁wykonany -9754
▁wywodzą -9755
▁zdjęcia -9756
▁kontrolę -9757
▁regularnie -9758
ńscy -9759
▁znów -9760
▁występy -9761
▁nieprzyja -9762
▁uważany -9763
▁eliminacji -9764
7), -9765
▁Rząd -9766
▁odbywały -9767
▁dodatkowe -9768
▁dzwon -9769
pki -9770
woju -9771
▁jury -9772
▁drzewa -9773
▁American -9774
▁przedstawił -9775
czeni -9776
▁pokład -9777
▁ówczesnego -9778
%) -9779
▁Bank -9780
▁artyleryj -9781
▁zachowały -9782
tyczną -9783
▁budowli -9784
bela -9785
▁zremisowanym -9786
▁Cu -9787
▁zapocząt -9788
▁Teatrze -9789
▁rodzajów -9790
kazują -9791
▁demon -9792
kało -9793
▁Rzą -9794
ierar -9795
▁Tim -9796
▁komórek -9797
▁x -9798
▁ziemie -9799
▁ap -9800
▁Demokratycznej -9801
▁kopu -9802
terem -9803
niając -9804
ralnie -9805
▁przewidy -9806
▁1902 -9807
▁alterna -9808
▁Inspektora -9809
szonych -9810
▁posiadała -9811
▁słone -9812
▁amator -9813
▁dokony -9814
▁naukowej -9815
▁stanowiła -9816
▁władcy -9817
dzają -9818
▁labo -9819
▁treści -9820
▁otwiera -9821
field -9822
▁Bałty -9823
mith -9824
▁Mora -9825
▁Grzegorz -9826
▁Francisco -9827
▁drzwi -9828
▁pożar -9829
▁zba -9830
▁Prezydenta -9831
▁francuskich -9832
▁międzyczasie -9833
▁przynajmniej -9834
▁6, -9835
▁obecność -9836
▁wykonano -9837
▁umieszczony -9838
▁przygotowy -9839
▁skoń -9840
▁Chara -9841
▁Poznania -9842
▁eliminacjach -9843
▁podstawowych -9844
cena -9845
▁sla -9846
rol -9847
▁Powietrz -9848
▁Szkocji -9849
▁praktycznie -9850
▁ery -9851
▁meksy -9852
▁określ -9853
▁wygląd -9854
▁własność -9855
-20 -9856
5), -9857
▁doprowadził -9858
ńcz -9859
▁nic -9860
▁wejścia -9861
rodą -9862
dowego -9863
▁specyfi -9864
▁historycznych -9865
▁apostol -9866
▁guberni -9867
unku -9868
▁Białym -9869
▁stanowił -9870
bla -9871
▁epoki -9872
▁neo -9873
perów -9874
żnych -9875
▁koła -9876
▁42 -9877
▁Ul -9878
gród -9879
ruje -9880
▁opinii -9881
▁wyposażony -9882
▁), -9883
▁wydzie -9884
▁Pełnił -9885
ńce -9886
dorf -9887
zujące -9888
▁Przemysłu -9889
▁Pusz -9890
▁Górze -9891
▁pięci -9892
▁dostępne -9893
▁Jehowy -9894
▁Tymczasem -9895
▁55 -9896
dape -9897
▁stal -9898
▁stypen -9899
▁rumu -9900
▁autobus -9901
▁adap -9902
▁Badania -9903
▁niemiecką -9904
▁mogło -9905
▁sięg -9906
racja -9907
▁analizy -9908
▁brazylij -9909
▁rodzinnym -9910
▁On -9911
kać -9912
▁Bol -9913
▁zapis -9914
stycznym -9915
▁renes -9916
▁Sprawie -9917
Ca -9918
niak -9919
▁angielskiego -9920
▁Mickiewicza -9921
▁ró -9922
▁Habs -9923
▁Krze -9924
▁deleg -9925
▁angielski -9926
▁Waw -9927
tonie -9928
▁doli -9929
▁generalnego -9930
▁syno -9931
▁wynoszą -9932
▁biskupem -9933
▁przejścia -9934
TS -9935
▁rejonu -9936
▁Istnieje -9937
▁hitlerow -9938
▁radziecki -9939
ckiem -9940
▁bizan -9941
ess -9942
uel -9943
berga -9944
owate -9945
▁podrę -9946
▁Śre -9947
▁firm -9948
▁nierucho -9949
ltacie -9950
▁rezultacie -9951
dną -9952
▁urodziła -9953
▁komórki -9954
▁Głównej -9955
▁schroni -9956
▁zdaniem -9957
budowano -9958
▁artysta -9959
▁należało -9960
list -9961
rotu -9962
niała -9963
▁danej -9964
▁pozostała -9965
kwizy -9966
▁kary -9967
▁zaplan -9968
▁wyszła -9969
gene -9970
▁kondy -9971
▁muszą -9972
kr -9973
▁Syrii -9974
▁zmuszony -9975
▁wiosną -9976
mas -9977
owni -9978
▁wschodnim -9979
warii -9980
▁namal -9981
▁pusty -9982
▁Try -9983
▁strzela -9984
▁Ministerstwie -9985
▁hydro -9986
▁wyrzut -9987
biny -9988
▁dawniej -9989
▁duchowny -9990
▁nawie -9991
▁krótkim -9992
▁Leon -9993
dż -9994
owemu -9995
▁York -9996
▁pozwo -9997
▁Fla -9998
▁Tal -9999
▁Maksy -10000
▁plany -10001
▁SD -10002
dąc -10003
▁systematy -10004
▁kwar -10005
▁powod -10006
▁teraz -10007
▁formalnie -10008
▁zachodnim -10009
▁Siedzi -10010
▁opro -10011
▁Ludowego -10012
▁Pochowany -10013
▁dokumentów -10014
%, -10015
zania -10016
▁skra -10017
ram -10018
▁Moskie -10019
▁stronach -10020
▁1898 -10021
▁cała -10022
▁mil -10023
▁ssa -10024
▁krótki -10025
▁zastrze -10026
▁wydawnictwa -10027
▁znaczeniu -10028
IV -10029
▁Pedagogi -10030
▁wul -10031
▁Indii -10032
▁szpital -10033
▁44 -10034
stokra -10035
mości -10036
wiar -10037
▁pora -10038
fikacja -10039
▁kalibru -10040
▁urządzeń -10041
amo -10042
▁podpuł -10043
▁uzyskać -10044
kańskiego -10045
▁przewie -10046
water -10047
dność -10048
▁fali -10049
▁kadłuba -10050
▁architektoni -10051
▁promu -10052
▁łamach -10053
▁literaturze -10054
▁modu -10055
▁gminę -10056
▁wieża -10057
▁malarz -10058
▁Portugalii -10059
owcem -10060
▁Proces -10061
▁prywatnych -10062
▁Igrzyskach -10063
sky -10064
doch -10065
▁teksty -10066
▁doświadczenia -10067
dney -10068
urów -10069
żono -10070
alności -10071
▁samą -10072
▁przyjm -10073
cjoni -10074
▁pasażerów -10075
▁wzbu -10076
▁programów -10077
▁socjal -10078
▁znanym -10079
▁lą -10080
▁Marynarki -10081
▁akty -10082
▁SA -10083
▁krytyków -10084
cjonu -10085
▁zmianę -10086
▁froncie -10087
rent -10088
▁leczenia -10089
▁Doliny -10090
▁Chrz -10091
▁prześlad -10092
▁Ruchu -10093
soli -10094
gari -10095
leniem -10096
▁PK -10097
▁uznany -10098
▁starcie -10099
▁Kol -10100
▁pomó -10101
▁orien -10102
▁człowiek -10103
▁Jeżeli -10104
▁wyprawy -10105
▁morskich -10106
▁łączności -10107
▁komer -10108
żon -10109
▁kapitan -10110
▁gnie -10111
ratorium -10112
▁ile -10113
▁Kras -10114
Ni -10115
hal -10116
stety -10117
▁techniki -10118
▁WKP -10119
▁dysp -10120
▁Leś -10121
niosło -10122
▁zrozu -10123
bez -10124
▁kwi -10125
▁napędza -10126
▁dalszych -10127
▁podg -10128
▁wsie -10129
rug -10130
▁eparchii -10131
cjum -10132
▁remon -10133
8) -10134
5). -10135
▁próbę -10136
▁państwowych -10137
▁ubie -10138
▁poprawi -10139
▁Epi -10140
▁niespo -10141
hat -10142
mira -10143
▁Języ -10144
▁apara -10145
▁usytu -10146
rzeć -10147
ming -10148
▁humanisty -10149
▁koncepcji -10150
dyk -10151
rzech -10152
▁rezygna -10153
▁projektów -10154
▁Kara -10155
▁Formuły -10156
▁niezwykle -10157
▁przetrwała -10158
szer -10159
▁Sur -10160
▁Najwyższej -10161
▁Spa -10162
ena -10163
▁skoczni -10164
▁istnienie -10165
Mu -10166
dane -10167
▁szlache -10168
▁umiar -10169
▁egip -10170
▁poezji -10171
▁José -10172
▁czwarty -10173
jąco -10174
gowi -10175
▁pilot -10176
niały -10177
▁Shi -10178
▁dalsze -10179
▁niedaleko -10180
▁Pers -10181
HL -10182
jna -10183
▁9. -10184
▁Hall -10185
▁szwajcar -10186
▁czytel -10187
▁rodzaje -10188
manna -10189
▁amerykańska -10190
zacją -10191
▁spod -10192
▁Srebr -10193
▁zabija -10194
Pi -10195
▁lod -10196
▁Ukrainie -10197
▁koro -10198
▁kolejnego -10199
▁zdolności -10200
BS -10201
▁hok -10202
▁lekar -10203
▁powierzchnia -10204
▁rocznie -10205
▁audy -10206
▁zwol -10207
▁ża -10208
▁zakładów -10209
chała -10210
zmów -10211
mini -10212
▁skał -10213
ен -10214
atur -10215
▁nawi -10216
▁życi -10217
▁teologii -10218
ée -10219
▁Nikoła -10220
pienie -10221
▁przesunię -10222
▁Bundes -10223
▁1901 -10224
▁kara -10225
ema -10226
▁zwrot -10227
▁statków -10228
MA -10229
▁É -10230
▁powodzenia -10231
▁sprawę -10232
▁silników -10233
gun -10234
ziem -10235
styczną -10236
▁chirur -10237
▁synago -10238
▁przeciwlot -10239
▁nieleg -10240
▁deszcz -10241
atami -10242
▁tryb -10243
▁własnym -10244
czyńskiego -10245
▁teni -10246
▁teatru -10247
▁nawiąza -10248
▁Medio -10249
▁twórców -10250
▁turniejach -10251
▁Fabry -10252
get -10253
tokrzy -10254
czyzny -10255
▁szans -10256
▁Uczestniczył -10257
▁stę -10258
dnego -10259
▁jezui -10260
kształt -10261
▁posze -10262
▁wioski -10263
▁militar -10264
▁francuskim -10265
kański -10266
▁bułgar -10267
▁nagry -10268
▁towar -10269
▁lokomo -10270
▁Państwowego -10271
▁wyższych -10272
▁politykę -10273
▁uzbrojenia -10274
▁prawnik -10275
▁będące -10276
US -10277
▁kuch -10278
▁rozgrywanych -10279
letnią -10280
▁dowie -10281
ер -10282
▁Lewi -10283
▁społeczne -10284
▁Wielu -10285
▁Louis -10286
▁atom -10287
▁zajmowała -10288
łda -10289
▁kaszte -10290
▁sos -10291
▁Grab -10292
▁wydano -10293
▁Gam -10294
▁wykładow -10295
▁С -10296
▁porucznika -10297
▁muzyka -10298
rada -10299
▁Egiptu -10300
▁należały -10301
▁ewentu -10302
▁pośrednictwem -10303
▁takimi -10304
dzielono -10305
▁dydakty -10306
▁demokraty -10307
listów -10308
▁Island -10309
szyły -10310
▁ogół -10311
▁Daniel -10312
▁Sing -10313
▁naboże -10314
▁Seba -10315
▁kolejności -10316
▁Cru -10317
▁strefie -10318
▁kandydatów -10319
▁Bę -10320
sztorze -10321
▁dziecka -10322
▁nacjona -10323
▁Legionów -10324
▁zainteresowania -10325
▁prawnych -10326
▁Posiada -10327
▁przeprowadza -10328
ęła -10329
▁Mate -10330
▁narodowych -10331
▁Aka -10332
▁delega -10333
▁trójką -10334
▁korzyst -10335
▁ligowych -10336
rez -10337
orach -10338
▁tytuły -10339
▁wersje -10340
▁mart -10341
▁połączone -10342
▁wykonania -10343
▁Maj -10344
óp -10345
grzym -10346
▁1897 -10347
▁siedli -10348
▁państwowej -10349
▁gorą -10350
dnikiem -10351
▁potencjal -10352
▁Kli -10353
▁prestiż -10354
▁finan -10355
▁wyraża -10356
▁aktorka -10357
▁rozmie -10358
▁Zachodniej -10359
▁Miejscowość -10360
▁bom -10361
▁klien -10362
▁bramka -10363
▁siedziby -10364
▁bitwa -10365
▁widoczne -10366
▁Chile -10367
▁brytyjskiego -10368
▁jeżeli -10369
szczonych -10370
▁założyciel -10371
▁She -10372
▁Placówka -10373
robo -10374
▁zyskał -10375
▁Bolesława -10376
-0 -10377
▁oddziała -10378
▁1895 -10379
▁konfe -10380
▁dostos -10381
▁Institu -10382
wić -10383
▁dobre -10384
lektu -10385
▁dociera -10386
▁1899 -10387
▁taką -10388
▁kursu -10389
▁Wrocław -10390
▁Manu -10391
▁specjalne -10392
▁dokt -10393
▁utru -10394
▁Magdale -10395
▁Warszawskim -10396
▁sklep -10397
▁wielkich -10398
▁Strzelców -10399
▁duszpaster -10400
▁emo -10401
▁ref -10402
▁przo -10403
logicznego -10404
spraw -10405
▁przyznał -10406
▁poparcie -10407
▁Gusta -10408
elimin -10409
▁reżyse -10410
▁Zale -10411
▁departa -10412
zione -10413
szczone -10414
▁zależy -10415
▁Absolwent -10416
▁Choć -10417
▁nagrob -10418
▁ściśle -10419
niorów -10420
bó -10421
▁skarb -10422
▁zarządzania -10423
▁Skrzy -10424
▁moderni -10425
▁wielkiej -10426
▁Wiosną -10427
Ty -10428
decyd -10429
▁przod -10430
▁najwyższej -10431
▁arystokra -10432
cker -10433
▁łatwo -10434
▁wyło -10435
▁Długość -10436
bara -10437
dnym -10438
owaw -10439
▁otrzymuje -10440
▁zaproponował -10441
▁: -10442
▁Jacek -10443
cke -10444
▁samot -10445
▁sztur -10446
▁partner -10447
nnej -10448
▁dol -10449
▁toru -10450
▁dystrybu -10451
▁przechodzą -10452
fał -10453
nomi -10454
▁Fundacji -10455
krzy -10456
sing -10457
▁godz -10458
▁godzinie -10459
▁odbywają -10460
▁właściciela -10461
▁wspólnego -10462
▁socj -10463
polski -10464
▁Także -10465
kara -10466
▁Żołnie -10467
▁stworzenia -10468
miny -10469
▁straj -10470
rzeniach -10471
▁arcybiskupa -10472
▁piętna -10473
▁płu -10474
▁pułkownika -10475
▁Socie -10476
▁odległość -10477
▁poprzednich -10478
▁przygotowania -10479
jnej -10480
lenda -10481
▁Główny -10482
▁dał -10483
▁uczu -10484
▁poznał -10485
▁Pię -10486
off -10487
manie -10488
▁parafialny -10489
▁Team -10490
▁mito -10491
▁zdobyć -10492
Di -10493
▁ły -10494
▁fanta -10495
▁Cerkiew -10496
▁magnety -10497
▁Ewangeli -10498
▁wyników -10499
wcześniej -10500
▁Urzędu -10501
▁powrotem -10502
▁klasztorze -10503
▁rozwij -10504
leje -10505
▁marynarki -10506
niają -10507
/54 -10508
▁wynosił -10509
▁Peru -10510
▁ogni -10511
▁znalazło -10512
▁świętego -10513
żny -10514
posa -10515
▁pracuje -10516
▁wycofał -10517
▁Duchow -10518
kse -10519
▁mle -10520
▁śród -10521
▁Un -10522
▁cykl -10523
▁Obraz -10524
letniego -10525
stką -10526
▁technicznych -10527
mując -10528
kowanym -10529
▁Waszyng -10530
▁muze -10531
▁wolno -10532
ER -10533
kinie -10534
▁Podla -10535
▁noszą -10536
▁architektu -10537
iach -10538
soci -10539
▁wym -10540
▁serb -10541
▁element -10542
▁filmowy -10543
▁jaj -10544
▁tegoż -10545
▁przeważnie -10546
▁zanim -10547
▁ogó -10548
tas -10549
▁(5 -10550
rzchnia -10551
▁Budape -10552
▁gigan -10553
▁reelekcję -10554
▁powrót -10555
▁portugal -10556
-6 -10557
▁integra -10558
▁Centralnego -10559
▁wicemistrzost -10560
zyn -10561
▁światową -10562
▁XXI -10563
reszcie -10564
▁szt -10565
▁Kijowie -10566
rowie -10567
gacji -10568
▁coro -10569
▁matką -10570
▁lotnisk -10571
▁rzeźby -10572
rację -10573
▁art -10574
▁Wrest -10575
▁portre -10576
łąd -10577
▁Radzi -10578
▁napastnika -10579
▁Środkowej -10580
▁zaka -10581
liki -10582
nnego -10583
▁Zwie -10584
▁różnią -10585
▁rebelian -10586
▁hierar -10587
▁towarzyszą -10588
OR -10589
▁częściej -10590
▁właściwości -10591
▁Wel -10592
▁smo -10593
▁śpiewa -10594
▁Bad -10595
▁Moskwy -10596
▁analiz -10597
▁wydłuż -10598
▁przemie -10599
▁obszarach -10600
▁Człon -10601
▁Polacy -10602
▁konsekwencji -10603
92 -10604
▁klas -10605
▁eksper -10606
▁mierze -10607
qui -10608
▁zer -10609
▁zbudowane -10610
działów -10611
▁Dawi -10612
▁wsparcia -10613
gieł -10614
▁mężem -10615
gdyś -10616
▁Mit -10617
▁uprze -10618
▁Dywizja -10619
▁wyjazd -10620
szard -10621
▁Słońca -10622
▁trwania -10623
▁królowej -10624
zin -10625
▁zbiorów -10626
▁infrastru -10627
kcja -10628
▁High -10629
▁poet -10630
▁Gio -10631
▁pomor -10632
▁Ap -10633
niusz -10634
▁najpo -10635
andra -10636
▁Izrael -10637
▁umieszcza -10638
▁niewol -10639
▁(0 -10640
▁radzieckich -10641
▁NRD -10642
▁serial -10643
mania -10644
wne -10645
▁Net -10646
towej -10647
▁historyczne -10648
▁księż -10649
▁wadze -10650
▁właśc -10651
via -10652
▁hom -10653
▁Odby -10654
▁wir -10655
▁opóź -10656
▁zachował -10657
▁Rezerw -10658
▁alkoho -10659
łową -10660
▁wyprodu -10661
dniki -10662
▁Hans -10663
▁Bill -10664
▁frontu -10665
▁drewniany -10666
hl -10667
istów -10668
▁debiu -10669
▁dziewczy -10670
lery -10671
▁Bil -10672
▁strzel -10673
97 -10674
▁większa -10675
▁mistrzy -10676
▁wyświet -10677
▁Dziedzi -10678
▁kilkunastu -10679
▁wygrywając -10680
▁zakończenia -10681
▁reprezentacją -10682
▁żydowskiego -10683
Go -10684
▁trzema -10685
dzoną -10686
▁lasu -10687
▁dziesięć -10688
▁właściwie -10689
Se -10690
paty -10691
▁manew -10692
▁posługi -10693
▁wyelimin -10694
odręb -10695
▁wznowi -10696
▁żela -10697
▁pionie -10698
▁Pałac -10699
▁metodą -10700
▁patrona -10701
He -10702
fes -10703
▁Soli -10704
▁repres -10705
▁zasięg -10706
ust -10707
sor -10708
▁43 -10709
ture -10710
▁wezwaniem -10711
▁gole -10712
ńskimi -10713
ар -10714
osła -10715
▁stając -10716
▁struktur -10717
▁same -10718
▁Św -10719
▁praca -10720
▁Gdańska -10721
▁und -10722
▁opat -10723
oficer -10724
licz -10725
▁podjęto -10726
▁oświet -10727
▁posiadłości -10728
rządu -10729
▁Łot -10730
▁Druga -10731
towych -10732
▁Bul -10733
niczne -10734
▁złota -10735
prost -10736
▁wielką -10737
▁pp -10738
▁mnich -10739
▁PPS -10740
▁Testam -10741
▁szczytu -10742
▁pływa -10743
▁Jesienią -10744
▁Ani -10745
▁adres -10746
▁absolwent -10747
▁zorganizował -10748
▁jeńców -10749
▁zniesiono -10750
▁Eg -10751
▁sądu -10752
▁kontynua -10753
▁przejści -10754
▁występowała -10755
▁sezonach -10756
phi -10757
▁Sun -10758
▁zamieszka -10759
▁kaplica -10760
▁Ph -10761
▁rozstrzy -10762
wek -10763
anci -10764
▁hali -10765
▁tymi -10766
▁otwarcie -10767
▁starszych -10768
▁zagrożenia -10769
▁zagi -10770
onda -10771
▁Window -10772
▁zaawans -10773
▁Zakładu -10774
▁Rena -10775
▁porozumienia -10776
kując -10777
dowym -10778
▁Prezydent -10779
▁Kowal -10780
▁przymus -10781
▁religijnych -10782
▁Obszar -10783
liwe -10784
gospo -10785
pet -10786
ient -10787
▁zwane -10788
▁odmian -10789
owąz -10790
▁glo -10791
▁gałę -10792
▁samochodu -10793
▁(10 -10794
▁grun -10795
▁ognia -10796
▁Gon -10797
▁Ren -10798
▁ryn -10799
▁Akcja -10800
iss -10801
▁USS -10802
łek -10803
▁Prawosławnego -10804
lé -10805
▁nazw -10806
nicznego -10807
▁starszy -10808
▁ante -10809
▁mianem -10810
uda -10811
▁Pochodził -10812
sters -10813
▁Techno -10814
▁dalszej -10815
▁konflikt -10816
▁sąsiedz -10817
▁socjalisty -10818
polskiej -10819
▁kwo -10820
▁wypu -10821
▁zamy -10822
▁węzłów -10823
▁przypada -10824
▁zniszczy -10825
▁czynności -10826
▁pieśni -10827
▁nazwano -10828
▁Palestyny -10829
ned -10830
▁ben -10831
▁Dnia -10832
▁komendanta -10833
lonie -10834
▁odpor -10835
▁składała -10836
▁Hill -10837
▁żadnej -10838
▁Powąz -10839
▁powodzeniem -10840
▁wykonywania -10841
▁wizer -10842
▁koryta -10843
▁Zagrani -10844
▁Dw -10845
Soli -10846
ariatu -10847
▁każda -10848
▁porta -10849
▁Charaktery -10850
brąz -10851
▁Lit -10852
▁wodą -10853
▁trzeciego -10854
▁postanowie -10855
ięcia -10856
▁źródło -10857
▁Seminarium -10858
▁stwierdzono -10859
▁brzu -10860
rzyły -10861
▁oglą -10862
▁Dzien -10863
▁elektrow -10864
witz -10865
▁prezentu -10866
▁poświęcony -10867
▁Domu -10868
▁Federa -10869
▁Dę -10870
wolni -10871
▁pocisków -10872
łuje -10873
▁Muse -10874
▁przew -10875
▁Abra -10876
▁dworu -10877
▁Decy -10878
▁Cri -10879
▁Ojciec -10880
▁40. -10881
▁Przeciw -10882
▁41 -10883
rzuca -10884
▁oficera -10885
▁związki -10886
▁sprawach -10887
▁obywateli -10888
▁oprogram -10889
ui -10890
pom -10891
▁Nagrodę -10892
▁wraca -10893
▁sesji -10894
▁przecię -10895
▁magazynu -10896
▁metod -10897
▁nakładem -10898
▁przystąpił -10899
▁uniwersytecie -10900
▁zainstal -10901
ones -10902
▁Zamie -10903
▁torze -10904
▁żywności -10905
▁historia -10906
▁ośrodkiem -10907
▁Joseph -10908
ffi -10909
▁naczel -10910
▁utworzony -10911
gol -10912
▁1896 -10913
▁Luksem -10914
▁prowadzić -10915
szeniem -10916
▁Bay -10917
▁kapłańskie -10918
96 -10919
▁tron -10920
▁zakłady -10921
▁Inde -10922
▁ekspres -10923
wardii -10924
▁liturgi -10925
▁diecezja -10926
▁uczęszczał -10927
▁wydane -10928
▁podwodnych -10929
▁dowolnym -10930
▁mater -10931
cht -10932
rey -10933
▁referen -10934
głow -10935
▁Gnie -10936
wina -10937
▁Ryszard -10938
▁emigracji -10939
hard -10940
▁spor -10941
glo -10942
▁zwierzch -10943
szczyzny -10944
▁Vale -10945
▁swoimi -10946
▁specjalnie -10947
▁bogat -10948
▁mający -10949
▁trasę -10950
▁użycia -10951
▁Śródziem -10952
▁Jab -10953
▁porów -10954
▁Chło -10955
▁Ari -10956
▁ważne -10957
▁kolonii -10958
żyły -10959
▁zabie -10960
Pod -10961
dum -10962
deks -10963
▁poświęcił -10964
▁Historia -10965
▁fra -10966
riach -10967
▁UEFA -10968
▁zmiana -10969
▁110 -10970
▁wiąże -10971
▁katalo -10972
kiety -10973
▁Bas -10974
▁publicznego -10975
▁mózgu -10976
▁Gdańsk -10977
▁znie -10978
▁narodowości -10979
Si -10980
▁Koza -10981
▁pierwszo -10982
▁58 -10983
▁Mają -10984
▁przodu -10985
▁poparcia -10986
▁przebojów -10987
rabia -10988
▁szuka -10989
▁Kri -10990
▁fabryki -10991
▁koor -10992
nental -10993
▁serię -10994
▁Manche -10995
▁Produk -10996
▁Twór -10997
▁prag -10998
▁Clar -10999
nitar -11000
▁stanowiło -11001
ude -11002
▁amerykańskie -11003
obserw -11004
▁Wyróż -11005
▁znaczne -11006
▁znajdujące -11007
▁12. -11008
▁myś -11009
naczej -11010
▁zę -11011
▁11. -11012
▁die -11013
▁piersi -11014
▁uznaje -11015
▁wymiany -11016
▁atrak -11017
jr -11018
▁Wał -11019
▁użyte -11020
▁chó -11021
▁powta -11022
▁uchodź -11023
▁odsłonię -11024
▁Zelandii -11025
▁jednoli -11026
▁belgij -11027
kowanego -11028
rią -11029
▁Mieczysław -11030
nium -11031
▁1890 -11032
▁produktów -11033
▁wyposażenie -11034
▁należących -11035
lata -11036
▁Love -11037
▁wysokiej -11038
▁kpt -11039
▁Piłsudskiego -11040
▁skalę -11041
▁granice -11042
▁kontakty -11043
▁ścian -11044
▁środowisku -11045
▁rękach -11046
boli -11047
▁y -11048
▁Kawaler -11049
▁następne -11050
▁Macedo -11051
kańskich -11052
mund -11053
unkt -11054
▁melo -11055
nionym -11056
▁Ostro -11057
liła -11058
▁mark -11059
▁telewizyjny -11060
▁HMS -11061
▁odnowi -11062
▁zaprzy -11063
▁Międzynarodowej -11064
▁Den -11065
bią -11066
▁Woło -11067
▁skraj -11068
▁sztab -11069
▁tożsamo -11070
nicki -11071
▁imprezy -11072
wny -11073
▁odkryto -11074
▁lepiej -11075
▁pieniędzy -11076
cept -11077
tocy -11078
board -11079
▁zakaz -11080
▁najlepszego -11081
▁Tytuł -11082
▁oka -11083
spina -11084
▁artykuły -11085
▁pochodzący -11086
▁Amerykań -11087
▁senior -11088
▁Ple -11089
▁natury -11090
▁książkę -11091
▁zajmują -11092
▁silnikiem -11093
▁przekracza -11094
reo -11095
Fran -11096
▁nawy -11097
▁zo -11098
▁Archite -11099
▁redakcji -11100
▁stolicą -11101
▁zagadnie -11102
letu -11103
▁unika -11104
▁źródłem -11105
▁studyjny -11106
var -11107
uropej -11108
▁figur -11109
▁ciemno -11110
eld -11111
▁polo -11112
pracował -11113
▁wyposażenia -11114
▁Leopol -11115
wiej -11116
▁Dis -11117
▁dwukrot -11118
▁asystentem -11119
▁wrześniowej -11120
▁sali -11121
▁tyłu -11122
atry -11123
▁służbie -11124
▁Nauki -11125
▁Rudol -11126
9), -11127
▁Uzy -11128
▁wroga -11129
▁współzałoży -11130
▁All -11131
asadni -11132
Am -11133
▁Otrzymał -11134
▁doprowadziło -11135
tyn -11136
inte -11137
cyjno -11138
▁Karl -11139
riusza -11140
jon -11141
▁Ener -11142
▁bank -11143
▁spółka -11144
▁Czarno -11145
▁grupowej -11146
▁współczesnej -11147
drat -11148
łała -11149
▁Nico -11150
▁przedwojen -11151
▁niemiecka -11152
▁Andre -11153
▁lasach -11154
brew -11155
▁Berlina -11156
▁kolonia -11157
▁średnią -11158
▁kilkakrotnie -11159
▁długie -11160
▁lekarza -11161
rzeni -11162
sten -11163
▁(20 -11164
▁izo -11165
▁Wola -11166
▁gli -11167
liński -11168
▁brzeg -11169
▁profi -11170
▁amerykańskim -11171
▁czyta -11172
▁ofensy -11173
▁Przewodni -11174
▁Demok -11175
▁rosyjskim -11176
▁Tel -11177
▁ex -11178
▁dorobku -11179
oko -11180
▁One -11181
▁Swoją -11182
▁Wschodniej -11183
▁wskaź -11184
▁kryter -11185
▁oddzie -11186
▁kibu -11187
▁AS -11188
▁sekun -11189
▁indyj -11190
▁liczy -11191
▁planu -11192
rzadziej -11193
▁PO -11194
▁upły -11195
▁stosunków -11196
cjom -11197
▁Stam -11198
▁patrol -11199
▁atmosfery -11200
czało -11201
▁Rosjan -11202
▁autost -11203
leya -11204
▁Niepod -11205
Sta -11206
▁zatytu -11207
▁poż -11208
▁zbrojnych -11209
stały -11210
▁Katedry -11211
▁Williama -11212
char -11213
lda -11214
▁Osied -11215
▁kontek -11216
▁mazowie -11217
gin -11218
▁nakrę -11219
▁Artylerii -11220
kowało -11221
▁siłami -11222
▁negocja -11223
▁finansowych -11224
AC -11225
▁Windows -11226
▁zakwalifik -11227
▁spok -11228
▁Kongres -11229
▁Konstantyno -11230
▁2,5 -11231
▁bun -11232
▁prem -11233
▁dotyczy -11234
▁now -11235
▁ocenia -11236
▁łącznej -11237
▁Pozostałe -11238
▁nauczania -11239
jskim -11240
▁Preze -11241
tując -11242
▁powodów -11243
▁mniejszych -11244
▁formu -11245
▁Wielkim -11246
▁Istnieją -11247
▁warszawskiej -11248
▁mostu -11249
▁osada -11250
▁podobny -11251
wań -11252
jawia -11253
lików -11254
▁wiecz -11255
▁małżeństwo -11256
rok -11257
arki -11258
▁(17 -11259
▁przekaz -11260
▁PT -11261
▁rower -11262
▁wprowadzenie -11263
▁4: -11264
▁pale -11265
▁wywodzi -11266
▁SG -11267
▁wskazują -11268
▁cmentarza -11269
▁zaak -11270
▁Białymstoku -11271
Ży -11272
▁Wen -11273
▁odleg -11274
▁zgrup -11275
▁Eurowi -11276
▁uniwers -11277
▁lam -11278
▁Władi -11279
riuszy -11280
pul -11281
padów -11282
▁pisarza -11283
▁ubra -11284
▁Hil -11285
▁WP -11286
▁maryna -11287
▁rozpoczynał -11288
▁kopalni -11289
▁stadionie -11290
▁miejscowych -11291
sep -11292
▁Wyspa -11293
eni -11294
▁Chrześcija -11295
▁Ignacego -11296
▁rozprawy -11297
▁wybudowany -11298
▁niewielki -11299
▁Koz -11300
stii -11301
dl -11302
▁Zjednoczone -11303
▁Ska -11304
▁pedagogi -11305
ATO -11306
▁utworzenie -11307
▁politycznego -11308
rzec -11309
▁doktorat -11310
▁miejscowej -11311
▁gimna -11312
Solidar -11313
niejsza -11314
▁fut -11315
▁Senatu -11316
▁Beski -11317
towe -11318
▁sprzedaż -11319
▁zabitych -11320
▁Miejskiej -11321
▁światło -11322
bolszewi -11323
▁opo -11324
▁ulica -11325
gard -11326
▁set -11327
▁imigra -11328
▁archidiecezji -11329
isa -11330
erson -11331
▁energe -11332
▁dziesięciu -11333
cci -11334
reś -11335
▁Wielkie -11336
▁włoskiego -11337
▁wicemistrzostwo -11338
▁GP -11339
▁ciśnie -11340
▁przeszło -11341
blu -11342
ira -11343
▁rodzice -11344
▁Przemysł -11345
stracji -11346
bój -11347
manów -11348
▁podwo -11349
▁asystent -11350
▁Stos -11351
▁Administracji -11352
▁stanowisk -11353
▁Kan -11354
▁ślady -11355
waju -11356
▁pisto -11357
cra -11358
▁Fri -11359
▁Hot -11360
▁Kapi -11361
▁aktywności -11362
▁śledz -11363
▁granic -11364
▁wysied -11365
▁prototyp -11366
▁publiczności -11367
▁Tomasza -11368
bas -11369
sięwz -11370
▁powołał -11371
▁Eurowizji -11372
We -11373
▁Klubu -11374
ślu -11375
▁Koper -11376
▁Pamię -11377
▁piosenkę -11378
▁szkolenia -11379
▁zwraca -11380
▁powstań -11381
▁Kolegium -11382
▁Organizacja -11383
▁wolność -11384
jek -11385
nka -11386
niczo -11387
▁kampa -11388
▁działała -11389
▁wspólnoty -11390
▁przeniosła -11391
▁Bundesli -11392
▁śmiertel -11393
▁Kalifornii -11394
ffe -11395
lizowany -11396
▁wyodręb -11397
▁gor -11398
▁Syno -11399
powiat -11400
▁wybrano -11401
ст -11402
boga -11403
▁Wrocławia -11404
▁64 -11405
▁Barto -11406
▁Il -11407
gona -11408
▁biegną -11409
▁wsparcie -11410
ino -11411
▁Lor -11412
▁wyposażone -11413
▁następujących -11414
wską -11415
ciach -11416
▁Urząd -11417
▁krajowej -11418
▁świadomo -11419
▁wykładowcą -11420
sada -11421
oseksu -11422
▁Woły -11423
▁wysłał -11424
▁naczelnym -11425
atunk -11426
▁chary -11427
▁Dąbrow -11428
▁Christo -11429
▁konspira -11430
wiel -11431
nianie -11432
▁boczne -11433
▁dolnej -11434
▁etapie -11435
▁partie -11436
▁opisuje -11437
▁suger -11438
▁Antonio -11439
▁Przedstawi -11440
▁Land -11441
▁pilota -11442
▁bombard -11443
▁zapewne -11444
▁pielgrzym -11445
▁Meto -11446
▁Company -11447
▁dystansie -11448
dru -11449
▁vi -11450
▁usługi -11451
▁wykonana -11452
biscy -11453
▁włączony -11454
▁złote -11455
▁studiach -11456
▁centralnej -11457
▁wyz -11458
▁dzier -11459
▁zmniejsza -11460
▁gda -11461
ancelar -11462
▁świętych -11463
ione -11464
▁Banku -11465
▁nagrał -11466
▁zakry -11467
▁Kształ -11468
▁Ama -11469
▁ziemię -11470
▁ścianie -11471
▁skonstru -11472
▁reguły -11473
▁funkcjonuje -11474
▁Psy -11475
▁znanego -11476
▁Jezus -11477
▁49 -11478
▁Boskiej -11479
▁szkołach -11480
▁stowarzyszenia -11481
lika -11482
ńczyk -11483
▁Bożego -11484
▁Gło -11485
▁czwarte -11486
▁przyjmuje -11487
▁Posta -11488
▁pociąg -11489
▁produkcja -11490
▁uko -11491
logiczny -11492
▁mających -11493
▁wojskowym -11494
▁sh -11495
▁Aca -11496
▁dotarła -11497
▁nawiązuje -11498
▁współa -11499
▁sprawia -11500
▁medycyny -11501
▁chorą -11502
▁podstawy -11503
▁albumie -11504
▁osiedle -11505
gaż -11506
▁Otto -11507
▁zdał -11508
▁filmy -11509
gospodar -11510
▁Oficjal -11511
▁piłkarskiej -11512
VD -11513
uszki -11514
▁stop -11515
▁liczb -11516
▁otrzymali -11517
▁Fede -11518
▁Smith -11519
▁uważał -11520
▁powyż -11521
▁szes -11522
▁głosi -11523
westi -11524
▁rzeka -11525
wczego -11526
▁jasno -11527
▁Ran -11528
▁społeczny -11529
miertnie -11530
Wie -11531
wed -11532
▁Opie -11533
▁przedost -11534
▁selekcjone -11535
▁zmody -11536
tyczna -11537
▁słowia -11538
▁wystawy -11539
▁700 -11540
▁większy -11541
▁podjęła -11542
▁8, -11543
▁przeno -11544
▁wzmianka -11545
minacji -11546
▁zagrała -11547
▁Leningra -11548
▁idei -11549
kowali -11550
▁Medal -11551
▁opisany -11552
tech -11553
▁nam -11554
/0 -11555
▁jedyną -11556
▁osobiście -11557
owoc -11558
▁Eng -11559
▁anim -11560
▁taka -11561
kowymi -11562
▁Filozo -11563
▁oficerem -11564
inicj -11565
▁zdra -11566
▁powrotu -11567
według -11568
▁Chociaż -11569
▁Socjalistycznej -11570
▁biskupów -11571
▁podkreśla -11572
▁Najważ -11573
▁rodzinę -11574
ąg -11575
▁młodości -11576
noza -11577
▁przypadków -11578
towy -11579
▁Jar -11580
▁Litwy -11581
aków -11582
owu -11583
▁ryce -11584
▁propor -11585
▁myśl -11586
▁wykładał -11587
▁motyw -11588
▁Księży -11589
niane -11590
▁sztuce -11591
▁zachodnich -11592
▁prawi -11593
▁Kielcach -11594
iną -11595
▁ost -11596
▁młodego -11597
▁wydaniu -11598
▁odno -11599
owując -11600
▁Londynu -11601
▁przeznaczone -11602
▁zgody -11603
▁Zakopa -11604
▁zwróci -11605
▁Powierzchnia -11606
bl -11607
▁Johan -11608
▁liceum -11609
▁habilit -11610
▁drugolig -11611
ín -11612
▁God -11613
9). -11614
▁dojrz -11615
▁sołec -11616
blo -11617
▁zgodę -11618
lińskiego -11619
▁Got -11620
▁niena -11621
▁Ferdyna -11622
▁zachowanie -11623
▁Studia -11624
▁powinna -11625
▁SK -11626
▁Niektórzy -11627
▁zapisa -11628
▁organizacje -11629
▁dach -11630
▁zachę -11631
▁dostrze -11632
koma -11633
▁podzielone -11634
▁szkie -11635
▁rzut -11636
▁czci -11637
▁Dywizj -11638
▁rozporzą -11639
▁stosunki -11640
xa -11641
unki -11642
▁pop -11643
▁odbywał -11644
▁Ag -11645
tokhol -11646
▁bohaterów -11647
▁Rosyjskiej -11648
▁udziela -11649
▁szkol -11650
▁istniał -11651
▁korpusu -11652
▁procedu -11653
▁zwycięstw -11654
ques -11655
stus -11656
▁krakowskiego -11657
leci -11658
▁wodę -11659
▁rozpro -11660
▁skompon -11661
▁koncerty -11662
zn -11663
▁wyp -11664
▁remi -11665
▁płyną -11666
zjaty -11667
wiast -11668
▁Zamek -11669
▁środki -11670
▁odmówił -11671
▁osobników -11672
▁przegrała -11673
▁nieuda -11674
▁dostarcza -11675
▁Wir -11676
EC -11677
▁strukturze -11678
atar -11679
▁temperatura -11680
▁(15 -11681
▁Wolności -11682
spe -11683
mona -11684
▁Apostol -11685
▁należące -11686
▁ustro -11687
▁minucie -11688
ZS -11689
▁doży -11690
▁gład -11691
▁graczy -11692
▁nazywane -11693
towa -11694
fem -11695
▁mak -11696
limpia -11697
bre -11698
▁Jame -11699
▁sprzeci -11700
▁sportowych -11701
▁gwaran -11702
▁trzecią -11703
utów -11704
▁Szu -11705
▁Divisi -11706
▁starszego -11707
▁ciężkiej -11708
▁podoficer -11709
sarz -11710
▁Trójcy -11711
▁malarza -11712
▁dyry -11713
▁Należał -11714
ness -11715
▁korpusie -11716
▁zainteresowanie -11717
▁uzależ -11718
▁Ża -11719
▁kluby -11720
▁eskadry -11721
▁irlan -11722
▁decydu -11723
▁oddano -11724
▁47 -11725
▁Fred -11726
ktorem -11727
▁oddziel -11728
prowadza -11729
▁Wojskowych -11730
▁rozprzestrze -11731
unek -11732
▁cha -11733
▁olimpijski -11734
▁Dzień -11735
▁redaktor -11736
▁kompozycji -11737
mum -11738
dynami -11739
łanów -11740
▁hrabia -11741
▁zmieniła -11742
mianie -11743
▁stosowania -11744
indu -11745
▁bojowych -11746
▁rozciąga -11747
▁Jacka -11748
▁Wat -11749
▁architekt -11750
dzeni -11751
▁Natu -11752
szechni -11753
erma -11754
▁1888 -11755
▁liczył -11756
▁seryj -11757
▁najlepsze -11758
▁rządy -11759
▁Agnie -11760
▁uzyskania -11761
▁recep -11762
▁obserwacji -11763
▁wzięli -11764
▁Śląskiego -11765
▁Dzieci -11766
▁pieniądze -11767
rąg -11768
▁Sydney -11769
▁stosowany -11770
▁Lotnictwa -11771
▁1863 -11772
▁wybór -11773
▁prawem -11774
▁Narodowym -11775
▁wychow -11776
▁przesłu -11777
Przy -11778
▁kobieta -11779
Fi -11780
▁naru -11781
eter -11782
andor -11783
▁Medalem -11784
▁koalicji -11785
krotny -11786
▁wskazy -11787
▁ochroną -11788
▁awansu -11789
▁efektyw -11790
wel -11791
nowski -11792
▁wieloma -11793
▁znaleziono -11794
My -11795
▁52 -11796
▁1894 -11797
▁Ozna -11798
▁niepeł -11799
▁nauczycielem -11800
No -11801
nas -11802
▁wysyła -11803
▁żydowskich -11804
mił -11805
nnym -11806
pisuje -11807
▁cieka -11808
▁posie -11809
▁kongre -11810
▁sezony -11811
▁ważnym -11812
)" -11813
▁Madry -11814
▁dyspozycji -11815
słowia -11816
▁Średni -11817
utor -11818
▁powstaje -11819
93 -11820
▁Bohater -11821
bienia -11822
▁językach -11823
▁przyspie -11824
-16 -11825
▁DP -11826
wień -11827
hist -11828
lego -11829
▁przeznaczony -11830
▁grob -11831
▁Badań -11832
IA -11833
▁procesów -11834
▁wejście -11835
▁3000 -11836
▁twar -11837
łąb -11838
beth -11839
▁Mem -11840
długo -11841
sztu -11842
▁wek -11843
▁ukaza -11844
▁Atlanty -11845
▁singiel -11846
▁wiadomości -11847
▁Albert -11848
▁żaden -11849
▁eksploatacji -11850
▁Fryderyk -11851
▁homoseksu -11852
▁hor -11853
▁Przełę -11854
▁Zu -11855
chorąży -11856
▁rolnictwa -11857
▁twórczość -11858
▁Zdzi -11859
▁rozmowy -11860
iste -11861
▁Łódź -11862
▁Komisja -11863
▁Kościele -11864
rzonych -11865
▁Indian -11866
▁zbiory -11867
▁kondygna -11868
▁(6 -11869
▁reprezentacja -11870
Jo -11871
▁bakter -11872
▁premierę -11873
▁Are -11874
beryj -11875
▁zarzut -11876
▁Jarosław -11877
▁niewielką -11878
▁dramaty -11879
▁Zakład -11880
tropo -11881
▁telewizyjnych -11882
▁obóz -11883
▁kalenda -11884
▁niezależnie -11885
▁Edukacji -11886
▁przejście -11887
żał -11888
▁esk -11889
fikację -11890
▁określenia -11891
▁proboszczem -11892
▁armię -11893
▁nadwo -11894
▁Gwi -11895
▁Festival -11896
▁Uży -11897
▁wyruszył -11898
▁wye -11899
grafię -11900
▁uzyski -11901
bier -11902
▁późno -11903
▁Rozwoju -11904
żając -11905
▁szerokość -11906
/1 -11907
▁noś -11908
szeni -11909
logicznym -11910
▁zawodnicy -11911
▁szwad -11912
▁Series -11913
▁ekspedy -11914
▁przedsięwz -11915
psy -11916
▁Twier -11917
▁rozpoczęli -11918
▁znak -11919
▁rosyjskie -11920
▁konieczności -11921
▁forty -11922
▁drukar -11923
▁Swoje -11924
▁materiały -11925
▁podstawowe -11926
▁substancji -11927
pus -11928
▁szan -11929
▁wzrosła -11930
▁przyjęła -11931
▁twierdzy -11932
▁wymu -11933
▁1893 -11934
▁owoc -11935
▁oli -11936
▁postul -11937
8), -11938
▁spoczynku -11939
fak -11940
▁Haj -11941
▁jazz -11942
bej -11943
jewicz -11944
▁uznanie -11945
▁utrzymanie -11946
▁fu -11947
▁kop -11948
▁sma -11949
ratów -11950
▁utworzona -11951
▁przebudowy -11952
▁spisu -11953
▁stabil -11954
▁Ut -11955
▁Półwy -11956
▁harcer -11957
▁zasied -11958
▁święcenia -11959
▁wpływy -11960
▁postacią -11961
▁skrzydeł -11962
▁działalnością -11963
Con -11964
▁Chmie -11965
▁Kim -11966
▁wykorzystuje -11967
km -11968
mej -11969
cinek -11970
▁przebywa -11971
tyzmu -11972
▁dywizjonu -11973
-17 -11974
chia -11975
ross -11976
▁wypły -11977
▁zobowiąza -11978
▁najwyższym -11979
▁Mieszka -11980
▁kwestii -11981
▁uczestnik -11982
▁częstotliwości -11983
erial -11984
▁wyższe -11985
▁kontuzji -11986
gował -11987
▁Johns -11988
▁małej -11989
▁intern -11990
▁szlaku -11991
▁kamienia -11992
▁wysłany -11993
▁krawędzi -11994
▁właścicieli -11995
syn -11996
▁Jim -11997
▁Maksymi -11998
dai -11999
▁bryga -12000
▁opuszcza -12001
▁Ky -12002
arium -12003
▁rzek -12004
▁funtów -12005
▁spowodowały -12006
▁słowo -12007
▁edycja -12008
▁narodowego -12009
nista -12010
▁muzycznej -12011
▁North -12012
▁głosu -12013
▁brytyjskie -12014
▁mły -12015
▁zada -12016
▁decyzją -12017
▁zwolenników -12018
▁krwa -12019
▁Wybrze -12020
▁tygodnie -12021
▁Serie -12022
▁Associ -12023
▁funkcjonu -12024
▁Izrae -12025
▁pacjentów -12026
▁Tury -12027
▁Turniej -12028
▁zakończenie -12029
rzeź -12030
wodaw -12031
ownicy -12032
▁pozostawi -12033
▁ciężko -12034
▁patrio -12035
▁federacji -12036
▁wcześniejszych -12037
▁nakazał -12038
▁Cra -12039
▁zawi -12040
▁sprzętu -12041
▁Pła -12042
stor -12043
▁popro -12044
czów -12045
▁Batalion -12046
▁Wzgó -12047
▁Świe -12048
more -12049
▁Okres -12050
▁wycie -12051
▁Pogranicza -12052
▁radykal -12053
cyna -12054
▁znaleźli -12055
▁pomieszczenia -12056
▁czarne -12057
▁punktem -12058
▁wykładowca -12059
onoś -12060
▁konfi -12061
▁tematyce -12062
▁odróżnieniu -12063
▁Poje -12064
▁roda -12065
domier -12066
▁Książę -12067
▁składają -12068
oły -12069
ding -12070
▁opieki -12071
▁lotniska -12072
▁Krzysztofa -12073
ńsk -12074
▁dorosłych -12075
▁intelektu -12076
▁arenie -12077
▁związał -12078
komi -12079
▁kape -12080
▁zwło -12081
▁wyjści -12082
▁Marcina -12083
▁wojennej -12084
▁pkt -12085
▁małżon -12086
▁pełnomoc -12087
▁wspina -12088
fów -12089
▁mniejszości -12090
▁Society -12091
▁robotników -12092
▁Strzele -12093
vil -12094
▁sejm -12095
▁slalo -12096
▁przeła -12097
fikowane -12098
▁grzybów -12099
▁Równocześnie -12100
94 -12101
pru -12102
▁bracia -12103
▁Konserw -12104
ía -12105
▁olej -12106
▁żyje -12107
ID -12108
▁rozwiązanie -12109
▁chrz -12110
▁Paula -12111
nionego -12112
stiana -12113
▁organ -12114
ałów -12115
ferze -12116
▁oparty -12117
kują -12118
ałach -12119
▁Koła -12120
▁znajdujących -12121
ping -12122
▁Soko -12123
▁Wybor -12124
▁niegdyś -12125
▁pil -12126
▁Europe -12127
▁ubiegał -12128
▁wzgórza -12129
▁Teatr -12130
▁Indiach -12131
▁senator -12132
▁Awi -12133
▁posił -12134
▁wątpli -12135
▁kwadrat -12136
▁sytuację -12137
stwu -12138
▁powróciła -12139
▁sprawiedliwości -12140
▁lokalnej -12141
▁nieistnie -12142
▁opracował -12143
Su -12144
harmo -12145
▁perspekty -12146
▁uczestni -12147
blą -12148
demię -12149
▁gminnej -12150
▁okazała -12151
▁inspek -12152
▁PKP -12153
▁wojsko -12154
▁stulecia -12155
kier -12156
▁Rusi -12157
▁poglądy -12158
▁Wschodnich -12159
asu -12160
▁SP -12161
tyków -12162
▁Carlo -12163
kono -12164
skrzy -12165
▁Prowadził -12166
▁produkowany -12167
▁ostrz -12168
▁katedrze -12169
▁zwierzęta -12170
ienia -12171
▁Przyczy -12172
▁biegnie -12173
▁WWE -12174
ownikiem -12175
▁spotkać -12176
▁zastosowano -12177
dyplom -12178
▁udo -12179
▁charakteryzuje -12180
▁Bory -12181
europej -12182
▁Walki -12183
▁Krysty -12184
▁rośnie -12185
▁Dub -12186
▁Enter -12187
▁restaura -12188
▁okolicznych -12189
▁zesła -12190
▁Fort -12191
▁cu -12192
▁odpowiedzialny -12193
▁franci -12194
▁doktry -12195
▁Najczęściej -12196
▁Komunistycznej -12197
▁Eksp -12198
przeciw -12199
pali -12200
▁brzmi -12201
▁rzadziej -12202
TK -12203
godni -12204
▁1892 -12205
-7 -12206
▁Stany -12207
▁przejęła -12208
bergu -12209
▁kompleksu -12210
ciły -12211
▁uto -12212
▁Ministerstwo -12213
bir -12214
watera -12215
▁napraw -12216
rześcijan -12217
chowa -12218
przez -12219
rzyło -12220
▁1880 -12221
▁ofia -12222
▁ucieczki -12223
▁wykonanie -12224
▁Szyb -12225
▁Skład -12226
▁otwarcia -12227
85 -12228
▁Wię -12229
▁środowisk -12230
▁stanowili -12231
▁włączając -12232
gem -12233
▁defi -12234
▁naft -12235
▁książka -12236
▁poł -12237
▁Lwów -12238
▁przyczynił -12239
▁1889 -12240
▁masa -12241
▁biała -12242
▁NATO -12243
▁polityczny -12244
▁komplet -12245
uer -12246
▁jądr -12247
▁Departamentu -12248
hem -12249
▁odziedzi -12250
▁spoko -12251
fikowana -12252
91 -12253
goryt -12254
▁wojskami -12255
szewskiego -12256
▁Ewange -12257
▁karabi -12258
▁wydawnictwo -12259
▁Bara -12260
▁Linia -12261
▁firmie -12262
▁plac -12263
▁wydziale -12264
▁doprowadziły -12265
▁Rodzina -12266
▁zniszczenia -12267
rię -12268
▁Róż -12269
▁Tan -12270
jki -12271
▁Lei -12272
▁inteli -12273
▁okolic -12274
▁otwarty -12275
▁Klasy -12276
▁liter -12277
▁podwyż -12278
▁najwięcej -12279
▁autory -12280
▁miłość -12281
gana -12282
▁Słowe -12283
▁wygna -12284
▁zdobycia -12285
▁planów -12286
▁żywi -12287
▁kościołów -12288
ninie -12289
▁lotniczych -12290
▁klat -12291
nionej -12292
▁pokarm -12293
▁rozbudowy -12294
▁turystów -12295
▁oznaczenie -12296
cjaliz -12297
▁dziewią -12298
cks -12299
▁"( -12300
▁wile -12301
▁zakładach -12302
▁ówczesnej -12303
▁samodzielnie -12304
▁leg -12305
▁Starym -12306
▁otrzymały -12307
uj -12308
▁Komi -12309
▁Ryb -12310
▁księstwa -12311
▁architekta -12312
▁głębokości -12313
▁etap -12314
▁grać -12315
▁mały -12316
▁kolekcji -12317
łub -12318
▁graczem -12319
▁niewiele -12320
▁domi -12321
▁Wobec -12322
▁chorób -12323
▁jednozna -12324
▁46 -12325
▁) -12326
conej -12327
▁pomysł -12328
▁Division -12329
▁ogon -12330
▁ubezpie -12331
▁zaobserw -12332
▁Katarzyny -12333
▁nauczyciela -12334
▁pokaz -12335
▁Doro -12336
▁narciarskich -12337
▁dopuszcz -12338
▁odwiedza -12339
▁dziedziny -12340
▁akt -12341
▁Liga -12342
▁silne -12343
▁CS -12344
▁FK -12345
neiro -12346
▁Wyzwo -12347
▁amunicji -12348
▁białe -12349
szczyźnie -12350
WS -12351
▁Wą -12352
▁nieś -12353
▁alternatyw -12354
▁tri -12355
▁ewakua -12356
▁korona -12357
▁oddziela -12358
▁51 -12359
solu -12360
kowaną -12361
▁biznes -12362
▁wodzie -12363
▁skompli -12364
▁finansowe -12365
▁pułkownik -12366
▁Główne -12367
▁akademicki -12368
owuje -12369
▁ofiary -12370
▁Konferen -12371
▁Krajobraz -12372
▁Jagiellońskiego -12373
▁Szkół -12374
▁żelaza -12375
▁najdłuż -12376
▁Pańskiego -12377
sum -12378
▁White -12379
styczna -12380
▁naukowego -12381
▁zniszczony -12382
▁wytwo -12383
▁traktatu -12384
▁wiąz -12385
▁men -12386
▁uwol -12387
▁Lie -12388
▁Leonar -12389
urze -12390
▁Oce -12391
▁sześcio -12392
RT -12393
▁skoku -12394
▁proboszcza -12395
▁zaprojektowany -12396
szyb -12397
▁muzułma -12398
▁systemy -12399
▁alfa -12400
▁muzyczne -12401
usch -12402
dźwie -12403
▁Roku -12404
rowane -12405
▁miarę -12406
▁dolinie -12407
▁najstarszych -12408
▁zastosowania -12409
▁głowę -12410
▁rugby -12411
dowej -12412
pri -12413
▁bywa -12414
▁zachodnio -12415
▁prezydenckich -12416
▁biało -12417
▁osło -12418
▁rozwoj -12419
▁Sztokhol -12420
▁członkami -12421
▁trzeba -12422
▁przykładem -12423
stapo -12424
▁przydom -12425
▁malarstwa -12426
ois -12427
▁osobą -12428
▁jakich -12429
▁krymina -12430
▁1:1 -12431
czorem -12432
▁Obwod -12433
▁zniszczeniu -12434
sili -12435
▁Jamesa -12436
waje -12437
▁żył -12438
▁następcą -12439
▁odwiedził -12440
czała -12441
▁zajęciu -12442
▁sąsiedztwie -12443
▁demok -12444
▁sejmi -12445
FC -12446
▁ćwierćfinale -12447
▁kół -12448
▁wodnych -12449
▁wyznania -12450
▁Argentyny -12451
gania -12452
▁kościołem -12453
▁Aposto -12454
▁transpor -12455
▁pozwoliło -12456
wei -12457
szeń -12458
▁Przykład -12459
▁poprzedniego -12460
▁Wystąpił -12461
mentach -12462
bile -12463
▁Ośrodek -12464
▁Wszech -12465
▁Pry -12466
stadt -12467
▁Frankfur -12468
▁wprowadzenia -12469
kio -12470
kular -12471
▁woli -12472
tish -12473
▁strukturę -12474
deksu -12475
▁sprzed -12476
▁Kub -12477
▁Ober -12478
▁występować -12479
▁tygodnia -12480
▁el -12481
▁Ulica -12482
▁gatunk -12483
▁Kolejny -12484
▁kardynał -12485
▁Amster -12486
ün -12487
▁Cat -12488
▁Festiwal -12489
8). -12490
▁ira -12491
▁rzemie -12492
▁postępowania -12493
kina -12494
▁otwart -12495
▁złożone -12496
▁pokonała -12497
▁naukowo -12498
woj -12499
miarów -12500
▁połowę -12501
▁wystrze -12502
biec -12503
▁Les -12504
▁Gmin -12505
▁odtwo -12506
▁Rewolu -12507
▁generalny -12508
▁PC -12509
▁Hei -12510
▁stóp -12511
▁uchwał -12512
▁szeregu -12513
▁zadebiutowała -12514
hama -12515
▁tan -12516
▁Top -12517
atyki -12518
lecie -12519
▁Siły -12520
oficjal -12521
kto -12522
▁stację -12523
▁Zadebiut -12524
▁Kawalerii -12525
▁zawierają -12526
sić -12527
▁przysta -12528
▁zawodowych -12529
kum -12530
elle -12531
termin -12532
▁Okręgowego -12533
Vi -12534
ele -12535
▁dokument -12536
gg -12537
gui -12538
▁Woli -12539
▁nauczycieli -12540
▁Sprawiedliwości -12541
▁Wyb -12542
ZR -12543
▁uzbrojenie -12544
▁Cre -12545
▁mio -12546
▁wysił -12547
▁prezydentem -12548
▁wodzą -12549
▁spadek -12550
▁dobro -12551
głównie -12552
czników -12553
▁Spośród -12554
▁pochodzące -12555
▁królewskiej -12556
▁Akademi -12557
▁imprez -12558
▁użycie -12559
▁bohatera -12560
ciami -12561
jewski -12562
▁0: -12563
▁całość -12564
▁utworzonego -12565
kanem -12566
▁lotów -12567
▁wzboga -12568
▁Kr -12569
grad -12570
▁División -12571
▁parę -12572
▁Sobie -12573
▁otrzymując -12574
▁dzielą -12575
▁spowodował -12576
lad -12577
▁MŚ -12578
▁wyspę -12579
▁lokalnego -12580
coną -12581
▁zdrowo -12582
▁rocznicę -12583
▁Sum -12584
▁uplasował -12585
niar -12586
▁podobie -12587
▁Ły -12588
▁efekt -12589
▁tytular -12590
▁Elżbieta -12591
▁osiągnąć -12592
cara -12593
▁Sant -12594
▁Kazach -12595
▁Virtu -12596
▁badaniach -12597
▁piask -12598
▁Jen -12599
▁Dwuk -12600
owiadał -12601
▁bronił -12602
▁egzamin -12603
▁Rak -12604
▁piw -12605
▁1891 -12606
▁piłce -12607
▁dyspon -12608
▁inżyniera -12609
▁podt -12610
▁stołe -12611
▁wysokim -12612
stom -12613
▁Chan -12614
▁Lidze -12615
fran -12616
▁nosił -12617
▁dekre -12618
▁trzecia -12619
bridge -12620
▁siostra -12621
racją -12622
▁miejskiego -12623
": -12624
ńc -12625
▁Alb -12626
właści -12627
▁major -12628
▁dało -12629
▁pismo -12630
▁elek -12631
far -12632
▁Lubo -12633
▁dekanatu -12634
▁przedmiotem -12635
cząć -12636
▁pozwal -12637
adi -12638
finans -12639
▁Zdaniem -12640
▁jezioro -12641
▁Sę -12642
▁Trady -12643
▁prostu -12644
▁wskaza -12645
▁zwrócił -12646
▁Play -12647
▁reklam -12648
▁załoga -12649
▁postacie -12650
▁tworzenie -12651
▁wykorzystywany -12652
▁kredy -12653
▁ciężkich -12654
▁projekty -12655
▁zezwo -12656
szczony -12657
▁Jona -12658
derniz -12659
▁oceny -12660
ciło -12661
▁udaje -12662
▁dramat -12663
▁uruchomiono -12664
óstr -12665
▁Może -12666
▁daleko -12667
gałę -12668
▁tune -12669
▁Model -12670
▁Szpita -12671
▁motocy -12672
zor -12673
▁luk -12674
▁prawidł -12675
▁Rejon -12676
▁założone -12677
▁greckiego -12678
▁stale -12679
▁pseudonimem -12680
▁Steve -12681
▁Czechach -12682
▁pochodzenie -12683
▁preten -12684
▁czwartej -12685
sieli -12686
tacje -12687
▁stref -12688
▁rezerwatu -12689
▁zorganizowano -12690
ик -12691
▁kursy -12692
▁inkwizy -12693
▁szeregach -12694
▁wzniesiony -12695
▁Len -12696
▁manife -12697
cając -12698
▁inaczej -12699
▁miesiąc -12700
▁wyniosła -12701
▁wystawia -12702
▁inskryp -12703
gne -12704
▁15. -12705
▁ogłosiła -12706
żnym -12707
▁męczen -12708
▁obecny -12709
▁wykłady -12710
gody -12711
▁fos -12712
▁policj -12713
▁fabular -12714
▁włoskiej -12715
▁raka -12716
wczych -12717
▁komenta -12718
nier -12719
▁Opolu -12720
▁Philip -12721
▁wodach -12722
”" -12723
▁spal -12724
▁komedii -12725
cience -12726
▁zajęły -12727
▁listopad -12728
▁Fina -12729
▁2010. -12730
▁zakres -12731
▁Cmentarz -12732
▁wysokich -12733
zujących -12734
▁Jedna -12735
RP -12736
hou -12737
▁klimaty -12738
▁dokumenty -12739
▁Pierre -12740
▁Spółdziel -12741
▁społecznego -12742
▁Wolf -12743
▁Iraku -12744
▁Złotym -12745
▁Katedrze -12746
▁chrom -12747
▁pochodzących -12748
dentów -12749
▁kompu -12750
▁Museum -12751
▁gazety -12752
▁sekund -12753
▁Miejsce -12754
▁symbolem -12755
▁Rzeszowie -12756
▁Eri -12757
▁fili -12758
▁wyemi -12759
▁wystaw -12760
▁stacjonu -12761
▁uznawany -12762
głos -12763
▁Motor -12764
▁dzisiejszej -12765
Au -12766
Wiel -12767
▁Hum -12768
▁wkład -12769
▁liczbą -12770
▁międzynarodowe -12771
żąt -12772
▁Woł -12773
▁che -12774
▁strzał -12775
▁pomnika -12776
▁Ita -12777
▁Wacław -12778
▁argenty -12779
▁zestrze -12780
▁zawodową -12781
▁gospodarstwa -12782
cas -12783
kaut -12784
nowy -12785
▁Micro -12786
▁pracą -12787
▁Dor -12788
▁Pew -12789
nicach -12790
▁perkusi -12791
▁56 -12792
▁1885 -12793
▁Sowie -12794
▁wapie -12795
▁prefek -12796
lów -12797
dorem -12798
▁Kolei -12799
▁przysię -12800
▁nazywana -12801
▁Gen -12802
▁Guber -12803
usze -12804
▁bezskute -12805
roi -12806
pikal -12807
szowa -12808
wiąt -12809
▁Wersja -12810
nit -12811
▁13. -12812
▁Komunika -12813
nny -12814
▁KS -12815
▁nieko -12816
▁Ameryka -12817
▁musiała -12818
▁Es -12819
łowia -12820
▁odmiany -12821
▁powinny -12822
▁68 -12823
rzymała -12824
▁wielkość -12825
▁Green -12826
▁podwójnej -12827
▁1870 -12828
▁Wyspy -12829
▁ekipy -12830
▁skóry -12831
▁czwo -12832
▁dora -12833
▁Rośli -12834
▁dyplo -12835
▁zdobywał -12836
▁ekstrakla -12837
▁Giovan -12838
▁wpisany -12839
▁europejskiej -12840
odor -12841
miesię -12842
▁Żydow -12843
▁wierszy -12844
▁Center -12845
▁końcem -12846
▁wnu -12847
▁cerami -12848
▁fasa -12849
▁rodze -12850
ин -12851
▁1:0 -12852
▁geomet -12853
▁przestrzeń -12854
stali -12855
▁Dun -12856
▁warmi -12857
▁aktora -12858
▁Int -12859
▁bet -12860
▁mobi -12861
▁schro -12862
▁dziesięcio -12863
▁najpopular -12864
cken -12865
jnym -12866
▁wokal -12867
▁postrzega -12868
▁wyznaczony -12869
▁zmaga -12870
▁Brygada -12871
▁reper -12872
▁Katarzyna -12873
amie -12874
▁lini -12875
▁Strażnica -12876
▁ostatnią -12877
▁rozpoznaw -12878
▁pedago -12879
▁alu -12880
▁inż -12881
▁stadi -12882
▁zatopi -12883
polis -12884
▁lewic -12885
▁bokach -12886
▁strz -12887
▁pełniła -12888
▁komendant -12889
▁wystąpili -12890
▁cara -12891
▁obozów -12892
▁sportu -12893
jewo -12894
kówki -12895
▁Gold -12896
▁przylega -12897
trzeb -12898
▁inną -12899
▁francuskie -12900
▁domin -12901
▁święta -12902
gią -12903
ube -12904
▁Front -12905
▁wymar -12906
wieniem -12907
▁propozycję -12908
▁zamordowany -12909
▁Występował -12910
▁głosowania -12911
▁Pacyfi -12912
▁chłopów -12913
▁doszedł -12914
bija -12915
utej -12916
▁posłem -12917
yne -12918
ścig -12919
łożone -12920
dzących -12921
▁nerw -12922
▁wspomaga -12923
▁Najwyższy -12924
cum -12925
karpa -12926
▁Patri -12927
▁końcowej -12928
▁Włodzimierz -12929
▁wyobra -12930
▁Socjal -12931
pot -12932
Hi -12933
▁Hie -12934
▁Biały -12935
▁główna -12936
▁zawarł -12937
▁Jezioro -12938
▁połączeniu -12939
▁konstytucji -12940
▁play -12941
▁pogrzeb -12942
stąpienie -12943
top -12944
wiercie -12945
▁pozostały -12946
▁następująco -12947
▁warstwy -12948
▁kandydował -12949
tatyw -12950
sja -12951
ałej -12952
▁miastecz -12953
low -12954
kały -12955
▁oparte -12956
▁trenin -12957
▁koncertu -12958
▁zlecenie -12959
▁Dale -12960
▁waha -12961
demi -12962
▁Najstar -12963
▁podmio -12964
▁Cle -12965
▁precy -12966
rosyj -12967
▁Debiut -12968
feld -12969
▁odde -12970
▁14. -12971
▁Joan -12972
sterze -12973
▁lewym -12974
▁byłych -12975
▁ziemiach -12976
▁ptaki -12977
▁północnego -12978
gresji -12979
▁wywiadu -12980
▁Chorwacji -12981
▁przyjęcia -12982
▁Rot -12983
dzący -12984
▁śnie -12985
enos -12986
▁Niko -12987
▁przebiegu -12988
▁54 -12989
▁Studio -12990
▁zjawiska -12991
▁zabudowania -12992
phe -12993
▁McC -12994
▁założycieli -12995
▁ogóle -12996
▁Łom -12997
▁mnie -12998
▁zanotował -12999
zami -13000
▁przedmiotów -13001
▁85 -13002
▁IS -13003
▁Ignacy -13004
▁spodzie -13005
▁państwowego -13006
▁zbu -13007
▁charakteru -13008
▁Ah -13009
dysk -13010
▁rycer -13011
▁pociągów -13012
▁pojedynczej -13013
▁Nob -13014
▁bocznych -13015
▁alpej -13016
ep -13017
▁Kel -13018
▁wchodził -13019
▁prowadzonych -13020
▁głoś -13021
▁zwana -13022
▁antropo -13023
dela -13024
▁Urug -13025
▁dworca -13026
nizmu -13027
▁średnich -13028
▁wrest -13029
▁zakończono -13030
▁Cztery -13031
▁bierze -13032
niebow -13033
▁podrodzi -13034
▁Odznaczony -13035
demokraty -13036
▁Zgi -13037
gresyw -13038
▁używana -13039
▁Kasz -13040
▁spokrew -13041
tany -13042
▁znaczną -13043
▁gospodarczych -13044
–20 -13045
▁współtwo -13046
▁kilkadziesiąt -13047
/20 -13048
▁ano -13049
▁spada -13050
▁misjona -13051
▁ustanowił -13052
tina -13053
▁kontr -13054
▁Victor -13055
▁niepowo -13056
▁lokalne -13057
▁niepodległość -13058
▁Pin -13059
hausen -13060
▁zaufa -13061
ronto -13062
▁utworzył -13063
▁niewielka -13064
▁Poni -13065
łoś -13066
letnim -13067
▁obszer -13068
▁kod -13069
▁diagno -13070
▁naturalnych -13071
▁Leg -13072
ktura -13073
▁Sand -13074
▁postanawia -13075
lewski -13076
▁Obiekt -13077
▁podgatun -13078
▁niewielkim -13079
▁bil -13080
▁wszelkie -13081
▁rozpoczęciem -13082
▁kina -13083
▁Budowa -13084
▁Davida -13085
▁masie -13086
▁prokura -13087
▁kij -13088
▁ówczesny -13089
▁Tay -13090
Ho -13091
▁Syl -13092
▁obrze -13093
▁położenie -13094
▁stworzenie -13095
▁cud -13096
▁rozkazu -13097
▁Współczes -13098
▁Następnego -13099
▁konieczność -13100
▁konsum -13101
rost -13102
▁las -13103
▁(188 -13104
▁Chal -13105
▁lekkoatle -13106
▁dę -13107
zior -13108
▁chór -13109
▁obecnego -13110
▁Paulo -13111
▁Floren -13112
▁podstawą -13113
▁Dio -13114
▁chcąc -13115
▁dopły -13116
▁Filipa -13117
▁sprzedał -13118
▁tytułów -13119
sat -13120
▁128 -13121
▁towarzyszy -13122
fin -13123
▁poważnie -13124
▁wschodnich -13125
▁organizacją -13126
nota -13127
eryna -13128
erują -13129
niczki -13130
▁mundu -13131
▁kolejowych -13132
▁mjr -13133
▁seg -13134
▁wer -13135
▁Bardzo -13136
kowaniu -13137
▁syryj -13138
reżyser -13139
dis -13140
nięty -13141
▁pozyska -13142
hana -13143
ladel -13144
łowski -13145
▁Jedną -13146
▁rzeźbia -13147
wica -13148
▁zakładu -13149
▁Wierz -13150
▁persone -13151
▁pracownik -13152
ле -13153
roniki -13154
▁Wielką -13155
▁albumów -13156
▁porządku -13157
▁78 -13158
gółem -13159
▁Formule -13160
szi -13161
onami -13162
▁obcią -13163
▁niewielkich -13164
▁aktywnie -13165
wil -13166
▁Medi -13167
▁brą -13168
wojewódz -13169
▁karabinów -13170
▁wpływu -13171
▁gościnnie -13172
▁burmistrza -13173
▁etno -13174
▁Institute -13175
▁ogień -13176
▁humanistycznych -13177
etro -13178
▁order -13179
▁zbioru -13180
▁ośrodka -13181
▁reorganizacji -13182
▁wia -13183
▁kuli -13184
▁saty -13185
▁pokaza -13186
▁gospodarczej -13187
▁Klemen -13188
▁10, -13189
▁Rezerwat -13190
▁jednostką -13191
▁rozpoczęło -13192
Ge -13193
▁Mołda -13194
▁musieli -13195
ms -13196
ryczne -13197
▁biura -13198
▁przystan -13199
▁Geo -13200
▁ocal -13201
▁przetłuma -13202
▁przyłączono -13203
▁Nu -13204
▁Fio -13205
▁Pozy -13206
▁ścisł -13207
▁wysunię -13208
▁(16 -13209
▁kiele -13210
▁elementami -13211
▁równolegle -13212
▁zwró -13213
żonego -13214
▁ważną -13215
▁dalszym -13216
ukle -13217
▁Inspektoratu -13218
▁promieniowania -13219
źmi -13220
▁Der -13221
▁techniką -13222
_2 -13223
hala -13224
▁Des -13225
▁Junior -13226
nikom -13227
▁mięk -13228
▁Association -13229
▁(7 -13230
▁gleby -13231
▁społecze -13232
▁wodo -13233
▁Nauczy -13234
▁olbrzy -13235
▁generalnym -13236
entów -13237
▁kanału -13238
▁dopu -13239
▁Sakso -13240
▁komen -13241
dnienie -13242
▁ostatnia -13243
▁76 -13244
...) -13245
▁koleg -13246
▁Serbii -13247
▁plebiscy -13248
orup -13249
▁Nea -13250
▁Hart -13251
▁Papie -13252
centego -13253
▁muzyków -13254
księ -13255
▁Erne -13256
▁piast -13257
dion -13258
▁małą -13259
wicach -13260
szp -13261
zienia -13262
▁najnow -13263
▁urzędnik -13264
Sy -13265
prę -13266
▁itd -13267
szyna -13268
▁Arme -13269
niusza -13270
▁Zdobył -13271
kument -13272
▁typów -13273
-15 -13274
▁Wyko -13275
▁kompet -13276
jęcie -13277
▁białych -13278
▁sukcesu -13279
▁18. -13280
▁prawym -13281
▁Działał -13282
▁skrzydło -13283
aria -13284
kraj -13285
▁zdobyciu -13286
▁północnych -13287
▁Mah -13288
▁UW -13289
▁habilitowanego -13290
▁osiadł -13291
▁relacje -13292
▁fizyki -13293
▁lotniczy -13294
"" -13295
▁Sen -13296
▁strona -13297
▁wykonuje -13298
▁Łę -13299
▁Samolot -13300
▁kryzysu -13301
▁Fra -13302
▁drzewo -13303
▁stałym -13304
▁libe -13305
▁przypisy -13306
damie -13307
▁pracownikiem -13308
▁jo -13309
▁DVD -13310
▁Vil -13311
▁widać -13312
▁organy -13313
nowskiego -13314
▁Such -13315
▁zmarłego -13316
▁kategoriach -13317
▁Lake -13318
▁magister -13319
jn -13320
środ -13321
ondon -13322
0) -13323
▁Ochot -13324
▁cząste -13325
▁organów -13326
▁narko -13327
done -13328
mocy -13329
▁członki -13330
▁okolice -13331
▁hrabstwie -13332
▁przedsiębiorstw -13333
▁bły -13334
▁zdjęć -13335
▁Wawrzy -13336
▁Tr -13337
▁Sku -13338
▁hol -13339
▁Gö -13340
▁zbliża -13341
▁Niedługo -13342
▁Świątynia -13343
▁Dą -13344
▁May -13345
▁ucieka -13346
▁miesiącu -13347
▁Wojskowym -13348
zbi -13349
▁posłów -13350
▁zawodu -13351
habili -13352
koznaw -13353
▁Prezydium -13354
mel -13355
tara -13356
▁widzi -13357
rody -13358
▁Chemi -13359
▁karty -13360
▁różnice -13361
opera -13362
▁położonych -13363
▁śmigłow -13364
▁Wyniki -13365
▁prośbę -13366
▁tysiące -13367
bem -13368
gos -13369
▁miesiąca -13370
▁Bydgoszcz -13371
▁różnymi -13372
▁AG -13373
▁Morzu -13374
▁buddy -13375
▁bliżej -13376
▁57 -13377
▁nale -13378
▁Przyjaciół -13379
▁repor -13380
▁krótkie -13381
▁16. -13382
▁Nat -13383
▁bloku -13384
▁stać -13385
▁dziob -13386
▁wynalaz -13387
▁wreszcie -13388
▁zbiorach -13389
▁Stronnictwa -13390
erunek -13391
▁Działalność -13392
▁Barb -13393
▁pojedyncze -13394
day -13395
ńcem -13396
▁Kolejnym -13397
▁Pomnik -13398
▁zaowoc -13399
▁spowodowała -13400
▁Lang -13401
szonej -13402
▁nieod -13403
▁przyniosła -13404
▁BBC -13405
▁kompi -13406
▁dziełem -13407
▁zdecydowanie -13408
▁włók -13409
▁Począ -13410
cznikiem -13411
▁różni -13412
grodzie -13413
▁wzięło -13414
▁sprincie -13415
▁szlachty -13416
szonym -13417
▁Force -13418
▁nazwany -13419
stało -13420
▁Kami -13421
▁jakiś -13422
▁kilkudziesięciu -13423
XV -13424
▁Has -13425
▁okna -13426
▁podał -13427
▁programy -13428
▁producenta -13429
▁metalu -13430
▁zgodził -13431
▁Ire -13432
▁emisji -13433
▁drużynę -13434
▁wykształcenie -13435
chali -13436
▁Stare -13437
▁Zofia -13438
▁dachu -13439
▁Street -13440
▁oddziałami -13441
▁Amé -13442
▁fik -13443
▁Hon -13444
▁kibi -13445
▁Węgrzech -13446
rans -13447
siło -13448
kowate -13449
stawia -13450
▁Zawodni -13451
wymi -13452
▁Kapli -13453
lizm -13454
▁lesie -13455
▁88 -13456
▁rozmai -13457
rzej -13458
marańcz -13459
▁Biblioteki -13460
▁stosowanie -13461
▁Sad -13462
▁Śród -13463
▁trybu -13464
▁ciężkie -13465
▁przedmie -13466
emy -13467
fizy -13468
wita -13469
▁dło -13470
▁1886 -13471
▁gazu -13472
▁naukowym -13473
▁radzieckiej -13474
kir -13475
▁AC -13476
▁MP -13477
órka -13478
▁szyi -13479
▁rewan -13480
▁bit -13481
lotu -13482
▁Sul -13483
▁Wenecji -13484
▁Ye -13485
▁skrę -13486
▁brała -13487
tico -13488
▁Niepo -13489
▁danym -13490
arskiej -13491
▁rozpat -13492
▁lotnisko -13493
▁São -13494
▁wyszedł -13495
juszu -13496
▁Waty -13497
▁dziewięciu -13498
ae -13499
ра -13500
erów -13501
▁ataków -13502
▁sportowy -13503
▁spowodowane -13504
▁Cheł -13505
▁tragi -13506
▁Świętych -13507
Lu -13508
▁4- -13509
bury -13510
wary -13511
▁role -13512
▁budową -13513
▁najwyżej -13514
▁Olsztynie -13515
▁kapł -13516
▁bul -13517
owniki -13518
▁stanów -13519
ett -13520
▁Brak -13521
▁Dnie -13522
▁akcję -13523
▁pieczę -13524
▁ukazy -13525
▁generacji -13526
▁Mand -13527
▁Maro -13528
▁blu -13529
▁bene -13530
▁ksiądz -13531
▁wykupi -13532
andarmer -13533
▁Stanowi -13534
▁polecenie -13535
▁pośmiertnie -13536
▁Wielkopolski -13537
rzest -13538
▁koloru -13539
▁But -13540
▁Mala -13541
▁Pole -13542
▁Reda -13543
▁serw -13544
▁branży -13545
▁(9 -13546
boru -13547
wraz -13548
cial -13549
saurus -13550
▁aspek -13551
▁przejściu -13552
▁ulo -13553
remont -13554
ńskiemu -13555
▁ukształt -13556
▁wychowan -13557
▁żu -13558
▁kupi -13559
▁czwartym -13560
▁Zarząd -13561
▁studio -13562
skowy -13563
▁Aires -13564
▁festi -13565
▁poczu -13566
▁Nan -13567
▁powraca -13568
–190 -13569
miaru -13570
▁modeli -13571
▁przeglą -13572
▁zdefini -13573
▁zdolność -13574
▁nazwiskiem -13575
▁gubernatora -13576
▁Arth -13577
kseli -13578
▁Sytua -13579
▁określił -13580
wiązy -13581
▁ogranicza -13582
sząc -13583
▁dzierża -13584
kos -13585
▁Dari -13586
▁narodu -13587
▁Barbara -13588
▁składał -13589
▁cechą -13590
▁Politechnice -13591
nóża -13592
▁148 -13593
▁Miro -13594
▁wyraż -13595
▁Igrzysk -13596
▁spadoch -13597
▁powstańców -13598
▁Bost -13599
▁Mechani -13600
▁opart -13601
▁złoto -13602
▁pojęcie -13603
▁poświęcone -13604
niany -13605
▁fundacji -13606
▁oddziałem -13607
kró -13608
▁1884 -13609
▁Korpus -13610
▁wagonów -13611
▁Bronisław -13612
▁królestwa -13613
▁ow -13614
▁kas -13615
▁Patriar -13616
styka -13617
▁półwy -13618
▁będąca -13619
▁interwencji -13620
aux -13621
gara -13622
podal -13623
▁afry -13624
▁Wood -13625
▁sędzia -13626
▁planety -13627
▁szczątki -13628
▁płuc -13629
▁biblioteki -13630
▁muzyką -13631
▁nazwał -13632
GP -13633
▁(, -13634
dnię -13635
penha -13636
▁Buenos -13637
▁fałszy -13638
▁kult -13639
▁wysoką -13640
▁występujących -13641
▁Dż -13642
idal -13643
lich -13644
▁nasa -13645
▁murów -13646
▁Ogółem -13647
▁Ostatnie -13648
dzką -13649
▁Pot -13650
vice -13651
▁Wietna -13652
▁powietrze -13653
▁topo -13654
▁Augusty -13655
▁morskiej -13656
RC -13657
▁pełne -13658
▁klubach -13659
▁Militari -13660
▁fotograf -13661
▁wersjach -13662
%), -13663
▁faktu -13664
▁wiodą -13665
▁Pacyfiku -13666
▁odpadł -13667
▁Święto -13668
Naj -13669
sal -13670
rała -13671
▁Marszał -13672
▁badaczy -13673
▁istniały -13674
▁rodzinnej -13675
▁Rę -13676
likat -13677
▁Akademię -13678
▁medycznych -13679
kop -13680
Star -13681
sług -13682
▁uznano -13683
dziego -13684
▁Ery -13685
▁objęła -13686
chorążych -13687
▁Anato -13688
▁kierowca -13689
bienie -13690
▁wagi -13691
▁Klim -13692
▁siłę -13693
▁nagrania -13694
gine -13695
▁cieszy -13696
▁Pomiędzy -13697
▁Miejskiego -13698
▁Największe -13699
BP -13700
▁południowego -13701
▁średniowieczu -13702
sławie -13703
▁Biblioteka -13704
▁poszczególne -13705
▁Nadz -13706
▁godność -13707
▁Syber -13708
ologicznego -13709
▁Zachodnich -13710
▁dziedzictwa -13711
nito -13712
▁wyląd -13713
▁Łukasz -13714
▁Zarówno -13715
▁publicznie -13716
▁zniszczone -13717
▁wyrzu -13718
▁rozwojem -13719
▁Młody -13720
▁występowanie -13721
▁indywidualnym -13722
ла -13723
▁Główną -13724
▁przenosi -13725
▁Mos -13726
party -13727
▁Mike -13728
▁Moskwa -13729
▁konsul -13730
▁oparta -13731
▁prototy -13732
▁zaangażował -13733
▁pewnych -13734
▁religijne -13735
▁znajdująca -13736
▁138 -13737
▁Harry -13738
▁górach -13739
▁zabudowy -13740
Sch -13741
bourne -13742
▁znisz -13743
▁Law -13744
▁sprę -13745
▁Agari -13746
▁Każda -13747
▁Awards -13748
▁zainicj -13749
▁wyścigach -13750
ulu -13751
▁Ducha -13752
▁Żydzi -13753
▁hiszpański -13754
▁smu -13755
nistów -13756
▁Wacła -13757
▁metry -13758
▁założono -13759
▁Pró -13760
▁Pogo -13761
▁okład -13762
lop -13763
▁odbudowy -13764
▁gospodarcze -13765
▁użytkowników -13766
▁podobnych -13767
▁wymiarach -13768
▁Fis -13769
rekcji -13770
▁wpływa -13771
tainment -13772
▁Francja -13773
▁ograniczenia -13774
jka -13775
/198 -13776
▁książąt -13777
denbur -13778
▁Biblii -13779
▁oficjalnych -13780
▁Wewnętrznych -13781
▁obywatelstwo -13782
sio -13783
sznie -13784
▁dużego -13785
▁plutonu -13786
▁wyświę -13787
▁renesans -13788
naw -13789
▁PL -13790
▁1887 -13791
▁lewo -13792
▁wygło -13793
▁gmachu -13794
▁przyjęto -13795
▁koncie -13796
▁państwowe -13797
▁spółdziel -13798
▁Drze -13799
▁godzinach -13800
hra -13801
zerunek -13802
▁zaczęło -13803
▁zawodnika -13804
▁popularności -13805
▁przekazu -13806
arem -13807
comy -13808
▁księdza -13809
▁otwarte -13810
▁obowiązy -13811
▁kardynała -13812
Ry -13813
umy -13814
▁SL -13815
▁taks -13816
▁wysa -13817
▁biorąc -13818
▁różnic -13819
▁Komendy -13820
ario -13821
▁sile -13822
▁kanał -13823
▁bliźnia -13824
▁ówczesnych -13825
HP -13826
▁Kraju -13827
▁zuży -13828
▁kancle -13829
▁Niezależ -13830
▁umieszczona -13831
▁het -13832
▁organizowane -13833
cky -13834
▁fede -13835
▁sprzeciw -13836
▁Muzycznej -13837
▁chodzi -13838
▁traktu -13839
▁rezyden -13840
-190 -13841
▁walka -13842
▁doznał -13843
▁Sej -13844
▁Konfe -13845
▁gruntow -13846
▁modernizacji -13847
▁Teren -13848
▁wręcz -13849
▁dachem -13850
▁dziecię -13851
żegna -13852
▁rolni -13853
▁Friedrich -13854
▁rodzicami -13855
▁Ker -13856
▁2010, -13857
▁londy -13858
▁Informa -13859
▁strzele -13860
▁liści -13861
▁katolicy -13862
▁przyniósł -13863
▁inwestycji -13864
logy -13865
▁Frances -13866
▁sprzyja -13867
▁dowództwa -13868
▁rekonstru -13869
cana -13870
▁tamtym -13871
▁nominowany -13872
▁3- -13873
lono -13874
▁apo -13875
▁wież -13876
▁Pojawi -13877
▁będących -13878
▁Bis -13879
▁dekla -13880
▁Hitlera -13881
▁przedstawienia -13882
▁53 -13883
▁Witold -13884
▁kompania -13885
▁< -13886
rzów -13887
urch -13888
▁okien -13889
▁stałych -13890
ESCO -13891
▁Cesarstwa -13892
▁rywalizację -13893
arch -13894
▁pociągi -13895
▁Komor -13896
▁trafia -13897
▁inwazji -13898
▁jednostkę -13899
▁fotografii -13900
▁wysoki -13901
rij -13902
cier -13903
▁5000 -13904
▁wiąza -13905
▁jakiej -13906
▁niedaw -13907
▁ukraiński -13908
▁Odes -13909
▁mone -13910
▁Matematy -13911
▁czynników -13912
▁krakowskim -13913
▁12, -13914
▁kolejowy -13915
▁państwie -13916
▁dystry -13917
▁rozpoczęcia -13918
▁zwycięstwie -13919
▁mened -13920
▁okazuje -13921
wani -13922
▁Stacja -13923
▁Konstru -13924
▁dostępny -13925
centy -13926
▁Show -13927
▁alba -13928
spu -13929
undi -13930
▁Sami -13931
see -13932
▁dobrym -13933
▁wybrzeży -13934
▁Berlin -13935
▁kilkoma -13936
▁rozpowszechni -13937
szając -13938
▁różnego -13939
źć -13940
ind -13941
▁końców -13942
▁średnia -13943
▁mieszkało -13944
▁wojennego -13945
soft -13946
cząco -13947
▁cylin -13948
▁autonomi -13949
▁Szczególnie -13950
żczy -13951
manem -13952
▁opracowania -13953
▁tło -13954
▁Tarno -13955
▁konwen -13956
▁niektórzy -13957
▁spadku -13958
olu -13959
▁Opa -13960
▁pana -13961
▁pery -13962
lowa -13963
▁(14 -13964
▁renowa -13965
▁prezenta -13966
▁pochodził -13967
▁zmoderniz -13968
▁Centralnej -13969
pur -13970
▁ryt -13971
▁Pocz -13972
▁zapisy -13973
tanie -13974
▁Wehr -13975
▁manu -13976
tór -13977
▁fabryce -13978
▁przepływa -13979
▁7: -13980
▁Profes -13981
▁odbiera -13982
▁zjawisko -13983
tywy -13984
▁Urzę -13985
▁Reprez -13986
▁przech -13987
▁zostają -13988
cto -13989
▁Jaski -13990
▁głowi -13991
▁Kopernika -13992
▁obowiązków -13993
▁66 -13994
▁Biuro -13995
▁lokatą -13996
▁miejscowego -13997
cyklo -13998
▁jezior -13999
▁Virtuti -14000
▁stanowić -14001
▁zastąpiony -14002
▁wydat -14003
▁Kontro -14004
▁cien -14005
▁ustęp -14006
▁środkowego -14007
EN -14008
▁Haw -14009
▁fortepi -14010
utsch -14011
▁tworzył -14012
▁większym -14013
▁Beł -14014
stolat -14015
▁Konkursu -14016
▁kontraktu -14017
▁drapież -14018
▁niemożli -14019
mun -14020
▁lęg -14021
rowej -14022
▁hrabi -14023
▁polityka -14024
▁mez -14025
ktuarium -14026
▁międzynarodowym -14027
gowych -14028
▁zwiększenie -14029
▁wad -14030
▁uciekł -14031
▁Andrew -14032
▁obiegu -14033
▁porówny -14034
▁praktyki -14035
▁prywatne -14036
▁zakończyły -14037
gow -14038
▁trafiła -14039
▁uznania -14040
▁Testamentu -14041
ersyj -14042
▁katastrofy -14043
▁RFN -14044
▁nieja -14045
▁akcja -14046
▁ogród -14047
▁siłą -14048
▁Budowla -14049
nian -14050
▁wyty -14051
▁Williams -14052
▁Jednostka -14053
▁klasycznym -14054
▁Tokio -14055
regular -14056
▁wojenne -14057
▁Naczelnego -14058
▁Białego -14059
▁bara -14060
▁szar -14061
▁formą -14062
▁Katowice -14063
▁prędkością -14064
óra -14065
▁Kö -14066
▁wid -14067
▁spon -14068
▁harmo -14069
▁strat -14070
▁Gua -14071
▁Az -14072
▁2:1 -14073
▁bał -14074
▁współczyn -14075
dową -14076
▁kin -14077
▁Jastrz -14078
▁Robotniczej -14079
ierów -14080
▁Dziedzictwa -14081
▁woda -14082
dali -14083
▁dialo -14084
▁Człowie -14085
▁politycznym -14086
▁otrzymało -14087
▁zakończyło -14088
▁wykształcenia -14089
ль -14090
▁zapewnić -14091
cim -14092
▁Skarbu -14093
▁wybrzeżu -14094
zwy -14095
▁odzyskaniu -14096
▁Suk -14097
dukcji -14098
▁zdobycie -14099
▁wystarcza -14100
▁Wniebow -14101
▁72 -14102
▁Cez -14103
▁Firma -14104
▁dramacie -14105
▁kierunek -14106
▁znacznej -14107
▁uzyskaniu -14108
▁arch -14109
▁linią -14110
▁tylnej -14111
▁wykonaniu -14112
Bu -14113
▁Śląskiej -14114
▁rozstrzyg -14115
▁zaburzenia -14116
▁Pad -14117
▁Agen -14118
▁Zagłę -14119
▁hebra -14120
▁UNESCO -14121
głego -14122
▁pasy -14123
▁Puszczy -14124
▁brązowe -14125
▁populary -14126
▁kontrowers -14127
▁Was -14128
▁polityce -14129
▁utworzonej -14130
rodnie -14131
▁Sikor -14132
▁dostaw -14133
▁Częstochowie -14134
▁17. -14135
nięte -14136
▁ochronę -14137
chowskiej -14138
▁symbol -14139
▁opiekę -14140
▁przeciwników -14141
wcy -14142
▁orto -14143
▁wznosi -14144
▁zja -14145
▁płet -14146
▁wyemit -14147
▁starego -14148
▁Wydawnictwo -14149
▁płó -14150
▁osobę -14151
▁Janeiro -14152
▁jakiego -14153
▁symet -14154
▁pri -14155
▁Mongo -14156
▁grecko -14157
▁Studium -14158
▁potencj -14159
▁konserwatyw -14160
▁9, -14161
gowy -14162
▁jeź -14163
chemi -14164
▁Żona -14165
▁2009, -14166
▁Chełm -14167
▁Hong -14168
łowego -14169
▁ruchem -14170
▁lotniczego -14171
▁Mały -14172
▁żeglu -14173
▁ukazało -14174
▁CHNO -14175
▁sięgają -14176
▁niejedno -14177
had -14178
czerwo -14179
▁monety -14180
▁charytatyw -14181
▁wczesnych -14182
▁Stara -14183
czi -14184
▁Isa -14185
▁monasteru -14186
mego -14187
▁Bło -14188
▁Juan -14189
ET -14190
▁Ped -14191
▁Orkie -14192
dało -14193
lski -14194
▁korea -14195
▁litery -14196
laty -14197
hamma -14198
▁twórca -14199
▁Michaela -14200
nikę -14201
ologię -14202
▁tenisi -14203
▁Budapeszcie -14204
▁południowych -14205
tyfik -14206
conego -14207
▁mld -14208
▁opór -14209
dentem -14210
▁DNA -14211
▁konkursach -14212
▁publicysta -14213
fikacje -14214
system -14215
▁Bizan -14216
▁Estonii -14217
▁Janem -14218
óż -14219
bij -14220
▁wchodziły -14221
▁podporucznika -14222
▁górę -14223
▁trening -14224
ffen -14225
▁ważnych -14226
▁dziesiąt -14227
▁ośrodków -14228
Hist -14229
▁spła -14230
▁Czerw -14231
▁wpływów -14232
▁zjeździe -14233
▁Pomocy -14234
▁pojedynek -14235
▁Ford -14236
▁zaple -14237
▁jedenast -14238
▁konstrukcja -14239
dzu -14240
▁Sycy -14241
▁mała -14242
▁Świadków -14243
województwo -14244
eja -14245
▁Słup -14246
▁Kosza -14247
knął -14248
▁Hun -14249
▁powtarza -14250
▁ścis -14251
andyna -14252
▁fanów -14253
▁minimal -14254
▁gospodarstw -14255
szania -14256
▁procent -14257
▁białosto -14258
▁katolików -14259
▁małym -14260
▁dokumentach -14261
▁odniesieniu -14262
▁Marię -14263
▁dwiema -14264
wsko -14265
▁Start -14266
▁Władze -14267
▁Rub -14268
▁ulicą -14269
▁kawale -14270
▁Solidar -14271
▁przepisów -14272
▁pog -14273
▁rezerwat -14274
▁Group -14275
▁niewielkiej -14276
▁papier -14277
▁opuścić -14278
▁pokój -14279
▁spłon -14280
▁znaczy -14281
▁stadion -14282
bione -14283
▁teoria -14284
▁techniczny -14285
▁dykt -14286
▁ataki -14287
▁racji -14288
▁pilotów -14289
▁wiersze -14290
▁Południowo -14291
IC -14292
▁Male -14293
węgier -14294
▁Napoleona -14295
▁dostępu -14296
▁leczeniu -14297
▁doprowadziła -14298
czymi -14299
▁1848 -14300
▁Trans -14301
▁czarny -14302
▁oszczę -14303
▁będącego -14304
bn -14305
chro -14306
otel -14307
▁wóz -14308
rował -14309
▁otworzył -14310
ologicznej -14311
▁Radę -14312
▁dram -14313
▁rela -14314
▁bieżą -14315
ondygna -14316
▁delikat -14317
gich -14318
▁groź -14319
▁biały -14320
▁zasko -14321
▁radzieckie -14322
▁zagrożenie -14323
▁Jur -14324
▁nas -14325
▁obecnych -14326
▁slalomie -14327
▁społeczną -14328
▁han -14329
ington -14330
▁Właści -14331
▁przybli -14332
▁zamieszkuje -14333
▁Franç -14334
▁wyrok -14335
▁1882 -14336
▁rozmów -14337
▁parlamencie -14338
▁przeprowadzenia -14339
▁Swój -14340
▁BM -14341
▁rozpa -14342
▁Racing -14343
▁uszkodzenia -14344
▁suł -14345
rzysty -14346
▁Przyby -14347
▁miaste -14348
▁monum -14349
▁London -14350
▁skrzyp -14351
▁grupach -14352
▁zabiera -14353
▁KPZR -14354
▁Romana -14355
▁finansów -14356
atorzy -14357
▁Wehrmach -14358
▁odzwiercie -14359
▁funkcjonowania -14360
▁Up -14361
▁staw -14362
lator -14363
▁Inte -14364
▁zamiar -14365
▁Urodziła -14366
▁naukowców -14367
mand -14368
▁Zajmował -14369
▁tygodniu -14370
▁Cana -14371
▁wicemistrzem -14372
▁muzyk -14373
▁obydwu -14374
▁base -14375
▁górze -14376
▁lar -14377
nr -14378
jer -14379
▁Herb -14380
▁dzieje -14381
▁modele -14382
▁użyciem -14383
▁ryby -14384
▁2008, -14385
▁Oslo -14386
niejszego -14387
▁Bus -14388
▁wsią -14389
chowski -14390
czonymi -14391
▁kwan -14392
▁obfi -14393
▁Reich -14394
▁lokatę -14395
▁znaków -14396
▁duchownych -14397
▁dwudziestu -14398
▁organizował -14399
▁Walii -14400
▁lidera -14401
▁mistrzowski -14402
▁twórcy -14403
▁należąca -14404
▁Wej -14405
▁1867 -14406
▁nieba -14407
▁hrabstwa -14408
▁osiągając -14409
▁kierownictwo -14410
▁Myśli -14411
▁personal -14412
▁mężczyzna -14413
"". -14414
tażu -14415
morfi -14416
▁wiosen -14417
ua -14418
anowie -14419
▁Artur -14420
▁biegów -14421
▁utworzeniu -14422
Kra -14423
czków -14424
ventu -14425
▁poty -14426
▁wykonu -14427
▁Zdrowia -14428
luje -14429
godne -14430
▁Litwie -14431
▁pozostali -14432
chodząc -14433
▁kaplicę -14434
▁rzemieśl -14435
▁Śląsk -14436
nna -14437
mino -14438
ktach -14439
bon -14440
▁przybra -14441
▁rola -14442
▁brązu -14443
▁przeważa -14444
tonem -14445
▁1881 -14446
▁oddał -14447
▁pokryte -14448
▁stosowana -14449
nizm -14450
▁spły -14451
▁ogniem -14452
▁sprzęt -14453
▁Wrestling -14454
▁Toronto -14455
▁jaskini -14456
▁It -14457
scha -14458
órki -14459
▁schem -14460
▁zestaw -14461
▁ceremonii -14462
▁wzniesiona -14463
▁wyku -14464
▁Włocław -14465
▁przepisy -14466
fli -14467
ologia -14468
▁grona -14469
▁piąty -14470
▁sportowe -14471
▁Fol -14472
▁Sus -14473
▁Aktu -14474
torami -14475
▁Wojewódzkiego -14476
cznia -14477
▁wino -14478
▁zbrojne -14479
mowy -14480
▁ras -14481
sztor -14482
▁Rugby -14483
▁farma -14484
▁zanieczy -14485
▁utrzymania -14486
▁namie -14487
▁wyemigr -14488
▁fo -14489
▁Pil -14490
▁zegar -14491
▁Białej -14492
gina -14493
▁Wile -14494
▁ewi -14495
▁pozostało -14496
▁istniejących -14497
▁świer -14498
▁algoryt -14499
▁doprowadzić -14500
tta -14501
▁wyższej -14502
▁określonych -14503
▁ope -14504
▁tkan -14505
▁malowi -14506
▁granicami -14507
▁konstrukcję -14508
▁prawdopodobie -14509
▁Dr -14510
ologicznym -14511
▁nominacje -14512
▁uniwersytetu -14513
▁bezskutecznie -14514
źli -14515
▁Regu -14516
▁naukową -14517
▁kryzys -14518
▁uniknąć -14519
▁wnętrzu -14520
▁producentem -14521
ther -14522
onald -14523
▁zwanej -14524
▁kolegium -14525
rera -14526
▁starych -14527
▁elektryczne -14528
▁Sama -14529
▁Wasi -14530
▁rasy -14531
▁Kawalerskim -14532
▁uprawnienia -14533
▁Joe -14534
▁Zadebiutował -14535
ida -14536
▁Eska -14537
▁Odry -14538
▁Podo -14539
▁Ferra -14540
▁wybrał -14541
▁fer -14542
▁Doug -14543
▁Gwardii -14544
▁ekonomii -14545
▁debiutancki -14546
▁ppł -14547
wiado -14548
▁miedzi -14549
▁Janusza -14550
▁licznymi -14551
▁klasycy -14552
▁turniejów -14553
borze -14554
zowane -14555
▁prowadzona -14556
dos -14557
mili -14558
wiony -14559
▁specjalny -14560
▁Kwa -14561
▁gdyby -14562
▁sanitar -14563
▁obiektem -14564
▁osadzony -14565
▁scenariusz -14566
▁ero -14567
▁uzd -14568
▁fizj -14569
▁Holly -14570
▁Kongresu -14571
ress -14572
▁Day -14573
eta -14574
▁Montre -14575
▁klimatu -14576
▁Radziwił -14577
▁potwierdza -14578
atę -14579
łużony -14580
połu -14581
▁Stąd -14582
▁rytu -14583
▁rozdziel -14584
▁coś -14585
▁węgiel -14586
trwał -14587
▁kadencję -14588
▁większego -14589
▁Scot -14590
iana -14591
▁dwoje -14592
▁półfinału -14593
dina -14594
▁Moż -14595
▁powoły -14596
▁godności -14597
▁parze -14598
▁skokach -14599
▁otoczeniu -14600
▁oficjalnym -14601
▁Niepodległości -14602
end -14603
▁kolory -14604
bek -14605
nese -14606
▁docze -14607
▁mosza -14608
nos -14609
▁starał -14610
▁plemienia -14611
▁ukończono -14612
▁zniszczona -14613
dykt -14614
letów -14615
▁Radom -14616
▁sformu -14617
omor -14618
▁Boj -14619
▁Ern -14620
▁ulu -14621
▁kraje -14622
▁świade -14623
▁wprowadzony -14624
uf -14625
arab -14626
unkiem -14627
▁brutal -14628
▁wzmac -14629
▁służyć -14630
niejszej -14631
▁utworem -14632
świ -14633
▁koza -14634
▁Stand -14635
▁wzniesienia -14636
tin -14637
edle -14638
▁Bona -14639
▁Izraelu -14640
▁kosztów -14641
▁Grzegorza -14642
▁imp -14643
▁klawi -14644
▁kierowcy -14645
▁Efek -14646
▁Grzy -14647
▁Marie -14648
szac -14649
▁nazist -14650
▁władców -14651
▁Yu -14652
gers -14653
vent -14654
▁emis -14655
▁Oprac -14656
▁Chrzci -14657
red -14658
▁wykazały -14659
▁Typ -14660
wieni -14661
▁hek -14662
▁regula -14663
▁legendy -14664
▁Jerozolimy -14665
▁Gr -14666
lory -14667
▁Ole -14668
▁odro -14669
▁przesu -14670
▁zachowała -14671
▁Gospodarki -14672
▁duchownego -14673
chaniz -14674
urn -14675
▁singla -14676
zienie -14677
▁błęki -14678
▁ojczy -14679
▁liderem -14680
pr -14681
▁ziar -14682
▁Złoty -14683
rema -14684
▁obrot -14685
▁współpracu -14686
▁Bos -14687
▁wymie -14688
▁dorosł -14689
▁błogosła -14690
▁rozmia -14691
▁rys -14692
▁pato -14693
▁kolejowe -14694
▁naczelnego -14695
▁Ukraińskiej -14696
▁wari -14697
▁2008. -14698
▁turystyczny -14699
▁gospodarczego -14700
▁Nas -14701
▁szos -14702
▁chorwa -14703
▁koszty -14704
▁wyniósł -14705
▁Sude -14706
▁imperium -14707
▁odejściu -14708
▁Kę -14709
▁bp -14710
onna -14711
▁warian -14712
▁dolnoślą -14713
▁szerokie -14714
▁marszałka -14715
PN -14716
▁Mus -14717
▁Mły -14718
▁ołtarza -14719
nent -14720
▁pewnego -14721
▁177 -14722
łowych -14723
▁włoskich -14724
▁drużynowych -14725
san -14726
rodni -14727
▁usły -14728
▁Kryty -14729
▁Sec -14730
▁Sub -14731
▁nakry -14732
▁rzymskiego -14733
eme -14734
linę -14735
▁Fundu -14736
▁znacząco -14737
▁utrzymywał -14738
▁wewnętrznej -14739
▁Harcer -14740
▁reko -14741
nięciu -14742
▁2012. -14743
▁nieobec -14744
▁okazały -14745
▁podniesi -14746
rowana -14747
▁wykorzystaniem -14748
▁uczestniczyła -14749
▁NAS -14750
▁dzwo -14751
▁kolorze -14752
▁stylisty -14753
▁przewodniczył -14754
▁Bak -14755
▁1860 -14756
▁Adolf -14757
▁nadaw -14758
▁ekonomicznych -14759
▁angielskiej -14760
▁Sien -14761
▁Zawo -14762
▁biur -14763
rowski -14764
uta -14765
▁Dek -14766
▁Adri -14767
▁drużynowym -14768
niać -14769
suje -14770
▁moni -14771
▁gwiazda -14772
▁ogólnej -14773
▁dowódców -14774
chą -14775
▁Służby -14776
▁Niestety -14777
Fa -14778
▁parlament -14779
▁Night -14780
▁radar -14781
▁przejść -14782
▁wyreżyser -14783
obil -14784
▁Rey -14785
▁Dolina -14786
▁Albanii -14787
▁wniosku -14788
▁komisariatu -14789
▁hiszpańskiej -14790
▁nawiązał -14791
▁Najwyższego -14792
▁Carl -14793
▁opieką -14794
▁Mieszkań -14795
Wil -14796
▁wątro -14797
▁popularne -14798
▁rozwiązań -14799
▁Hugo -14800
kano -14801
▁2006, -14802
▁wydanej -14803
mart -14804
▁2009. -14805
▁Julian -14806
▁małego -14807
▁zgłosił -14808
▁heł -14809
▁zga -14810
▁Sala -14811
▁najwybit -14812
lita -14813
▁podzielił -14814
kły -14815
▁ośmio -14816
▁wieżę -14817
▁zezna -14818
▁Egipcie -14819
▁zmierza -14820
kel -14821
cjusz -14822
▁skry -14823
▁absolu -14824
Kon -14825
▁Mk -14826
joni -14827
▁zdem -14828
▁Belgra -14829
▁trudno -14830
▁środka -14831
▁Primera -14832
KO -14833
▁Najpierw -14834
El -14835
▁Mid -14836
▁cyt -14837
▁ujścia -14838
▁zwanego -14839
▁Rynku -14840
▁trybie -14841
ziona -14842
▁Wschodzie -14843
▁Entertainment -14844
KA -14845
евич -14846
▁Sali -14847
▁statki -14848
▁niedzie -14849
mes -14850
▁mięśni -14851
▁siedmio -14852
▁Piosenka -14853
▁honorowym -14854
▁najstarszy -14855
▁Jagiellońskim -14856
▁środek -14857
▁pojęcia -14858
▁ścianach -14859
▁Matka -14860
▁akcep -14861
▁Zakopanem -14862
cjan -14863
▁1883 -14864
ED -14865
▁ścież -14866
▁nieregular -14867
▁dodatkowych -14868
▁skrom -14869
▁Narodzenia -14870
▁międzynarodowy -14871
ili -14872
▁Ful -14873
▁partię -14874
▁zawodowej -14875
▁Zwycięz -14876
▁działają -14877
▁częściach -14878
▁wyjątkowo -14879
▁rodzinnego -14880
Wa -14881
▁Rosjanie -14882
▁98 -14883
▁con -14884
▁dokumentu -14885
▁prowadzono -14886
▁Grał -14887
▁Kory -14888
▁aero -14889
letnie -14890
▁kłopo -14891
ropolii -14892
▁jedyne -14893
▁Pomorza -14894
▁biblioteka -14895
cor -14896
dża -14897
▁Dam -14898
▁złożony -14899
▁Kul -14900
▁Azer -14901
▁nadzie -14902
▁Zakładzie -14903
▁głąb -14904
▁łyż -14905
▁baterii -14906
▁wyraził -14907
ródło -14908
▁Lata -14909
rzonej -14910
▁powinno -14911
▁Unia -14912
▁PG -14913
czół -14914
stle -14915
▁Elżbiety -14916
▁tom -14917
▁Tony -14918
czyste -14919
zyjnej -14920
▁Johann -14921
▁118 -14922
kowaty -14923
▁otoczony -14924
▁kierownictwem -14925
▁Ziem -14926
▁wykorzystać -14927
▁Brook -14928
▁zamyka -14929
▁kandydata -14930
▁określone -14931
▁komendantem -14932
▁SM -14933
polskie -14934
▁kształtu -14935
rop -14936
▁zawdzię -14937
▁przeniesiona -14938
dok -14939
▁skutecznie -14940
▁Cli -14941
tkiem -14942
▁Uważa -14943
▁Young -14944
▁przywódców -14945
=" -14946
angu -14947
▁2011. -14948
▁historią -14949
▁rozegrano -14950
▁tęt -14951
▁Wschodu -14952
▁odniosła -14953
▁reprezentuje -14954
▁es -14955
▁cegły -14956
▁najszyb -14957
bolszewickiej -14958
▁Alek -14959
▁niepełno -14960
▁urzędników -14961
dował -14962
▁czasy -14963
▁Renault -14964
▁marynar -14965
▁wykorzystanie -14966
▁hab -14967
▁mór -14968
stern -14969
▁ryzyko -14970
▁karnych -14971
▁Międzynarodowy -14972
riana -14973
▁Czerwonego -14974
▁NSZ -14975
▁obecne -14976
▁lądowania -14977
una -14978
gowie -14979
▁Współpra -14980
▁Społecznej -14981
Pra -14982
orty -14983
▁Song -14984
urt -14985
▁przedmioty -14986
▁inf -14987
▁komik -14988
▁odczu -14989
▁Szczecin -14990
▁chrześcijan -14991
ansu -14992
▁Boe -14993
▁Lut -14994
▁Foot -14995
▁Uzna -14996
▁niechę -14997
poko -14998
▁Lui -14999
▁1864 -15000
▁mórg -15001
▁rzece -15002
▁Progra -15003
▁nosiła -15004
ror -15005
ronie -15006
▁South -15007
▁wersją -15008
▁Boy -15009
▁Beat -15010
bileusz -15011
nięciem -15012
▁Kościuszki -15013
▁współcześnie -15014
%). -15015
tko -15016
▁Juliusza -15017
▁twierdził -15018
cou -15019
▁prawnicze -15020
▁społeczno -15021
▁zwyczajny -15022
▁Wes -15023
▁House -15024
▁Kolonii -15025
▁Polonia -15026
▁folwark -15027
▁Zab -15028
▁neogoty -15029
▁gabinetu -15030
▁61 -15031
▁pokrywa -15032
▁portalu -15033
▁wybrana -15034
▁Arno -15035
▁ulep -15036
▁występujące -15037
komunika -15038
▁pokonali -15039
▁powstają -15040
är -15041
pton -15042
▁Lim -15043
▁pęt -15044
rzonego -15045
▁siostrą -15046
▁5- -15047
żyny -15048
▁Ora -15049
▁torf -15050
▁Tatrach -15051
▁Turysty -15052
ár -15053
▁wiru -15054
▁ambasad -15055
▁górskich -15056
▁Pancernej -15057
▁przekazany -15058
rel -15059
very -15060
▁zachodzi -15061
▁odpowiednie -15062
gura -15063
▁zalu -15064
▁powstrzyma -15065
▁wprowadzeniu -15066
czew -15067
▁Mości -15068
▁skały -15069
▁aktywność -15070
łało -15071
▁Asy -15072
▁hip -15073
▁Ster -15074
▁przekład -15075
▁Samodziel -15076
▁wzmianki -15077
▁niespodzie -15078
▁podzielona -15079
▁nieprzer -15080
▁zachodni -15081
▁wystąpienia -15082
lowe -15083
▁ATP -15084
▁1875 -15085
▁lubelskim -15086
grafie -15087
▁uległy -15088
▁temperaturze -15089
▁2007. -15090
▁udowo -15091
▁trudne -15092
▁Wspólnoty -15093
▁działający -15094
▁wypowiedzi -15095
żyło -15096
▁Chro -15097
▁czołowych -15098
atka -15099
▁cykli -15100
▁rozryw -15101
kala -15102
▁urba -15103
▁Poniat -15104
▁szansę -15105
▁tenden -15106
▁poj -15107
▁ptaka -15108
▁aktywny -15109
▁wybranych -15110
▁2:0 -15111
▁Rozkaz -15112
▁egzekucji -15113
▁Alber -15114
▁rucho -15115
▁zająć -15116
▁dzielnica -15117
▁pozbawienia -15118
[...]
