<s> 0
</s> 0
<pad> 0
<unk> 0
ie -0
▁p -1
▁w -2
▁s -3
▁z -4
na -5
ow -6
rz -7
cz -8
ch -9
ni -10
nie -11
st -12
ra -13
▁d -14
▁o -15
▁t -16
ał -17
▁m -18
▁k -19
ro -20
sz -21
▁po -22
▁i -23
▁na -24
ię -25
dz -26
go -27
▁j -28
li -29
rze -30
ny -31
ne -32
le -33
▁b -34
ar -35
ci -36
sk -37
ła -38
▁do -39
▁za -40
▁się -41
ów -42
ak -43
re -44
▁W -45
▁P -46
▁nie -47
mi -48
at -49
rzy -50
▁je -51
ka -52
an -53
▁– -54
▁u -55
em -56
▁wy -57
er -58
wi -59
że -60
wa -61
ło -62
▁prze -63
no -64
ko -65
▁a -66
owa -67
▁g -68
▁1 -69
nia -70
ce -71
ją -72
ry -73
▁ro -74
▁S -75
ku -76
czy -77
la -78
ki -79
dzi -80
dy -81
cie -82
▁st -83
or -84
▁M -85
da -86
en -87
cy -88
▁N -89
wo -90
▁ko -91
ty -92
ała -93
cj -94
po -95
ści -96
▁od -97
cze -98
▁K -99
▁by -100
▁A -101
am -102
dzie -103
▁B -104
je -105
ta -106
ru -107
▁T -108
▁C -109
▁J -110
ej -111
ym -112
▁że -113
▁( -114
tó -115
wie -116
ego -117
si -118
▁c -119
▁przy -120
by -121
lu -122
▁Z -123
▁D -124
▁jak -125
nych -126
▁to -127
▁cz -128
▁któ -129
ski -130
▁mi -131
▁Po -132
▁19 -133
szy -134
mie -135
tu -136
lo -137
▁O -138
ły -139
ną -140
ży -141
to -142
ad -143
raz -144
as -145
kie -146
sta -147
▁mo -148
te -149
skie -150
▁" -151
ca -152
▁sz -153
▁R -154
owie -155
ró -156
▁2 -157
▁pod -158
łu -159
▁f -160
ob -161
▁ch -162
owi -163
pi -164
ma -165
▁ś -166
▁dz -167
▁G -168
▁wie -169
▁jest -170
bi -171
zy -172
owy -173
nej -174
al -175
▁ni -176
▁ob -177
▁I -178
ść -179
▁roz -180
▁L -181
nego -182
nym -183
▁tak -184
on -185
gi -186
cji -187
my -188
▁ty -189
ost -190
ja -191
sze -192
ga -193
mu -194
du -195
ier -196
▁te -197
▁roku -198
▁sp -199
ało -200
▁mie -201
ach -202
wy -203
owo -204
▁co -205
▁jed -206
▁przez -207
▁r -208
ek -209
niej -210
cho -211
▁go -212
▁20 -213
ały -214
▁— -215
il -216
bie -217
▁Na -218
▁ma -219
▁pra -220
▁re -221
▁wo -222
▁Nie -223
▁H -224
▁in -225
za -226
lat -227
▁li -228
niu -229
▁pro -230
▁pa -231
jąc -232
in -233
pie -234
▁F -235
ur -236
sa -237
ez -238
sy -239
▁zna -240
do -241
▁mu -242
de -243
▁h -244
ół -245
▁ze -246
mo -247
ował -248
pa -249
▁lu -250
fi -251
et -252
▁zost -253
▁wi -254
▁który -255
nę -256
▁spo -257
sto -258
▁dzie -259
▁E -260
ona -261
▁U -262
un -263
▁e -264
pu -265
▁lat -266
skiego -267
sza -268
▁był -269
▁sam -270
ska -271
▁tym -272
bo -273
czą -274
▁czy -275
dni -276
bu -277
sty -278
ków -279
uż -280
▁ra -281
▁jego -282
ba -283
ję -284
▁le -285
owej -286
os -287
▁które -288
zna -289
stę -290
ri -291
cza -292
ąd -293
gra -294
▁ka -295
sp -296
▁naj -297
▁ale -298
). -299
el -300
▁jej -301
kła -302
▁oraz -303
.. -304
ony -305
sie -306
▁Je -307
▁200 -308
kiem -309
ierw -310
... -311
skiej -312
▁dla -313
▁kon -314
kt -315
ności -316
dział -317
su -318
gu -319
cu -320
kę -321
cia -322
▁n -323
▁dzi -324
dze -325
owe -326
wó -327
▁bo -328
▁swo -329
owych -330
▁Ch -331
ia -332
▁przed -333
lko -334
szyst -335
rę -336
rowa -337
jący -338
ście -339
▁czas -340
▁powie -341
cha -342
▁wz -343
ran -344
▁miej -345
▁wła -346
pe -347
pra -348
tem -349
▁ży -350
▁wię -351
▁tego -352
▁ci -353
▁ż -354
▁Ko -355
▁pi -356
ano -357
um -358
▁ok -359
im -360
), -361
ką -362
▁już -363
▁miejs -364
▁jako -365
szcze -366
zu -367
▁gł -368
▁wszyst -369
▁Mi -370
men -371
▁„ -372
rod -373
one -374
▁są -375
łem -376
▁pow -377
ud -378
▁da -379
▁Za -380
niem -381
rza -382
śli -383
▁został -384
stęp -385
wał -386
spo -387
▁było -388
▁sob -389
▁mnie -390
▁pierw -391
▁sta -392
▁pe -393
ut -394
wia -395
sią -396
cja -397
dzy -398
▁Wy -399
czę -400
nak -401
lę -402
▁świ -403
owego -404
▁bar -405
▁tylko -406
▁no -407
▁raz -408
ery -409
▁we -410
". -411
skich -412
bli -413
▁To -414
jące -415
▁rze -416
19 -417
▁Do -418
▁woj -419
▁kie -420
skim -421
wię -422
nika -423
▁de -424
▁bez -425
▁sie -426
io -427
się -428
▁gdy -429
gie -430
art -431
łą -432
nię -433
czas -434
dzo -435
and -436
▁sy -437
▁sk -438
ową -439
▁Pol -440
so -441
ary -442
ii -443
ze -444
ża -445
▁dru -446
cznie -447
lej -448
▁3 -449
▁ce -450
▁była -451
nik -452
▁poz -453
wią -454
cki -455
czo -456
▁ich -457
▁18 -458
sko -459
ada -460
ckie -461
▁Mo -462
cyj -463
we -464
cję -465
aty -466
rą -467
mia -468
▁bi -469
owym -470
nął -471
nu -472
tów -473
ju -474
▁bę -475
ńst -476
▁jednak -477
ować -478
▁tu -479
▁nad -480
ór -481
▁Prze -482
▁Od -483
rem -484
▁me -485
ność -486
czne -487
co -488
ji -489
▁czę -490
▁rów -491
▁sobie -492
bra -493
▁Ro -494
▁Ja -495
▁St -496
", -497
sła -498
▁ku -499
rzą -500
▁ar -501
rzu -502
ców -503
ali -504
py -505
▁gru -506
owany -507
00 -508
▁cie -509
▁cho -510
cą -511
▁Ma -512
▁Bo -513
▁199 -514
ówi -515
▁także -516
nt -517
▁ta -518
▁może -519
▁stan -520
▁latach -521
czu -522
▁Wie -523
kład -524
▁tra -525
▁ja -526
▁sto -527
śmy -528
▁op -529
▁Ale -530
dza -531
lą -532
▁By -533
▁spra -534
▁też -535
▁og -536
dzą -537
▁mog -538
owała -539
sku -540
ec -541
▁V -542
▁Sz -543
czył -544
cznych -545
▁pot -546
iędzy -547
▁Pa -548
cią -549
▁pan -550
▁Ka -551
trzy -552
dził -553
szt -554
▁jeszcze -555
▁fi -556
uk -557
▁gdzie -558
pad -559
róż -560
▁ten -561
śnie -562
▁ją -563
▁Ś -564
▁my -565
▁świat -566
war -567
he -568
▁201 -569
▁Co -570
łam -571
szą -572
gł -573
▁ost -574
▁odp -575
▁pu -576
▁bra -577
▁kiedy -578
▁znaj -579
▁An -580
two -581
owania -582
ałem -583
▁tam -584
ich -585
▁Le -586
▁tej -587
▁gra -588
ge -589
pis -590
zie -591
óź -592
stą -593
▁lo -594
▁os -595
▁cał -596
szka -597
dę -598
tor -599
▁praw -600
osta -601
se -602
▁stro -603
▁samo -604
▁X -605
nież -606
▁pol -607
▁moż -608
▁lub -609
▁si -610
▁dy -611
zi -612
▁Mar -613
wet -614
▁kró -615
▁ru -616
sł -617
ól -618
▁kil -619
ent -620
ód -621
▁du -622
▁Jak -623
▁194 -624
czego -625
dą -626
▁sze -627
nem -628
▁kra -629
nymi -630
koń -631
ral -632
ol -633
▁swoje -634
▁4 -635
▁im -636
▁wsp -637
▁al -638
ałam -639
▁być -640
ter -641
nii -642
szych -643
▁zap -644
▁również -645
▁dob -646
▁ła -647
▁wyda -648
cznej -649
kaz -650
▁mówi -651
▁bardzo -652
rzę -653
▁rę -654
cił -655
▁Li -656
ój -657
ate -658
▁ak -659
nek -660
kona -661
ste -662
▁Pod -663
▁naz -664
nic -665
for -666
lem -667
leż -668
▁mia -669
▁dro -670
szym -671
kow -672
▁nim -673
▁rodzi -674
▁Cz -675
▁pre -676
stra -677
óźniej -678
ób -679
▁powo -680
▁zdo -681
jem -682
dł -683
▁kom -684
▁Ż -685
▁działa -686
▁słu -687
▁miał -688
▁będzie -689
prowa -690
▁5 -691
mier -692
kach -693
▁Wi -694
ono -695
ród -696
▁war -697
dnie -698
stu -699
prze -700
▁poli -701
▁ba -702
▁on -703
res -704
ciu -705
▁Te -706
nią -707
▁trze -708
erw -709
dziej -710
▁hi -711
▁or -712
▁która -713
▁pię -714
om -715
mina -716
dow -717
▁II -718
czny -719
łowie -720
unk -721
▁198 -722
łe -723
▁trzy -724
▁nawet -725
now -726
▁pew -727
tnie -728
▁ry -729
owanie -730
▁żeby -731
▁for -732
▁koń -733
▁Re -734
▁kolej -735
waż -736
szej -737
▁Przy -738
▁chwi -739
lan -740
owane -741
stwa -742
▁dłu -743
▁były -744
▁pie -745
▁Tak -746
kich -747
tk -748
dem -749
chodzi -750
▁bu -751
ską -752
liśmy -753
cje -754
▁War -755
ers -756
słu -757
▁zro -758
nęła -759
oru -760
di -761
▁wa -762
uro -763
▁między -764
▁pół -765
▁gło -766
wier -767
praw -768
stan -769
▁In -770
oł -771
▁ser -772
fa -773
▁197 -774
wać -775
den -776
gani -777
▁zm -778
▁6 -779
ciw -780
▁później -781
es -782
szcz -783
ata -784
chu -785
ti -786
jących -787
▁Ni -788
▁mar -789
▁nich -790
▁zie -791
▁każ -792
▁mat -793
▁Ra -794
twa -795
▁stra -796
▁jedno -797
▁kar -798
kry -799
stąpi -800
od -801
▁mę -802
tych -803
ck -804
▁Ar -805
▁cię -806
nił -807
cej -808
śl -809
ok -810
cę -811
▁musi -812
kim -813
emu -814
▁stanowi -815
▁szy -816
tni -817
▁We -818
wę -819
ato -820
▁Sta -821
▁wieku -822
nów -823
cznego -824
▁niego -825
▁szko -826
▁- -827
tek -828
strze -829
▁sty -830
ński -831
rów -832
▁miejsce -833
▁więc -834
▁Wo -835
▁oko -836
▁zam -837
▁powi -838
▁została -839
▁rozpo -840
leg -841
▁sł -842
▁następ -843
▁17 -844
ara -845
szedł -846
▁niż -847
▁wiel -848
▁zd -849
lar -850
▁dwa -851
cer -852
▁zło -853
▁mło -854
ber -855
▁mieszka -856
▁okre -857
▁zwy -858
szego -859
▁193 -860
dłu -861
kami -862
tar -863
▁oj -864
szę -865
logi -866
▁głów -867
▁niej -868
▁Ł -869
dzenia -870
wu -871
us -872
ha -873
▁tych -874
▁kla -875
rząd -876
miast -877
ron -878
czyć -879
wała -880
▁par -881
▁mam -882
▁którym -883
▁7 -884
stawi -885
▁począ -886
▁coś -887
is -888
peł -889
der -890
▁włas -891
wą -892
▁róż -893
▁odpowie -894
▁zosta -895
▁zwią -896
▁znajdu -897
dów -898
wiet -899
ńskiego -900
ul -901
ng -902
▁15 -903
▁zach -904
owana -905
▁Fran -906
tka -907
▁czasie -908
ner -909
pre -910
chy -911
gę -912
▁których -913
▁au -914
▁Warsza -915
▁kobie -916
▁prowa -917
▁zdoby -918
przy -919
gdy -920
▁której -921
▁Czy -922
▁peł -923
▁siebie -924
▁wszystko -925
▁two -926
cznym -927
pły -928
▁jakie -929
▁Da -930
▁wal -931
▁su -932
żył -933
▁8 -934
ścia -935
▁podczas -936
▁śmier -937
▁la -938
gro -939
działa -940
cię -941
strz -942
▁przeciw -943
▁ge -944
ckiego -945
czej -946
▁Al -947
▁aby -948
stępu -949
nicy -950
▁ani -951
szo -952
▁ostat -953
ników -954
ścią -955
atu -956
▁takie -957
scy -958
▁oczy -959
dnia -960
▁domu -961
▁zmie -962
owarzy -963
▁można -964
▁więk -965
chi -966
▁teraz -967
▁[ -968
▁bie -969
tego -970
▁chci -971
▁zawo -972
▁16 -973
▁uży -974
▁ksią -975
nku -976
▁196 -977
dzić -978
stem -979
▁mó -980
▁cze -981
▁zaw -982
tra -983
▁Bi -984
▁nic -985
ado -986
ństwa -987
jął -988
▁klu -989
pro -990
▁kilka -991
▁Mu -992
▁którego -993
▁195 -994
▁star -995
ale -996
man -997
wem -998
oba -999
łon -1000
▁Lu -1001
▁spos -1002
▁zda -1003
czną -1004
stwo -1005
wór -1006
▁miejsc -1007
wali -1008
wój -1009
fe -1010
pod -1011
▁ws -1012
sem -1013
▁192 -1014
▁Pra -1015
czenia -1016
cach -1017
ren -1018
ing -1019
ster -1020
▁człowie -1021
▁potem -1022
▁(" -1023
ort -1024
dno -1025
▁nas -1026
0. -1027
▁No -1028
▁jedy -1029
▁pani -1030
tku -1031
▁fil -1032
▁prac -1033
▁pla -1034
▁9 -1035
wan -1036
cją -1037
bud -1038
bym -1039
nach -1040
trzym -1041
▁współ -1042
▁pom -1043
mal -1044
rześ -1045
▁Gdy -1046
nić -1047
nad -1048
szu -1049
▁Ty -1050
▁miała -1051
▁ofi -1052
▁(19 -1053
pli -1054
▁Pro -1055
ląd -1056
▁dzieci -1057
żą -1058
me -1059
ałe -1060
▁poja -1061
be -1062
▁Kie -1063
▁zw -1064
dzieć -1065
stor -1066
▁tro -1067
▁czym -1068
▁ludzi -1069
tedy -1070
▁kto -1071
▁an -1072
▁pat -1073
nio -1074
żej -1075
▁cią -1076
▁pomo -1077
▁zrobi -1078
sce -1079
▁ję -1080
laz -1081
ździe -1082
▁of -1083
czenie -1084
rafi -1085
rach -1086
▁sko -1087
▁bud -1088
czna -1089
amię -1090
hi -1091
▁drugie -1092
cjal -1093
więk -1094
tę -1095
▁żad -1096
mery -1097
▁części -1098
śmie -1099
▁gro -1100
▁pierwszy -1101
ńskiej -1102
pada -1103
▁szcze -1104
jm -1105
dź -1106
▁środ -1107
▁lecz -1108
▁tę -1109
▁pró -1110
ształ -1111
zji -1112
sił -1113
▁12 -1114
▁Kra -1115
wer -1116
▁uwa -1117
gry -1118
–19 -1119
onu -1120
usz -1121
▁czu -1122
róci -1123
▁wrześ -1124
nąć -1125
▁rzeczy -1126
niec -1127
▁Ob -1128
tora -1129
czyła -1130
ckiej -1131
twie -1132
▁niez -1133
▁Naj -1134
tury -1135
kro -1136
▁wyso -1137
wczy -1138
chni -1139
łości -1140
kiego -1141
trz -1142
▁fa -1143
kiej -1144
siad -1145
▁Jo -1146
▁wzg -1147
▁tru -1148
▁sez -1149
kł -1150
ruk -1151
świ -1152
▁polity -1153
łoż -1154
▁należ -1155
”. -1156
łę -1157
▁Ba -1158
▁organi -1159
18 -1160
▁którzy -1161
zo -1162
owali -1163
▁stud -1164
gen -1165
▁Był -1166
śród -1167
rzył -1168
▁. -1169
▁wojny -1170
szcza -1171
▁razem -1172
▁chło -1173
▁wyko -1174
▁zało -1175
sów -1176
▁moje -1177
cych -1178
▁dnia -1179
▁funk -1180
▁ist -1181
▁powiedział -1182
▁twa -1183
mii -1184
▁10 -1185
▁powst -1186
vi -1187
czął -1188
noc -1189
▁ona -1190
▁nią -1191
▁spe -1192
▁miasta -1193
óż -1194
▁daw -1195
▁księ -1196
▁ek -1197
▁Pi -1198
▁stos -1199
onie -1200
śniej -1201
owano -1202
▁sier -1203
▁życia -1204
▁poko -1205
▁nau -1206
▁pły -1207
lep -1208
orów -1209
▁aż -1210
rew -1211
▁niemie -1212
kra -1213
▁produ -1214
▁tem -1215
▁se -1216
▁14 -1217
dli -1218
▁mógł -1219
owę -1220
bę -1221
▁cy -1222
zd -1223
ami -1224
▁jeden -1225
▁Jest -1226
czes -1227
łów -1228
▁innych -1229
aną -1230
▁świe -1231
▁zamie -1232
ve -1233
▁stycz -1234
▁męż -1235
gle -1236
▁Kon -1237
tera -1238
▁podob -1239
dar -1240
kar -1241
eri -1242
▁wyg -1243
▁wiele -1244
wóch -1245
ryty -1246
▁Euro -1247
▁sposób -1248
▁kości -1249
▁py -1250
▁posta -1251
▁bardziej -1252
bar -1253
▁De -1254
▁zespo -1255
dać -1256
▁udział -1257
▁mają -1258
th -1259
tą -1260
▁dom -1261
▁ele -1262
▁szyb -1263
gą -1264
tyw -1265
tał -1266
mach -1267
▁przyja -1268
ciąg -1269
▁Kiedy -1270
▁tere -1271
▁Au -1272
sław -1273
dług -1274
▁zaś -1275
pnia -1276
▁at -1277
▁jeśli -1278
▁dwóch -1279
zm -1280
cka -1281
▁albo -1282
▁języ -1283
chodzą -1284
▁tele -1285
sti -1286
▁połu -1287
pat -1288
▁osob -1289
▁Uni -1290
▁czasu -1291
▁Sa -1292
▁Me -1293
▁wraz -1294
roni -1295
biera -1296
▁sw -1297
▁wszystkich -1298
żu -1299
▁wol -1300
▁nigdy -1301
▁człon -1302
▁czerw -1303
arł -1304
jącego -1305
▁zawsze -1306
▁krzy -1307
▁13 -1308
200 -1309
▁Jego -1310
▁właśnie -1311
▁kam -1312
stów -1313
byt -1314
prez -1315
nosi -1316
cież -1317
piero -1318
▁więcej -1319
dal -1320
tal -1321
▁dobrze -1322
▁książ -1323
che -1324
▁lip -1325
▁jaki -1326
▁zakoń -1327
ks -1328
gar -1329
▁spotka -1330
chę -1331
daw -1332
▁Pu -1333
zacji -1334
rek -1335
▁obec -1336
rócił -1337
ździer -1338
len -1339
▁ł -1340
tym -1341
cem -1342
▁Ge -1343
gól -1344
dat -1345
▁muzy -1346
wania -1347
▁uli -1348
wódz -1349
II -1350
▁jakby -1351
rzenia -1352
▁uro -1353
▁arty -1354
▁usta -1355
cześniej -1356
▁wtedy -1357
tak -1358
▁Pe -1359
▁paździer -1360
▁sku -1361
star -1362
gna -1363
kowi -1364
tr -1365
▁poś -1366
▁wło -1367
żenie -1368
▁pła -1369
▁robi -1370
▁obie -1371
▁właści -1372
sły -1373
▁drz -1374
▁choć -1375
▁ga -1376
▁listo -1377
tach -1378
wal -1379
▁Hi -1380
▁umie -1381
owanych -1382
▁sil -1383
▁którą -1384
dmi -1385
jewódz -1386
▁potrze -1387
tel -1388
rom -1389
▁nam -1390
") -1391
▁Be -1392
▁życie -1393
▁Polski -1394
szła -1395
dziła -1396
▁So -1397
▁podsta -1398
▁wszystkie -1399
▁Jed -1400
nienia -1401
bro -1402
dzę -1403
wił -1404
ckich -1405
▁histor -1406
śle -1407
▁Woj -1408
ięki -1409
pisa -1410
niku -1411
chał -1412
▁Polsce -1413
nością -1414
strzost -1415
▁września -1416
▁pomy -1417
jrz -1418
tej -1419
wersy -1420
meryka -1421
▁opu -1422
▁tytu -1423
czony -1424
ńców -1425
▁wzglę -1426
▁the -1427
siada -1428
▁czego -1429
▁odby -1430
▁uzna -1431
▁zaczę -1432
”, -1433
▁Bar -1434
▁kwiet -1435
arów -1436
▁chwili -1437
redni -1438
▁Pierw -1439
▁Mie -1440
▁Ju -1441
syj -1442
wersyte -1443
czeniu -1444
cami -1445
▁związ -1446
min -1447
▁He -1448
▁sprze -1449
▁godzi -1450
kłada -1451
pew -1452
▁pracy -1453
jąca -1454
szczy -1455
▁wra -1456
▁znajduje -1457
▁kilku -1458
▁Wil -1459
▁każdy -1460
tro -1461
▁sztu -1462
▁długo -1463
▁mał -1464
aj -1465
pera -1466
przypis -1467
ciel -1468
▁pozy -1469
dzenie -1470
▁Or -1471
▁przypad -1472
▁tłu -1473
▁następnie -1474
▁czar -1475
▁zgo -1476
▁ozna -1477
▁spraw -1478
per -1479
▁okrę -1480
ard -1481
▁auto -1482
▁poprze -1483
mienia -1484
▁wielu -1485
ówczas -1486
spół -1487
ią -1488
jącą -1489
▁Sam -1490
onal -1491
ler -1492
śla -1493
▁dow -1494
▁samym -1495
szło -1496
żenia -1497
któ -1498
▁początku -1499
ir -1500
▁łą -1501
▁drugi -1502
▁drzwi -1503
pom -1504
czyna -1505
▁Wiel -1506
lni -1507
ot -1508
▁ponad -1509
▁v -1510
wały -1511
▁publi -1512
ciec -1513
ment -1514
▁świata -1515
▁swoją -1516
▁iż -1517
▁gó -1518
ckim -1519
nim -1520
nd -1521
mian -1522
▁powsta -1523
▁społe -1524
▁maja -1525
czki -1526
kre -1527
▁słowa -1528
▁Roz -1529
▁otrzym -1530
▁bli -1531
dniej -1532
▁wsi -1533
nera -1534
lek -1535
▁por -1536
▁mężczy -1537
▁powodu -1538
▁część -1539
jącym -1540
▁so -1541
▁Ru -1542
▁11 -1543
ho -1544
lił -1545
cego -1546
▁reprez -1547
▁sek -1548
▁uzy -1549
eś -1550
mis -1551
▁byli -1552
taj -1553
nistra -1554
▁okaz -1555
got -1556
▁kier -1557
▁bada -1558
szyscy -1559
▁śmierci -1560
ięk -1561
▁Dzie -1562
▁ot -1563
▁możli -1564
▁pier -1565
▁będą -1566
rii -1567
owiada -1568
stąpił -1569
uje -1570
▁ud -1571
jmu -1572
▁jednym -1573
▁dwie -1574
wości -1575
▁stycznia -1576
grani -1577
▁zu -1578
tami -1579
▁La -1580
ura -1581
jącej -1582
▁często -1583
leży -1584
▁Ha -1585
▁czerwca -1586
▁żoł -1587
ńskim -1588
▁ki -1589
ńskich -1590
pę -1591
▁sły -1592
▁mniej -1593
ósł -1594
▁pas -1595
▁lata -1596
rok -1597
▁sło -1598
▁sobą -1599
▁Niem -1600
rót -1601
grał -1602
▁wcześniej -1603
ly -1604
stytu -1605
▁uśmie -1606
▁osób -1607
▁Se -1608
nios -1609
ton -1610
▁Jan -1611
▁sierpnia -1612
bur -1613
wanie -1614
lii -1615
▁miejscowo -1616
., -1617
▁strony -1618
▁Może -1619
tki -1620
▁Ze -1621
latego -1622
ństwo -1623
▁fina -1624
▁Ne -1625
▁znalaz -1626
▁Sy -1627
▁wojewódz -1628
▁myśli -1629
trze -1630
▁około -1631
▁chce -1632
nikiem -1633
adomo -1634
▁licz -1635
cześnie -1636
▁wojsk -1637
chem -1638
▁Ros -1639
yba -1640
▁północ -1641
nami -1642
oła -1643
▁położ -1644
▁utwo -1645
▁duż -1646
bą -1647
▁lipca -1648
▁cięż -1649
▁edy -1650
▁chara -1651
▁Cho -1652
▁gospo -1653
ląda -1654
▁lek -1655
▁końcu -1656
stro -1657
rowi -1658
wany -1659
wach -1660
pol -1661
20 -1662
nieważ -1663
▁kul -1664
podob -1665
▁grudnia -1666
ns -1667
obec -1668
▁swoich -1669
▁And -1670
▁zde -1671
▁zwie -1672
▁skład -1673
▁stał -1674
wszy -1675
aka -1676
kaza -1677
liz -1678
▁Wa -1679
▁ucze -1680
▁cór -1681
▁pozost -1682
erwo -1683
▁miejscu -1684
▁191 -1685
raź -1686
wiście -1687
▁zostały -1688
let -1689
aru -1690
trzyma -1691
wane -1692
lach -1693
▁kieru -1694
▁Bu -1695
▁wykona -1696
lew -1697
▁października -1698
▁swoim -1699
▁obo -1700
świad -1701
▁budy -1702
▁jestem -1703
▁Ta -1704
▁dwu -1705
▁pozosta -1706
śni -1707
rabi -1708
▁szczę -1709
▁chłop -1710
▁ho -1711
owski -1712
▁XV -1713
▁Wła -1714
▁Ży -1715
▁tr -1716
kol -1717
nki -1718
raż -1719
▁towarzy -1720
mów -1721
▁kraju -1722
▁gmi -1723
▁pamię -1724
▁marca -1725
▁wę -1726
aku -1727
▁produk -1728
kle -1729
ciem -1730
gów -1731
▁wą -1732
▁swojej -1733
▁My -1734
▁pił -1735
lega -1736
▁skrzy -1737
niósł -1738
czaj -1739
lik -1740
▁zre -1741
▁cały -1742
szech -1743
▁klasy -1744
▁druży -1745
▁zwycię -1746
▁Fi -1747
wało -1748
forma -1749
▁wspo -1750
lim -1751
▁kwietnia -1752
ten -1753
▁wówczas -1754
rami -1755
▁zawie -1756
▁rodza -1757
kowie -1758
▁stanie -1759
ien -1760
▁wiem -1761
▁dziewczy -1762
kazu -1763
▁okoli -1764
▁żołnie -1765
▁listopada -1766
▁Krzy -1767
▁pozna -1768
▁zoba -1769
wat -1770
▁rzu -1771
▁wspól -1772
grafi -1773
▁ź -1774
▁Lo -1775
▁koniec -1776
tua -1777
▁osią -1778
▁dziś -1779
▁ziemi -1780
▁drugiej -1781
▁Tu -1782
niach -1783
▁dni -1784
piej -1785
ktor -1786
▁inte -1787
▁Warszawie -1788
▁Ber -1789
prac -1790
▁jedynie -1791
ium -1792
▁part -1793
dał -1794
▁Przez -1795
stanowi -1796
rzem -1797
▁ameryka -1798
▁głę -1799
żyć -1800
▁wyb -1801
▁Uniwersyte -1802
▁Si -1803
▁proce -1804
▁wszystkim -1805
giel -1806
▁zaję -1807
-1 -1808
▁wpły -1809
ade -1810
cym -1811
▁Y -1812
▁pyta -1813
▁Ku -1814
bior -1815
▁posiada -1816
wen -1817
▁niewie -1818
rzenie -1819
▁król -1820
▁mogą -1821
▁Dla -1822
czka -1823
▁dalej -1824
chać -1825
▁2007 -1826
owały -1827
▁zapy -1828
prawdę -1829
gnie -1830
menta -1831
kal -1832
ss -1833
niki -1834
▁(1 -1835
▁zau -1836
ver -1837
owią -1838
▁proje -1839
wodni -1840
ord -1841
▁występ -1842
▁fran -1843
▁l -1844
▁wykorzy -1845
czonych -1846
wych -1847
▁występu -1848
ke -1849
szcie -1850
▁dło -1851
▁obraz -1852
▁szybko -1853
gan -1854
nar -1855
▁wśród -1856
▁chciał -1857
tery -1858
▁ucie -1859
dopodob -1860
▁km -1861
▁sa -1862
▁Ste -1863
▁ha -1864
▁wers -1865
rzo -1866
kty -1867
czności -1868
▁nowo -1869
dach -1870
▁ponow -1871
krę -1872
▁obro -1873
qu -1874
▁Su -1875
▁istnie -1876
żli -1877
▁Go -1878
gh -1879
▁przedstawi -1880
▁progra -1881
atoli -1882
▁okresie -1883
dne -1884
▁pięk -1885
cko -1886
les -1887
▁wybra -1888
▁gdyby -1889
ńskie -1890
▁Dy -1891
enta -1892
▁Świ -1893
▁dopiero -1894
▁Spo -1895
żo -1896
▁strze -1897
gło -1898
kości -1899
ństw -1900
▁2006 -1901
▁światowej -1902
▁2008 -1903
▁św -1904
cen -1905
▁Jeśli -1906
▁lutego -1907
▁met -1908
▁Pan -1909
▁moc -1910
▁sła -1911
ser -1912
▁osie -1913
▁temu -1914
▁fir -1915
ńska -1916
▁Dzi -1917
▁nauk -1918
rzyć -1919
▁XI -1920
▁świę -1921
bardziej -1922
▁ści -1923
▁myśl -1924
▁kry -1925
owaniu -1926
▁Bra -1927
mię -1928
▁kro -1929
kał -1930
br -1931
▁Rze -1932
osen -1933
wiąz -1934
▁rozpoczę -1935
▁najlep -1936
wiek -1937
▁mistrzost -1938
jedno -1939
▁oś -1940
▁związa -1941
▁suk -1942
stał -1943
▁prawie -1944
▁Kró -1945
▁komu -1946
kać -1947
piera -1948
▁wprowa -1949
-19 -1950
ant -1951
czone -1952
▁Du -1953
niesi -1954
▁taki -1955
koła -1956
▁celu -1957
▁trochę -1958
▁sytua -1959
nętrz -1960
▁jednost -1961
czym -1962
▁charakt -1963
▁Ho -1964
▁zabi -1965
▁terenie -1966
▁swojego -1967
sięcy -1968
▁prawo -1969
▁Kar -1970
lony -1971
par -1972
cić -1973
niał -1974
▁Rob -1975
kolwiek -1976
tom -1977
▁swój -1978
▁nazy -1979
▁służ -1980
dministra -1981
▁25 -1982
dak -1983
▁30 -1984
▁zamk -1985
▁prob -1986
▁inne -1987
zio -1988
▁poza -1989
torski -1990
▁zostało -1991
▁najwięk -1992
▁Jednak -1993
▁dzięki -1994
▁działal -1995
ąc -1996
maga -1997
▁mogła -1998
▁zacho -1999
▁wyja -2000
lin -2001
ang -2002
▁ludzie -2003
▁wybu -2004
▁mój -2005
▁kole -2006
▁Mat -2007
▁większo -2008
▁wska -2009
▁chwilę -2010
▁kad -2011
pełnie -2012
▁mieszkańców -2013
owymi -2014
▁rozu -2015
zj -2016
▁Fe -2017
▁system -2018
amy -2019
▁rzecz -2020
▁głową -2021
▁poje -2022
▁trzeba -2023
▁tran -2024
tomiast -2025
ezpie -2026
fika -2027
▁edytorski -2028
▁natomiast -2029
▁znale -2030
▁kraj -2031
▁lud -2032
pej -2033
ld -2034
▁ciem -2035
▁syn -2036
▁doty -2037
wskiego -2038
▁Kości -2039
▁południ -2040
0, -2041
mar -2042
gła -2043
▁pierwszej -2044
tkowo -2045
▁ple -2046
koj -2047
▁zas -2048
wyż -2049
▁zapew -2050
▁tyle -2051
▁rodziny -2052
ff -2053
▁jednego -2054
▁190 -2055
▁dowo -2056
▁Ost -2057
cenia -2058
szał -2059
kształ -2060
rum -2061
it -2062
▁Dob -2063
▁Narod -2064
▁zdobył -2065
mawia -2066
▁Zna -2067
cła -2068
łość -2069
kowa -2070
▁sce -2071
▁Hen -2072
▁obu -2073
lom -2074
▁wszyscy -2075
▁powin -2076
story -2077
▁aut -2078
▁przeprowa -2079
▁XX -2080
land -2081
▁francu -2082
▁wieś -2083
▁Ry -2084
▁albu -2085
▁Sie -2086
▁sezonie -2087
▁mor -2088
▁Sp -2089
giem -2090
rych -2091
▁ponownie -2092
▁Joh -2093
tow -2094
pozy -2095
▁decy -2096
aków -2097
żyła -2098
▁Gra -2099
▁rzekł -2100
▁siedzi -2101
kom -2102
are -2103
szył -2104
▁należy -2105
▁otrzymał -2106
tur -2107
aki -2108
▁kr -2109
wiąza -2110
▁pal -2111
▁zapro -2112
▁parafi -2113
chro -2114
mio -2115
▁wido -2116
▁stara -2117
nictwa -2118
▁podej -2119
▁zaczął -2120
form -2121
▁dzień -2122
▁2009 -2123
kół -2124
wnętrz -2125
▁zbyt -2126
▁Że -2127
▁puł -2128
▁ul -2129
▁sza -2130
▁Par -2131
▁samolo -2132
▁2005 -2133
▁waż -2134
▁Wło -2135
▁tre -2136
pła -2137
▁ciebie -2138
▁połą -2139
ciąż -2140
▁grupy -2141
jęcia -2142
▁Ga -2143
▁ktoś -2144
struk -2145
▁pis -2146
nowu -2147
rytyj -2148
▁grani -2149
▁miejsca -2150
wor -2151
▁fo -2152
szko -2153
▁dowód -2154
wając -2155
▁obej -2156
▁mas -2157
gii -2158
▁The -2159
wić -2160
▁III -2161
lenia -2162
▁zni -2163
owskiego -2164
▁kur -2165
▁Cze -2166
rzyła -2167
zyden -2168
▁plan -2169
▁głos -2170
▁pierwszym -2171
▁obok -2172
ciela -2173
▁takich -2174
▁drze -2175
▁Następ -2176
▁zespołu -2177
źni -2178
sława -2179
ciła -2180
ałych -2181
▁historii -2182
▁krót -2183
▁głównie -2184
▁Wszyst -2185
▁Podczas -2186
▁świecie -2187
reszcie -2188
▁ut -2189
▁powierz -2190
stwie -2191
▁zaraz -2192
▁wzro -2193
czni -2194
ktu -2195
rzym -2196
pita -2197
▁ukoń -2198
pomina -2199
pisał -2200
lia -2201
net -2202
▁gospodar -2203
▁przecież -2204
ologi -2205
▁trzech -2206
lina -2207
tna -2208
▁ode -2209
▁odw -2210
▁powiedziała -2211
▁kierow -2212
tała -2213
▁wyzna -2214
serw -2215
zw -2216
▁ponieważ -2217
▁administra -2218
cieli -2219
▁bro -2220
▁eksp -2221
żd -2222
▁cent -2223
▁Lud -2224
▁jedną -2225
▁zada -2226
▁tur -2227
▁razy -2228
▁poch -2229
▁dlatego -2230
▁pomiędzy -2231
▁informa -2232
zmu -2233
▁nimi -2234
▁ojciec -2235
▁przygot -2236
▁gdyż -2237
▁be -2238
▁stronę -2239
szczę -2240
▁najbardziej -2241
narod -2242
▁Dz -2243
▁otwar -2244
dował -2245
ria -2246
▁ne -2247
czono -2248
ryta -2249
▁osiąg -2250
żeli -2251
▁śmie -2252
torem -2253
▁stwo -2254
▁naprawdę -2255
▁niepo -2256
▁powro -2257
▁coraz -2258
▁pisa -2259
▁końca -2260
▁rozm -2261
▁Sto -2262
▁siost -2263
▁klub -2264
▁pokoju -2265
▁przyzna -2266
czych -2267
▁tutaj -2268
▁stało -2269
▁pięć -2270
dniu -2271
▁Pio -2272
▁samocho -2273
▁powiedzieć -2274
cyjny -2275
ans -2276
biut -2277
nka -2278
miał -2279
por -2280
▁jakiś -2281
▁Stani -2282
▁mili -2283
ciaż -2284
▁wypo -2285
▁odda -2286
▁pana -2287
▁zab -2288
▁ręce -2289
stru -2290
▁ojca -2291
▁Według -2292
▁wscho -2293
powie -2294
▁prób -2295
skał -2296
▁sym -2297
▁Już -2298
▁chodzi -2299
▁niektó -2300
▁mieć -2301
▁poczu -2302
▁formu -2303
▁jednej -2304
▁rozgry -2305
▁szczegól -2306
rój -2307
▁Jó -2308
▁chyba -2309
raca -2310
▁trafi -2311
▁powa -2312
dziel -2313
▁innymi -2314
▁sen -2315
wość -2316
▁litera -2317
▁pry -2318
cał -2319
III -2320
woli -2321
▁jas -2322
sia -2323
▁dodat -2324
▁inter -2325
▁2004 -2326
▁one -2327
tural -2328
niła -2329
▁wypad -2330
▁uczest -2331
▁stop -2332
▁kan -2333
dzia -2334
▁rosyj -2335
.) -2336
▁tygo -2337
▁Przed -2338
rzeć -2339
▁człowieka -2340
mysł -2341
▁uda -2342
▁per -2343
▁stat -2344
▁sukce -2345
dzieli -2346
▁rzą -2347
row -2348
szpa -2349
▁US -2350
▁prostu -2351
▁Powie -2352
działem -2353
▁El -2354
▁gór -2355
▁Ci -2356
▁ostatni -2357
ger -2358
"). -2359
▁Pie -2360
▁szero -2361
zja -2362
miona -2363
▁miasto -2364
ont -2365
▁twarz -2366
kali -2367
▁tytuł -2368
▁pierwsze -2369
▁dwo -2370
▁elekt -2371
▁nieu -2372
▁kształ -2373
szel -2374
▁wielo -2375
▁wiadomo -2376
fek -2377
▁um -2378
▁temat -2379
wski -2380
▁Ten -2381
▁mil -2382
▁21 -2383
▁mogę -2384
▁przyby -2385
▁oto -2386
lone -2387
chód -2388
▁głowę -2389
▁ło -2390
▁rok -2391
kla -2392
▁gry -2393
▁wier -2394
▁czyli -2395
czek -2396
cjach -2397
▁potrafi -2398
atun -2399
▁popu -2400
▁bisku -2401
▁człowiek -2402
zumie -2403
szenia -2404
ple -2405
wana -2406
▁Rz -2407
atecznie -2408
del -2409
krót -2410
owanym -2411
▁samego -2412
▁jaką -2413
▁wywo -2414
▁spy -2415
pia -2416
2, -2417
▁sama -2418
▁nadzie -2419
lub -2420
▁obowią -2421
▁Józe -2422
nisty -2423
ram -2424
waj -2425
wym -2426
dziesią -2427
▁fak -2428
▁szu -2429
▁doku -2430
▁nr -2431
czona -2432
niesie -2433
cyjnych -2434
▁specjal -2435
▁1945 -2436
▁przykład -2437
▁24 -2438
ńca -2439
▁zespół -2440
▁prawa -2441
▁ludz -2442
dia -2443
krai -2444
▁zako -2445
▁Zak -2446
▁względu -2447
stos -2448
▁stwier -2449
łał -2450
▁pog -2451
dząc -2452
możli -2453
▁Ca -2454
tne -2455
▁Mam -2456
▁archi -2457
któw -2458
▁film -2459
cep -2460
▁opi -2461
▁zaczyna -2462
▁Pat -2463
▁psy -2464
▁obsz -2465
▁wro -2466
▁stronie -2467
▁warto -2468
rzał -2469
▁Gre -2470
rzej -2471
▁znowu -2472
nes -2473
▁and -2474
▁odpowiedzi -2475
owanego -2476
2. -2477
▁prawdzi -2478
lenie -2479
▁koncer -2480
łych -2481
wają -2482
czach -2483
▁przer -2484
▁wobec -2485
▁dział -2486
▁dość -2487
▁Jana -2488
▁przekona -2489
anta -2490
działu -2491
▁polski -2492
kwi -2493
soby -2494
ściu -2495
▁narod -2496
owiem -2497
▁wzią -2498
ódz -2499
000 -2500
▁brze -2501
▁nikt -2502
▁zupełnie -2503
cyjne -2504
nal -2505
wicz -2506
▁isto -2507
▁wyj -2508
▁uważa -2509
entu -2510
▁cztery -2511
▁kamie -2512
pię -2513
wej -2514
jo -2515
▁każd -2516
nienie -2517
kazy -2518
▁mężczyz -2519
krótce -2520
▁szkoły -2521
▁według -2522
▁telewi -2523
▁Zie -2524
▁Świę -2525
▁wej -2526
▁dr -2527
▁czte -2528
ph -2529
▁Teraz -2530
▁mieli -2531
rie -2532
▁tłuma -2533
szenie -2534
kazał -2535
▁znów -2536
▁wciąż -2537
szli -2538
▁mimo -2539
mę -2540
▁Zjedno -2541
▁całą -2542
▁odkry -2543
▁189 -2544
▁wróci -2545
dzony -2546
dzono -2547
▁am -2548
▁Wal -2549
▁swego -2550
▁syna -2551
wiła -2552
goś -2553
wiał -2554
▁Jej -2555
chow -2556
▁króla -2557
▁zain -2558
▁odci -2559
wną -2560
▁dziedzi -2561
▁przeciwko -2562
▁prof -2563
óg -2564
kcie -2565
▁oby -2566
▁nagle -2567
▁Pow -2568
▁konku -2569
▁23 -2570
stać -2571
ater -2572
onów -2573
▁Szko -2574
ścił -2575
owanej -2576
▁dzien -2577
▁roze -2578
sek -2579
▁Henry -2580
▁zim -2581
usza -2582
ati -2583
żony -2584
▁poru -2585
▁em -2586
▁Stu -2587
▁mną -2588
▁spę -2589
lacji -2590
▁zauwa -2591
▁wojnie -2592
▁razie -2593
▁różnych -2594
▁history -2595
▁gatun -2596
▁eg -2597
▁Stan -2598
▁Gru -2599
▁noc -2600
▁wszel -2601
▁nocy -2602
zyj -2603
▁rej -2604
▁rząd -2605
▁ude -2606
fie -2607
▁zdecy -2608
▁zajmu -2609
▁Ada -2610
▁kierunku -2611
▁przyję -2612
▁zwo -2613
▁Są -2614
▁mini -2615
cent -2616
▁rozpoczął -2617
▁formula -2618
▁świad -2619
ńczy -2620
▁głębo -2621
▁czerwo -2622
▁typu -2623
▁niewiel -2624
▁miały -2625
ciół -2626
▁drogi -2627
owało -2628
▁robo -2629
▁Har -2630
▁przej -2631
▁każdym -2632
▁Zost -2633
wala -2634
▁przyczy -2635
▁Tym -2636
▁musiał -2637
▁rękę -2638
gli -2639
▁Musi -2640
jach -2641
▁XIX -2642
▁otwo -2643
dyna -2644
▁studi -2645
▁przewodni -2646
son -2647
▁her -2648
▁22 -2649
▁wody -2650
▁skła -2651
▁Zam -2652
raj -2653
▁głowy -2654
bry -2655
▁dal -2656
▁Karo -2657
▁Pre -2658
▁pomyśl -2659
▁wspom -2660
▁wyniku -2661
▁Gu -2662
▁dokona -2663
▁genera -2664
▁związku -2665
▁Ki -2666
▁drew -2667
bił -2668
▁awan -2669
▁tek -2670
▁całkowi -2671
▁zawiera -2672
nica -2673
dowano -2674
▁twarzy -2675
▁rozwi -2676
skiem -2677
▁Zach -2678
▁spoj -2679
ham -2680
dny -2681
rób -2682
▁dale -2683
▁poro -2684
▁pobli -2685
jrzał -2686
▁Była -2687
▁miejscowości -2688
▁Wol -2689
tny -2690
▁nazwi -2691
▁ide -2692
racji -2693
▁papie -2694
▁zale -2695
▁ter -2696
dwie -2697
▁pole -2698
chała -2699
▁Op -2700
▁czasem -2701
▁Ser -2702
kowo -2703
▁28 -2704
neral -2705
▁reprezenta -2706
pierw -2707
stawia -2708
nne -2709
▁zja -2710
▁wyje -2711
bor -2712
▁ów -2713
▁pomoc -2714
▁ukry -2715
▁wyłą -2716
▁zrobić -2717
log -2718
tać -2719
▁miało -2720
eru -2721
tru -2722
▁opera -2723
▁grze -2724
▁Związ -2725
dami -2726
▁piosen -2727
dle -2728
▁Cie -2729
va -2730
wła -2731
▁zawodni -2732
▁lotni -2733
▁Pozna -2734
▁autor -2735
▁miesią -2736
▁redak -2737
sh -2738
▁dziw -2739
bio -2740
▁linii -2741
▁zajm -2742
arówno -2743
mentu -2744
▁nada -2745
▁materi -2746
▁poda -2747
▁zmia -2748
▁wyraz -2749
▁niemal -2750
▁śpie -2751
▁najm -2752
wano -2753
▁2003 -2754
niejsze -2755
▁oku -2756
ator -2757
▁życiu -2758
▁regu -2759
▁poświę -2760
▁Ed -2761
▁Car -2762
najm -2763
knął -2764
▁are -2765
▁was -2766
▁nauczy -2767
▁pun -2768
ya -2769
lne -2770
▁podstaw -2771
▁Potem -2772
ina -2773
menty -2774
▁skoń -2775
▁Francji -2776
źć -2777
kój -2778
▁he -2779
scho -2780
▁sprawie -2781
▁masz -2782
▁Jako -2783
▁dobre -2784
obie -2785
krzy -2786
au -2787
▁oni -2788
▁prawdopodob -2789
▁Bie -2790
▁panie -2791
▁num -2792
▁Sch -2793
▁fe -2794
lor -2795
▁pozio -2796
▁Iz -2797
rab -2798
▁wybo -2799
▁punk -2800
▁staro -2801
▁szczy -2802
ell -2803
▁tzw -2804
▁ulicy -2805
▁należą -2806
▁2011 -2807
▁nowe -2808
▁pę -2809
▁konie -2810
▁kobiety -2811
▁widzi -2812
▁Aleks -2813
czyło -2814
▁regi -2815
▁warun -2816
▁Tam -2817
bia -2818
▁26 -2819
mieni -2820
▁2010 -2821
fo -2822
▁cier -2823
tąd -2824
▁ile -2825
▁postanowi -2826
▁twór -2827
▁2001 -2828
▁27 -2829
szki -2830
▁lepiej -2831
▁uśmiech -2832
▁głu -2833
▁1939 -2834
▁średni -2835
anu -2836
karz -2837
▁ramach -2838
▁czyn -2839
▁poważ -2840
cale -2841
▁ciągu -2842
▁nieco -2843
▁konty -2844
dio -2845
▁rozumie -2846
▁Ce -2847
▁udało -2848
▁Obec -2849
▁zbli -2850
jów -2851
choty -2852
▁dziesię -2853
▁prawda -2854
czkę -2855
lona -2856
tyka -2857
▁urzę -2858
nęło -2859
cio -2860
▁sprzeda -2861
▁On -2862
tura -2863
tychmiast -2864
▁pracował -2865
▁Rad -2866
▁przestrze -2867
rech -2868
▁poł -2869
▁funkcję -2870
▁takiego -2871
▁gwia -2872
▁Polskiego -2873
▁drodze -2874
▁natychmiast -2875
▁twier -2876
▁kościoła -2877
alne -2878
▁biał -2879
▁trady -2880
▁Następnie -2881
▁zad -2882
fik -2883
zuje -2884
▁jedna -2885
▁doświad -2886
jemy -2887
rat -2888
▁uz -2889
sztą -2890
▁prę -2891
▁Poli -2892
▁spad -2893
wyczaj -2894
ściej -2895
▁Th -2896
▁nadal -2897
▁cel -2898
▁spa -2899
▁2000 -2900
asa -2901
▁bezpie -2902
▁przede -2903
▁reli -2904
▁połowie -2905
▁nor -2906
zem -2907
▁wojen -2908
▁potrzeb -2909
▁członkiem -2910
niała -2911
▁brytyj -2912
najmniej -2913
szek -2914
▁Aleksand -2915
dyj -2916
▁kana -2917
▁188 -2918
▁usły -2919
cenie -2920
▁państwa -2921
łó -2922
▁jakieś -2923
wego -2924
"), -2925
▁uczu -2926
▁bla -2927
zg -2928
▁filo -2929
▁San -2930
▁Pary -2931
▁krę -2932
muje -2933
▁dź -2934
▁podzie -2935
▁bram -2936
sch -2937
▁nazwę -2938
pla -2939
listy -2940
▁maszy -2941
▁Głów -2942
▁Cent -2943
akie -2944
ciej -2945
▁jakim -2946
żem -2947
▁gu -2948
▁dem -2949
▁gi -2950
▁korzy -2951
▁postaci -2952
▁Mary -2953
▁Di -2954
▁jesteś -2955
▁będę -2956
óle -2957
▁2002 -2958
▁młody -2959
tan -2960
kowe -2961
▁Europy -2962
▁wygląd -2963
▁zajął -2964
▁pochodzi -2965
▁kat -2966
▁kolo -2967
▁dok -2968
▁pło -2969
jąć -2970
bieg -2971
▁wreszcie -2972
dna -2973
▁przypomina -2974
▁pos -2975
▁np -2976
▁dlaczego -2977
czność -2978
kowej -2979
gach -2980
▁oba -2981
▁gminy -2982
▁składa -2983
▁tor -2984
cząc -2985
rysty -2986
organi -2987
skona -2988
moc -2989
▁pocho -2990
zależ -2991
▁mieście -2992
pij -2993
oną -2994
▁Am -2995
▁żołnierzy -2996
▁min -2997
mite -2998
▁Dru -2999
▁Chi -3000
▁wynosi -3001
▁wygra -3002
pon -3003
lot -3004
▁prakty -3005
▁kryty -3006
▁prezyden -3007
▁porząd -3008
▁Lon -3009
teres -3010
▁spokoj -3011
misji -3012
bezpie -3013
▁dokład -3014
▁wice -3015
rócz -3016
▁dużo -3017
lny -3018
czeństwa -3019
▁rodzaju -3020
ału -3021
▁powiecie -3022
▁opie -3023
▁siły -3024
▁funkcj -3025
▁mówił -3026
▁wokół -3027
nęły -3028
nawi -3029
▁meczu -3030
▁mało -3031
▁innego -3032
▁chociaż -3033
noszą -3034
▁Wię -3035
▁łóż -3036
▁ciała -3037
▁Ri -3038
owiec -3039
6, -3040
▁wyd -3041
dzone -3042
▁choro -3043
owiad -3044
▁przyjaciół -3045
éj -3046
▁Trze -3047
▁pierwszego -3048
▁zbro -3049
▁zarówno -3050
▁uczy -3051
▁osoby -3052
atem -3053
▁ska -3054
stości -3055
dzili -3056
▁dowie -3057
201 -3058
▁prez -3059
▁obecnie -3060
▁Słu -3061
publi -3062
▁pracę -3063
▁stała -3064
▁pozycji -3065
alny -3066
gląd -3067
▁moja -3068
owaniem -3069
▁rzeczywi -3070
czem -3071
▁29 -3072
▁rolę -3073
▁Part -3074
▁rozwo -3075
▁przypadku -3076
▁młod -3077
▁wzię -3078
ądź -3079
▁ab -3080
▁karie -3081
▁raczej -3082
▁takim -3083
▁doprowa -3084
nicę -3085
–199 -3086
dła -3087
▁von -3088
cyjnej -3089
dzna -3090
sługi -3091
▁ścia -3092
▁Towarzy -3093
▁Aka -3094
▁rośli -3095
▁dotar -3096
▁wyob -3097
▁teat -3098
▁zasa -3099
alnie -3100
▁całej -3101
3, -3102
▁uważ -3103
nen -3104
▁1999 -3105
▁ogóle -3106
spek -3107
▁młodzie -3108
▁razu -3109
cielem -3110
▁Ślą -3111
4, -3112
rotnie -3113
▁kocha -3114
mencie -3115
▁zabra -3116
gad -3117
dro -3118
▁niech -3119
▁Gór -3120
niejszych -3121
▁potę -3122
▁stoli -3123
▁jednocześnie -3124
▁kontro -3125
▁(200 -3126
▁chciała -3127
▁Kto -3128
▁pracow -3129
▁oficjal -3130
czał -3131
wolu -3132
nin -3133
▁die -3134
▁wyt -3135
▁świą -3136
▁fra -3137
tam -3138
▁boh -3139
▁zła -3140
▁rz -3141
▁zbud -3142
ose -3143
dyn -3144
▁angiel -3145
▁państw -3146
logii -3147
wki -3148
▁smu -3149
niosła -3150
▁gar -3151
▁wielko -3152
▁bowiem -3153
niego -3154
▁1975 -3155
atali -3156
trzymy -3157
▁Oj -3158
1, -3159
▁następu -3160
zdy -3161
nnych -3162
poś -3163
nny -3164
▁podstawie -3165
▁katoli -3166
siaj -3167
▁przysz -3168
▁walki -3169
▁Gro -3170
▁stanu -3171
▁Tur -3172
▁uni -3173
ąż -3174
▁kontra -3175
tz -3176
▁ograni -3177
▁mamy -3178
cyjnego -3179
▁wyraź -3180
atów -3181
▁Niemie -3182
stej -3183
▁więzie -3184
▁Czę -3185
▁Tylko -3186
nięty -3187
▁Fa -3188
lon -3189
▁Her -3190
▁mów -3191
ciąga -3192
▁Wro -3193
stym -3194
▁stu -3195
▁ramiona -3196
▁zgi -3197
▁Cy -3198
▁zmu -3199
▁wyją -3200
▁pewno -3201
▁Jez -3202
▁tysięcy -3203
▁Instytu -3204
▁mojej -3205
▁kosz -3206
pią -3207
▁dw -3208
▁ogrom -3209
▁Hu -3210
1. -3211
▁wojska -3212
▁Niech -3213
▁miesz -3214
▁zaczęła -3215
▁186 -3216
▁tajem -3217
▁mal -3218
gier -3219
▁znalazł -3220
▁studia -3221
▁dziecko -3222
▁ban -3223
▁got -3224
nomi -3225
▁matka -3226
▁całe -3227
óz -3228
▁dobry -3229
skar -3230
▁skar -3231
ńską -3232
sach -3233
▁fun -3234
▁opowiada -3235
▁turniej -3236
▁reali -3237
▁stanowisko -3238
spoli -3239
▁poprzez -3240
▁położona -3241
▁For -3242
▁wst -3243
czyli -3244
▁zade -3245
▁stosun -3246
▁Mia -3247
▁wyposa -3248
▁Rober -3249
miar -3250
▁ką -3251
rzeń -3252
rucho -3253
▁Vi -3254
▁wyż -3255
naczej -3256
▁opowie -3257
▁spowo -3258
wienia -3259
▁kwi -3260
▁ju -3261
▁współpra -3262
▁Star -3263
lnej -3264
gląda -3265
▁nowego -3266
tion -3267
ill -3268
łaszcza -3269
▁przeby -3270
▁grup -3271
▁rado -3272
cony -3273
▁włą -3274
biega -3275
▁kościół -3276
fer -3277
▁śla -3278
jesz -3279
▁Nic -3280
▁anty -3281
stw -3282
▁Rady -3283
▁100 -3284
▁hand -3285
▁1998 -3286
▁obowiąz -3287
▁trakcie -3288
cką -3289
lum -3290
▁Mimo -3291
▁skó -3292
▁wąt -3293
▁znajdują -3294
▁wcale -3295
▁przedsię -3296
dnych -3297
▁Os -3298
▁wysokości -3299
▁ogło -3300
działy -3301
▁polskich -3302
▁poło -3303
50 -3304
▁kontak -3305
▁tar -3306
czyły -3307
żę -3308
▁nowy -3309
zów -3310
▁Franci -3311
▁lep -3312
▁aktor -3313
▁popular -3314
▁Oczy -3315
▁uwagę -3316
▁przezna -3317
▁Pół -3318
▁meto -3319
▁charaktery -3320
▁Szcze -3321
▁wiedział -3322
ote -3323
▁ana -3324
dnich -3325
▁moim -3326
▁oznacza -3327
▁para -3328
▁Dlaczego -3329
RR -3330
▁euro -3331
▁większość -3332
▁stary -3333
▁problem -3334
lnych -3335
▁187 -3336
▁klubu -3337
▁posiad -3338
wnątrz -3339
grzy -3340
▁kiedyś -3341
krotnie -3342
▁panu -3343
fry -3344
ath -3345
▁typ -3346
▁dia -3347
legł -3348
▁Puch -3349
staw -3350
szony -3351
▁sekre -3352
niami -3353
The -3354
ścić -3355
▁powstał -3356
raża -3357
▁pokona -3358
▁województwie -3359
gij -3360
▁Kor -3361
▁chcę -3362
kała -3363
szyć -3364
twem -3365
myśl -3366
tt -3367
stych -3368
▁pała -3369
mią -3370
▁wiecz -3371
▁filozo -3372
▁żydow -3373
wien -3374
▁USA -3375
nictwo -3376
▁zainteres -3377
▁kolei -3378
▁zwykle -3379
▁urzą -3380
▁rozwiąza -3381
▁Ol -3382
5, -3383
▁pokry -3384
▁szere -3385
łow -3386
▁znacznie -3387
▁Obecnie -3388
▁sch -3389
gnął -3390
skach -3391
▁śmierć -3392
▁Biał -3393
wnie -3394
dziale -3395
▁Akade -3396
▁mię -3397
▁łu -3398
▁Anto -3399
kuje -3400
▁działalność -3401
▁Sh -3402
biutował -3403
spi -3404
4. -3405
▁książę -3406
▁wystar -3407
▁międzynarod -3408
▁Zjednoczonych -3409
▁Mor -3410
▁śle -3411
lić -3412
bel -3413
ńcy -3414
▁zarzą -3415
nięte -3416
▁województwa -3417
▁odwie -3418
▁Jeszcze -3419
nien -3420
▁organiz -3421
łach -3422
naście -3423
▁(18 -3424
▁góry -3425
lnym -3426
▁trzyma -3427
▁Pet -3428
ari -3429
▁potwier -3430
ierę -3431
▁uczestni -3432
mentów -3433
zeum -3434
żna -3435
▁zmieni -3436
▁błę -3437
nięcia -3438
▁bezpoś -3439
▁całym -3440
▁samej -3441
▁Między -3442
ległości -3443
ens -3444
▁czeka -3445
▁Ło -3446
▁zostać -3447
▁Sk -3448
▁zapom -3449
▁pomocą -3450
▁Win -3451
kość -3452
sznie -3453
groma -3454
▁sytuacji -3455
▁parafii -3456
▁Hol -3457
▁zwłaszcza -3458
dii -3459
czący -3460
▁Chci -3461
▁sprawy -3462
7, -3463
chów -3464
fikacji -3465
▁tys -3466
▁Miej -3467
owców -3468
▁znaczy -3469
▁królew -3470
▁ubra -3471
▁pierwszych -3472
kowych -3473
żek -3474
▁Char -3475
organiz -3476
▁kor -3477
ley -3478
▁przyje -3479
▁album -3480
▁ad -3481
▁Lecz -3482
▁drugim -3483
robi -3484
▁konstruk -3485
▁nazwa -3486
▁swej -3487
kowy -3488
▁kre -3489
▁wyco -3490
▁organiza -3491
okra -3492
fy -3493
deł -3494
▁małże -3495
▁sre -3496
▁bły -3497
liny -3498
▁ogól -3499
▁opar -3500
▁uzyskał -3501
szyła -3502
ela -3503
▁czoł -3504
siej -3505
▁di -3506
▁Począ -3507
▁zapytał -3508
alnych -3509
sić -3510
▁Wrocła -3511
cznymi -3512
tkiem -3513
▁hu -3514
żone -3515
ić -3516
▁techni -3517
▁żona -3518
▁kola -3519
wienie -3520
▁2012 -3521
mit -3522
▁twoje -3523
▁miejscowość -3524
6. -3525
▁rez -3526
▁minut -3527
▁powoła -3528
ład -3529
3. -3530
stego -3531
▁Księ -3532
zję -3533
▁Maria -3534
▁ruchu -3535
pił -3536
▁źród -3537
▁cmenta -3538
car -3539
▁szkole -3540
▁zak -3541
▁Krakowie -3542
łeś -3543
tory -3544
▁bru -3545
ńcu -3546
▁imię -3547
▁Q -3548
▁polskiej -3549
▁przeszedł -3550
lie -3551
kowski -3552
sło -3553
▁wewnętrz -3554
▁świet -3555
▁lokal -3556
▁nagra -3557
gru -3558
ated -3559
▁spi -3560
▁31 -3561
ft -3562
▁inaczej -3563
▁mm -3564
▁koło -3565
▁Mon -3566
▁niezna -3567
▁czasów -3568
▁kobiet -3569
nowa -3570
▁Poz -3571
onych -3572
▁sześć -3573
dzię -3574
▁wrażenie -3575
szuki -3576
ństwie -3577
▁prywat -3578
▁niczym -3579
ałę -3580
▁zawar -3581
▁osobi -3582
▁Nawet -3583
▁ochro -3584
lnego -3585
▁efek -3586
▁Gi -3587
▁nag -3588
▁pochodzą -3589
arę -3590
zach -3591
ble -3592
▁mian -3593
nice -3594
liza -3595
dent -3596
dowała -3597
▁doro -3598
▁organizacji -3599
▁Tra -3600
dnim -3601
▁Piotr -3602
▁projekt -3603
▁Uniwersytetu -3604
▁Czar -3605
▁natural -3606
▁oficer -3607
gni -3608
duk -3609
rząc -3610
ille -3611
strza -3612
▁wystąpił -3613
▁chi -3614
▁fizy -3615
rześci -3616
▁sprawę -3617
▁reprezent -3618
▁mogli -3619
dale -3620
▁pomocy -3621
▁gwał -3622
▁scho -3623
▁zanim -3624
linie -3625
▁telef -3626
▁tysią -3627
▁przyj -3628
twy -3629
▁kobieta -3630
czące -3631
▁Więc -3632
ął -3633
▁dobra -3634
nale -3635
▁ener -3636
limpij -3637
▁piersi -3638
ortu -3639
▁gnie -3640
▁kontynu -3641
nter -3642
▁zaba -3643
▁et -3644
kazuje -3645
wol -3646
dzeniu -3647
▁mówić -3648
mieniu -3649
▁ilo -3650
▁try -3651
▁Bę -3652
dniego -3653
▁zmarł -3654
5. -3655
▁Praw -3656
lec -3657
▁Nor -3658
▁słucha -3659
mer -3660
▁dzwo -3661
▁Mło -3662
czer -3663
▁Kazi -3664
▁szep -3665
cyjnie -3666
▁najwyż -3667
▁sport -3668
gn -3669
▁najmniej -3670
szem -3671
▁działania -3672
▁prawdopodobnie -3673
▁metrów -3674
▁taka -3675
▁odzy -3676
▁zagro -3677
▁pozwoli -3678
▁Boże -3679
czeń -3680
gami -3681
▁armii -3682
▁kolejne -3683
▁1997 -3684
turze -3685
▁broni -3686
▁ciało -3687
dłuż -3688
▁IV -3689
▁zł -3690
com -3691
▁Dzięki -3692
▁osa -3693
▁zy -3694
▁duży -3695
▁pobliżu -3696
▁należała -3697
zan -3698
stanie -3699
–1 -3700
rzego -3701
▁chę -3702
▁doskona -3703
ama -3704
wód -3705
▁obserw -3706
rad -3707
▁drogę -3708
ciele -3709
▁Nad -3710
sami -3711
▁wam -3712
▁podło -3713
kon -3714
mag -3715
źnie -3716
stka -3717
▁krwi -3718
▁mocy -3719
▁Został -3720
▁nieprzy -3721
▁Man -3722
▁koście -3723
▁awans -3724
▁Kolej -3725
▁kolejnych -3726
▁wziął -3727
▁przynajmniej -3728
mp -3729
▁prowadzi -3730
czasem -3731
▁długi -3732
▁Uniwersytecie -3733
lak -3734
▁uwie -3735
▁Wszystko -3736
▁nowych -3737
▁wiesz -3738
▁powierzchni -3739
▁Armii -3740
miała -3741
▁ostatecznie -3742
▁znik -3743
działam -3744
▁Gdyby -3745
tarz -3746
▁myś -3747
▁wielki -3748
▁posłu -3749
▁zali -3750
▁warsza -3751
▁pia -3752
▁Ukrai -3753
▁parla -3754
▁upad -3755
▁pogo -3756
▁pełnił -3757
niz -3758
30 -3759
▁okres -3760
▁wyłącznie -3761
▁dzisiaj -3762
▁świąty -3763
▁gorą -3764
sji -3765
▁pory -3766
▁Gó -3767
▁wil -3768
nowi -3769
▁Mikoła -3770
▁Sze -3771
kor -3772
▁dostrze -3773
▁czterech -3774
-2 -3775
▁Wę -3776
▁wysp -3777
▁1944 -3778
▁Rzym -3779
doby -3780
poli -3781
▁matki -3782
▁oprac -3783
▁sił -3784
▁trakt -3785
▁profes -3786
▁osiem -3787
▁wrócił -3788
▁gości -3789
▁rzad -3790
ine -3791
ałości -3792
▁siedem -3793
lian -3794
owałem -3795
▁ć -3796
kładu -3797
▁wych -3798
▁Ang -3799
▁foto -3800
▁jezio -3801
▁krew -3802
▁bog -3803
▁tą -3804
▁budow -3805
rona -3806
cyjnym -3807
nicj -3808
▁Gda -3809
▁innym -3810
dnio -3811
tychczas -3812
rąz -3813
▁duże -3814
▁sezonu -3815
gno -3816
tnych -3817
▁symbo -3818
▁bio -3819
szczenia -3820
▁pią -3821
jąco -3822
encji -3823
imna -3824
gre -3825
wskiej -3826
wanych -3827
▁Każ -3828
▁krze -3829
▁produkcji -3830
▁Bez -3831
▁gę -3832
widu -3833
▁taką -3834
▁wersji -3835
▁seria -3836
▁nieo -3837
▁niebie -3838
▁zastęp -3839
▁odzna -3840
▁kapi -3841
▁odparł -3842
▁podróż -3843
pić -3844
▁Chri -3845
▁reprezentacji -3846
prawia -3847
bliote -3848
▁Włady -3849
▁wyciąg -3850
▁pozwala -3851
▁znaleźć -3852
nęli -3853
▁reak -3854
▁Kazimie -3855
▁ziem -3856
▁niko -3857
żał -3858
▁sztuki -3859
▁żadnych -3860
▁eko -3861
mówi -3862
▁przedstawia -3863
szto -3864
▁areszt -3865
▁wygląda -3866
▁oce -3867
siła -3868
▁wyborach -3869
▁moją -3870
▁cieka -3871
▁lekko -3872
▁pojawia -3873
▁Gdzie -3874
▁członków -3875
nety -3876
▁Tar -3877
▁Lw -3878
naj -3879
▁Sł -3880
▁prosto -3881
erytor -3882
▁Ponad -3883
▁gre -3884
nięcie -3885
pisy -3886
▁konkur -3887
▁Jam -3888
▁zrozu -3889
▁« -3890
orą -3891
▁zależ -3892
zdu -3893
▁dyrek -3894
▁ośrod -3895
bawi -3896
tacji -3897
▁rodzin -3898
▁Tro -3899
▁podobnie -3900
szty -3901
▁centrum -3902
lono -3903
▁(199 -3904
▁głowie -3905
▁dostęp -3906
▁Czas -3907
▁blisko -3908
wart -3909
▁skie -3910
trza -3911
▁ZS -3912
▁bądź -3913
▁brak -3914
▁Mini -3915
▁mocno -3916
▁powrócił -3917
lami -3918
▁Mówi -3919
klu -3920
▁krą -3921
▁zorganiz -3922
▁poe -3923
▁pracu -3924
▁chcą -3925
▁wchodzi -3926
▁Micha -3927
▁oddział -3928
die -3929
▁całkowicie -3930
▁Zy -3931
▁zi -3932
▁serca -3933
▁powstała -3934
▁wiat -3935
▁powszech -3936
▁pienią -3937
pienia -3938
▁zakre -3939
▁serce -3940
▁Związku -3941
lij -3942
▁Niemiec -3943
▁Stra -3944
▁2013 -3945
▁jaka -3946
▁kim -3947
▁zmar -3948
▁nar -3949
▁zebra -3950
▁ucz -3951
▁dniu -3952
rodę -3953
stała -3954
▁wyro -3955
Nie -3956
Po -3957
skę -3958
▁katego -3959
rzony -3960
tarza -3961
▁odpowiada -3962
▁Pierwszy -3963
▁powtó -3964
▁cywi -3965
▁ostro -3966
▁partii -3967
▁zasta -3968
▁Nigdy -3969
▁słów -3970
wiad -3971
mana -3972
▁naro -3973
▁pierwszą -3974
prost -3975
▁nagro -3976
▁służby -3977
zał -3978
dzwo -3979
▁Mag -3980
▁1989 -3981
▁run -3982
▁grupa -3983
▁pój -3984
czeki -3985
nieść -3986
chodził -3987
▁Bel -3988
▁brz -3989
▁rozgryw -3990
,5 -3991
▁Ła -3992
win -3993
▁niebezpie -3994
▁księcia -3995
jęcie -3996
puszcz -3997
▁szpita -3998
▁powstania -3999
kował -4000
▁pora -4001
waniu -4002
▁cu -4003
▁spół -4004
▁środowi -4005
▁0 -4006
▁zasad -4007
▁zapo -4008
▁zastos -4009
częściej -4010
▁pręd -4011
▁gminie -4012
▁nami -4013
▁Wielkiej -4014
▁kandy -4015
▁Jestem -4016
▁mart -4017
▁Kam -4018
cin -4019
stąpiła -4020
jen -4021
▁władzy -4022
bów -4023
▁serii -4024
▁ukończył -4025
▁rozma -4026
▁doszło -4027
dol -4028
▁1990 -4029
▁zdra -4030
jącymi -4031
▁skąd -4032
▁zatru -4033
▁pewien -4034
▁inny -4035
jaw -4036
siadł -4037
nuje -4038
▁kwe -4039
▁rzym -4040
▁zb -4041
jrzała -4042
turę -4043
▁wymaga -4044
▁niezwy -4045
▁trzeci -4046
▁Podob -4047
▁oczach -4048
▁rozpozna -4049
▁Stanisław -4050
▁Naz -4051
▁proszę -4052
dzeniem -4053
▁biskup -4054
▁Rosji -4055
równa -4056
▁Bóg -4057
▁mojego -4058
▁dziewię -4059
▁widać -4060
▁rzeki -4061
▁Ti -4062
owicz -4063
▁che -4064
▁budynku -4065
owań -4066
all -4067
ts -4068
▁Przecież -4069
tności -4070
▁kompu -4071
▁wpływ -4072
lle -4073
▁pojawi -4074
stety -4075
▁Bro -4076
▁drewnia -4077
▁Miał -4078
▁przyjem -4079
gla -4080
lip -4081
mimo -4082
▁prowi -4083
ciera -4084
▁miesięcy -4085
rzuca -4086
czami -4087
▁Jor -4088
▁sąd -4089
era -4090
żer -4091
żdża -4092
spie -4093
stki -4094
łudni -4095
▁jeste -4096
zę -4097
▁Fo -4098
▁dziel -4099
▁prote -4100
czno -4101
und -4102
zwo -4103
▁najważ -4104
owości -4105
▁Akademii -4106
brzy -4107
▁speł -4108
obi -4109
▁przesz -4110
▁wkrótce -4111
▁postać -4112
ryj -4113
▁wpad -4114
8, -4115
▁ust -4116
wale -4117
▁odez -4118
wizji -4119
▁Komite -4120
▁gdzieś -4121
dor -4122
▁ur -4123
▁struk -4124
▁finans -4125
▁wykony -4126
maty -4127
▁dra -4128
▁wyróż -4129
▁stanowią -4130
▁Oczywiście -4131
▁Bryta -4132
▁Mosk -4133
▁niewy -4134
▁2014 -4135
▁względem -4136
▁różne -4137
▁wartości -4138
ąb -4139
▁równo -4140
▁ówczes -4141
▁forma -4142
▁trzydzie -4143
▁widział -4144
▁Ostat -4145
7. -4146
rium -4147
wne -4148
▁niedo -4149
▁szlach -4150
▁koch -4151
dla -4152
▁szczęście -4153
▁zwięk -4154
▁New -4155
▁myśle -4156
▁Zo -4157
▁Rów -4158
▁szczęśli -4159
▁up -4160
▁Było -4161
kacji -4162
niejszy -4163
▁ogro -4164
rześcija -4165
tuje -4166
żyser -4167
▁prowadzą -4168
cone -4169
cina -4170
▁1996 -4171
▁książki -4172
▁Mari -4173
▁nadzieję -4174
▁zwierzę -4175
▁Warszawy -4176
▁niektórych -4177
▁póź -4178
stwem -4179
▁ol -4180
godnie -4181
▁wio -4182
▁sur -4183
▁win -4184
▁występuje -4185
ana -4186
▁szczególnie -4187
gaż -4188
▁50 -4189
▁Ludwi -4190
▁cza -4191
▁1994 -4192
▁zadebiutował -4193
▁ZSRR -4194
▁dach -4195
▁aktyw -4196
kli -4197
▁listy -4198
▁uwagi -4199
▁premie -4200
jęła -4201
▁rady -4202
rus -4203
▁mecz -4204
czeniem -4205
▁blo -4206
mem -4207
sam -4208
feren -4209
▁uzyska -4210
▁Geor -4211
dności -4212
wskim -4213
▁włosy -4214
▁parę -4215
▁Ich -4216
▁proble -4217
▁pierwo -4218
waża -4219
ałeś -4220
▁drob -4221
▁przyro -4222
ward -4223
▁Józef -4224
▁frag -4225
▁stąd -4226
óki -4227
dziło -4228
nnie -4229
▁Poza -4230
▁najpierw -4231
▁utw -4232
▁Sej -4233
▁dzieje -4234
▁polskiego -4235
dziesiąt -4236
▁jakiej -4237
ance -4238
▁1992 -4239
▁cesa -4240
brze -4241
▁Polskiej -4242
▁wieczo -4243
owaną -4244
▁oskar -4245
▁lubi -4246
▁cud -4247
▁przedsiębior -4248
▁usu -4249
▁wzrok -4250
▁pomie -4251
▁ciąg -4252
▁karierę -4253
▁komp -4254
▁powoli -4255
ńce -4256
nikami -4257
▁zawod -4258
▁Kom -4259
dzona -4260
róciła -4261
▁kultury -4262
nerw -4263
▁Wtedy -4264
▁Proszę -4265
prawy -4266
▁dotychczas -4267
▁spotk -4268
owca -4269
letni -4270
▁wią -4271
▁wraca -4272
▁objął -4273
▁Boga -4274
żeniu -4275
▁iz -4276
▁Samo -4277
▁bur -4278
dgo -4279
nków -4280
▁artysty -4281
▁Tade -4282
▁bezpośredni -4283
▁Teat -4284
▁głoś -4285
▁Europej -4286
▁danych -4287
▁powieści -4288
▁niezależ -4289
▁kwa -4290
▁Aust -4291
▁żadnego -4292
▁pł -4293
▁transp -4294
▁terytor -4295
▁Con -4296
▁Amery -4297
stry -4298
▁słowo -4299
▁pewnie -4300
▁współczes -4301
duje -4302
ros -4303
▁robić -4304
▁zakończeniu -4305
▁Zło -4306
▁bło -4307
trzymać -4308
▁przeło -4309
▁mąż -4310
▁dołą -4311
▁zamiast -4312
łopo -4313
▁większości -4314
rygi -4315
▁184 -4316
▁dwudzie -4317
▁przedmio -4318
▁1. -4319
▁Jas -4320
▁oczywiście -4321
łonek -4322
▁roli -4323
▁szef -4324
▁Wscho -4325
żona -4326
▁mogło -4327
▁rzę -4328
▁Mał -4329
dom -4330
▁skle -4331
alnej -4332
▁nazwy -4333
▁Kościoła -4334
▁teor -4335
gazy -4336
▁godziny -4337
▁ruch -4338
ako -4339
kło -4340
/200 -4341
▁wolno -4342
▁momencie -4343
▁grał -4344
kładzie -4345
▁Londy -4346
▁drugą -4347
▁znajo -4348
▁nasze -4349
alnego -4350
▁moich -4351
▁Czu -4352
▁dokładnie -4353
▁Rzeczy -4354
▁Ponadto -4355
▁drugiego -4356
▁Fer -4357
▁wez -4358
cznik -4359
▁muszę -4360
▁Andrzej -4361
▁wszedł -4362
▁tuż -4363
cyjną -4364
vo -4365
wicza -4366
ret -4367
▁takiej -4368
▁konf -4369
▁Uro -4370
▁dał -4371
alnym -4372
▁komór -4373
▁przemy -4374
niony -4375
▁wypeł -4376
▁śnie -4377
nione -4378
▁niespo -4379
▁męża -4380
dywidu -4381
▁całkiem -4382
▁zostali -4383
▁języka -4384
▁musiała -4385
▁Północ -4386
▁list -4387
▁wspa -4388
graf -4389
aks -4390
▁Eu -4391
▁Łu -4392
▁zaku -4393
▁niczego -4394
▁Mistrzost -4395
▁Hiszpa -4396
▁wizy -4397
▁Bru -4398
▁Wojsk -4399
▁Fil -4400
▁gen -4401
▁batali -4402
czyk -4403
▁1991 -4404
▁Pani -4405
▁spod -4406
▁napisa -4407
▁Fre -4408
▁sami -4409
▁żół -4410
▁właściwie -4411
▁miłość -4412
▁bom -4413
▁medy -4414
▁filmu -4415
AN -4416
▁ludności -4417
lera -4418
8. -4419
▁1995 -4420
▁preze -4421
▁wielkie -4422
▁mężczyzna -4423
▁dar -4424
▁Dlatego -4425
strzy -4426
▁początkowo -4427
mil -4428
▁general -4429
▁działalności -4430
▁wiedzieć -4431
czyn -4432
▁stacji -4433
▁trans -4434
rin -4435
▁Ke -4436
żynie -4437
▁Bardzo -4438
▁umożli -4439
wami -4440
▁wydaw -4441
dra -4442
usa -4443
▁kawał -4444
▁CH -4445
▁dzisiej -4446
▁ks -4447
▁turnieju -4448
szała -4449
▁zbi -4450
stemu -4451
tyczne -4452
▁pasa -4453
▁nazwą -4454
▁Adam -4455
▁wyści -4456
▁łatwo -4457
▁nogi -4458
▁Wz -4459
tną -4460
pień -4461
atych -4462
▁Mil -4463
▁nowej -4464
▁Później -4465
emy -4466
▁zę -4467
▁europej -4468
▁radzie -4469
▁nieszczę -4470
▁miłości -4471
▁utra -4472
tnym -4473
▁leżą -4474
kowego -4475
▁Dobrze -4476
▁sę -4477
kazać -4478
▁komi -4479
▁Europie -4480
▁obli -4481
jekt -4482
▁Świata -4483
ven -4484
cjonal -4485
mawiać -4486
zwyczaj -4487
▁Bur -4488
▁religij -4489
jcie -4490
▁pieniądze -4491
10 -4492
▁1993 -4493
▁zamy -4494
aliz -4495
▁mode -4496
▁każdego -4497
▁artyku -4498
▁postęp -4499
▁stylu -4500
utro -4501
dziemy -4502
czących -4503
▁rą -4504
▁kolejny -4505
not -4506
tnej -4507
▁pienię -4508
▁dyp -4509
▁40 -4510
dnym -4511
suje -4512
▁trój -4513
razy -4514
▁odpowiedział -4515
▁długie -4516
▁zawi -4517
▁sposob -4518
▁Jedno -4519
ces -4520
bili -4521
▁mężczyzn -4522
▁stoi -4523
dan -4524
cisk -4525
▁Kat -4526
ling -4527
lonych -4528
dziela -4529
▁zostaje -4530
▁mówiąc -4531
▁długości -4532
▁zer -4533
des -4534
hu -4535
▁ofiar -4536
chnął -4537
▁czegoś -4538
▁wydaje -4539
▁jeżeli -4540
▁kogoś -4541
▁Augu -4542
leń -4543
stii -4544
▁prowadził -4545
▁bry -4546
czar -4547
▁powinna -4548
▁przegra -4549
sen -4550
asy -4551
rabia -4552
▁dłoń -4553
▁firmy -4554
panii -4555
▁nadz -4556
▁całego -4557
▁pocz -4558
▁swych -4559
▁Kil -4560
▁pop -4561
▁zwyczaj -4562
▁zbior -4563
mił -4564
▁drużyny -4565
dziły -4566
▁zmienia -4567
▁cała -4568
entów -4569
▁klaszt -4570
▁Chyba -4571
▁zapa -4572
▁chcesz -4573
łami -4574
▁fabry -4575
▁zatem -4576
knęła -4577
▁wykorzysty -4578
chani -4579
▁Bud -4580
▁wios -4581
▁port -4582
▁rzeź -4583
▁ręką -4584
▁uroczy -4585
czącym -4586
▁miałem -4587
▁zrobił -4588
▁możliwości -4589
▁zamku -4590
▁niem -4591
▁Izra -4592
▁każdej -4593
▁Kraj -4594
▁psycho -4595
▁At -4596
sc -4597
anka -4598
▁pytanie -4599
▁inni -4600
roz -4601
▁telewizyj -4602
▁wnę -4603
▁kart -4604
▁ziemię -4605
▁Początkowo -4606
▁rozpa -4607
dera -4608
▁przeniesi -4609
▁określa -4610
▁Gran -4611
▁Wiem -4612
▁miło -4613
▁własne -4614
▁brata -4615
▁Kościół -4616
▁przypom -4617
▁Pla -4618
▁prace -4619
▁zbo -4620
▁spytał -4621
▁seku -4622
▁powinien -4623
▁arcy -4624
▁zmiany -4625
kowskiego -4626
ll -4627
▁gwałtow -4628
cjami -4629
▁czter -4630
▁zdą -4631
▁kapli -4632
dali -4633
prawi -4634
▁magi -4635
▁rozwoju -4636
▁zjawi -4637
pospoli -4638
źli -4639
▁charakterysty -4640
▁brat -4641
▁stopniu -4642
▁czemu -4643
dną -4644
niały -4645
▁cer -4646
lnie -4647
▁boj -4648
głę -4649
▁pad -4650
▁pomó -4651
▁okazji -4652
▁uzbro -4653
dzał -4654
▁pułku -4655
▁XVIII -4656
▁Kul -4657
▁daleko -4658
▁języku -4659
wange -4660
rzeniem -4661
▁Wszyscy -4662
liła -4663
▁Toma -4664
nąłem -4665
▁nową -4666
loty -4667
▁John -4668
▁domy -4669
▁zdzi -4670
▁magazy -4671
▁Mc -4672
▁ocho -4673
▁zagrani -4674
trzymał -4675
9, -4676
▁Qu -4677
owość -4678
ctwa -4679
▁Niemcy -4680
▁spodzie -4681
▁duch -4682
anna -4683
▁piłkar -4684
byś -4685
▁swą -4686
▁bohater -4687
owskiej -4688
▁budowy -4689
▁czasach -4690
▁Willi -4691
▁kos -4692
▁zaledwie -4693
▁zdr -4694
▁stru -4695
hr -4696
▁głosem -4697
▁zamiesz -4698
▁zmian -4699
żyli -4700
jnych -4701
▁widok -4702
▁prowin -4703
dowało -4704
▁byłem -4705
▁poszuki -4706
▁stały -4707
▁zresztą -4708
▁Ab -4709
anki -4710
▁swe -4711
▁Czerwo -4712
▁prezydenta -4713
snął -4714
ęp -4715
pt -4716
owałam -4717
▁uprze -4718
▁Mart -4719
▁sing -4720
▁naszych -4721
▁Kali -4722
onem -4723
▁leży -4724
▁Kur -4725
▁chwy -4726
▁liczne -4727
▁współprac -4728
▁hono -4729
tycznej -4730
▁far -4731
▁ostatnich -4732
stnie -4733
▁Niektó -4734
▁Pri -4735
▁układ -4736
▁Południ -4737
imnazj -4738
▁nied -4739
set -4740
▁skoro -4741
▁opubli -4742
▁szuka -4743
▁żony -4744
▁naszej -4745
▁program -4746
▁Dłu -4747
▁liczba -4748
▁jad -4749
feso -4750
▁córki -4751
▁Japo -4752
▁liście -4753
ons -4754
▁der -4755
▁kol -4756
ght -4757
▁postawi -4758
ił -4759
▁Kana -4760
▁stre -4761
tuł -4762
▁szta -4763
▁okresu -4764
▁modli -4765
▁Zas -4766
▁Per -4767
▁2015 -4768
▁brąz -4769
▁olimpij -4770
▁kop -4771
dzonych -4772
▁Bri -4773
nastu -4774
▁czele -4775
bert -4776
▁powrotem -4777
▁pojedyn -4778
▁nasz -4779
zda -4780
▁indywidu -4781
mą -4782
▁elektry -4783
pan -4784
rony -4785
bat -4786
szczegól -4787
skimi -4788
▁godzin -4789
▁tech -4790
▁(2 -4791
▁Wieś -4792
gó -4793
▁Zyg -4794
▁władze -4795
szeni -4796
!... -4797
▁cm -4798
▁bym -4799
▁zakończył -4800
▁pociąg -4801
nemu -4802
▁tobą -4803
▁odpar -4804
▁Dem -4805
twiera -4806
grafii -4807
▁podda -4808
▁Towarzystwa -4809
▁akcji -4810
▁ptak -4811
▁systemu -4812
▁Jeste -4813
pina -4814
▁wspomina -4815
▁Ksią -4816
▁party -4817
▁Stanisława -4818
▁polega -4819
▁cicho -4820
ręcz -4821
▁inicj -4822
▁Sko -4823
▁trudno -4824
cal -4825
▁górę -4826
zajem -4827
spa -4828
▁dostar -4829
nij -4830
▁wzdłuż -4831
▁tygodni -4832
▁ciep -4833
▁przewi -4834
▁wyraźnie -4835
rego -4836
▁istnieje -4837
wsze -4838
▁dowódz -4839
▁wrześniu -4840
▁język -4841
tycznych -4842
dri -4843
▁droga -4844
▁srebr -4845
▁mur -4846
▁kata -4847
▁znie -4848
▁Francu -4849
▁pierwsza -4850
dowały -4851
▁rano -4852
rym -4853
fii -4854
▁przyszło -4855
▁jednostki -4856
pow -4857
▁numer -4858
▁napis -4859
▁Pamię -4860
akiem -4861
lt -4862
szość -4863
▁wydał -4864
▁mistrz -4865
▁gabi -4866
▁znany -4867
▁Republi -4868
nocy -4869
▁Bry -4870
▁Pierwsze -4871
▁charakter -4872
rzeniu -4873
▁doktora -4874
rzyma -4875
owani -4876
▁próbu -4877
▁Rich -4878
▁Dopiero -4879
rzono -4880
▁185 -4881
▁pełni -4882
szczo -4883
que -4884
tnego -4885
świę -4886
noś -4887
▁1918 -4888
▁it -4889
▁profeso -4890
czoraj -4891
▁zostanie -4892
▁intere -4893
budowano -4894
▁ran -4895
▁Józefa -4896
▁Partii -4897
▁wysła -4898
▁środku -4899
▁porządku -4900
▁bieg -4901
▁punkt -4902
nęłam -4903
▁wybrany -4904
▁Jaku -4905
▁stron -4906
▁upo -4907
▁architek -4908
dłem -4909
rzyli -4910
▁okreś -4911
▁Dro -4912
▁owo -4913
▁Paryżu -4914
np -4915
▁Żydów -4916
▁000 -4917
▁Davi -4918
▁sub -4919
dnego -4920
▁styczniu -4921
ując -4922
▁Wszystkie -4923
ln -4924
▁pięciu -4925
iego -4926
▁informacji -4927
▁Pom -4928
▁odbi -4929
▁183 -4930
pen -4931
prz -4932
▁zgodnie -4933
▁lidze -4934
▁pt -4935
▁kuchni -4936
owice -4937
▁projektu -4938
nawia -4939
cono -4940
chaj -4941
▁idzie -4942
▁Króle -4943
▁sieci -4944
▁oka -4945
grze -4946
▁mistrzostw -4947
▁leka -4948
▁zobaczyć -4949
▁pojawił -4950
czką -4951
▁kadencji -4952
▁wład -4953
wałem -4954
▁mały -4955
▁Bor -4956
▁codzie -4957
▁zrozumie -4958
▁Szwe -4959
mon -4960
leb -4961
▁Ameryka -4962
▁oddziały -4963
▁spojrzał -4964
▁mogły -4965
alni -4966
▁Jeżeli -4967
zydent -4968
zny -4969
dzieścia -4970
berg -4971
▁komen -4972
▁obszar -4973
▁badania -4974
▁Mer -4975
▁nazywa -4976
▁Komisji -4977
▁Er -4978
nionych -4979
gia -4980
▁Nauk -4981
▁XVI -4982
nom -4983
▁wyjaś -4984
▁ciągle -4985
▁Warszawa -4986
zer -4987
▁kompozy -4988
▁Szy -4989
▁Brytanii -4990
alna -4991
▁wybuch -4992
▁sąsie -4993
▁har -4994
–200 -4995
part -4996
▁znaczenie -4997
rzut -4998
40 -4999
rzyło -5000
likat -5001
nta -5002
▁atak -5003
▁możliwe -5004
▁wielką -5005
▁służą -5006
piec -5007
▁dziennika -5008
▁Fry -5009
▁Okrę -5010
▁osad -5011
nięta -5012
▁Ange -5013
▁oczu -5014
▁wspar -5015
nina -5016
▁koryta -5017
cyjna -5018
▁Ot -5019
▁Mal -5020
port -5021
▁możliwość -5022
▁maju -5023
ed -5024
kuję -5025
weł -5026
▁ligi -5027
?! -5028
▁poży -5029
▁najczęściej -5030
▁odebra -5031
mos -5032
żeniem -5033
▁odbył -5034
hy -5035
kowym -5036
▁mary -5037
▁czwar -5038
▁rządu -5039
▁rewolu -5040
rzch -5041
fina -5042
▁Więk -5043
łym -5044
▁wysta -5045
▁wymie -5046
dek -5047
niejsza -5048
nis -5049
▁Polska -5050
–1998 -5051
▁najwy -5052
▁byłoby -5053
60 -5054
▁oł -5055
▁nowym -5056
wate -5057
▁dwor -5058
▁pojęcia -5059
▁instytu -5060
▁zagra -5061
mieniem -5062
▁woli -5063
żar -5064
cjali -5065
▁zadowo -5066
andar -5067
cili -5068
▁sierp -5069
▁oświad -5070
▁własnej -5071
hel -5072
▁dniach -5073
imnazjum -5074
▁rezerw -5075
▁Sło -5076
▁pola -5077
▁Jerzy -5078
▁piechoty -5079
▁roślin -5080
▁mistrzostwach -5081
▁stanął -5082
▁dać -5083
▁Zacho -5084
▁Anglii -5085
▁Powi -5086
▁Zu -5087
▁jakoś -5088
▁2. -5089
wny -5090
▁wyp -5091
▁2016 -5092
▁normal -5093
▁Inter -5094
▁pewnością -5095
▁Tego -5096
▁zao -5097
ralnej -5098
▁Krzyszto -5099
▁Kla -5100
gram -5101
▁ły -5102
ownie -5103
Na -5104
▁będziesz -5105
koło -5106
▁równie -5107
▁medal -5108
▁RP -5109
▁Wkrótce -5110
owni -5111
▁zdecyd -5112
str -5113
▁fol -5114
Ma -5115
imi -5116
▁Bogu -5117
▁możesz -5118
▁popro -5119
80 -5120
▁Che -5121
▁autobu -5122
szam -5123
▁przekształ -5124
try -5125
▁krótko -5126
▁Lin -5127
▁swobo -5128
szły -5129
▁budynek -5130
▁Muzeum -5131
▁ostatnie -5132
▁uniwersyte -5133
mienie -5134
▁dotąd -5135
▁obsza -5136
▁Nowym -5137
▁meta -5138
▁skute -5139
▁sm -5140
owskim -5141
▁nacze -5142
▁ataku -5143
larów -5144
▁karabi -5145
▁Ani -5146
▁− -5147
▁punktów -5148
grup -5149
tona -5150
▁inten -5151
▁Chry -5152
rzone -5153
▁zbiera -5154
▁wspiera -5155
▁morder -5156
▁przywi -5157
▁przeży -5158
▁asy -5159
▁minu -5160
dacji -5161
▁muzyki -5162
daje -5163
noty -5164
▁programu -5165
▁dziesięć -5166
▁czerwcu -5167
danie -5168
kan -5169
▁eta -5170
▁uspo -5171
9. -5172
▁Często -5173
łuma -5174
terze -5175
▁cóż -5176
kimi -5177
▁zakład -5178
▁dwuk -5179
▁marcu -5180
▁dotk -5181
▁* -5182
rio -5183
▁rozbi -5184
bach -5185
▁ster -5186
migra -5187
▁grudniu -5188
rzec -5189
▁napisał -5190
▁rzeczywistości -5191
▁Gar -5192
▁otwiera -5193
▁same -5194
czącego -5195
▁1940 -5196
▁Ponieważ -5197
▁1919 -5198
▁artyle -5199
▁wielkim -5200
▁iść -5201
▁niepod -5202
owia -5203
lna -5204
kien -5205
▁trzym -5206
▁rozkaz -5207
▁179 -5208
▁drogą -5209
▁spotkania -5210
▁stanowiska -5211
mentar -5212
▁wybud -5213
▁zje -5214
lepiej -5215
▁Obo -5216
▁domów -5217
nó -5218
ning -5219
▁wschód -5220
▁Ojciec -5221
tli -5222
▁1941 -5223
▁wczes -5224
▁przewo -5225
▁Jeden -5226
▁występował -5227
▁budowę -5228
▁face -5229
▁możemy -5230
▁grz -5231
▁nauki -5232
▁1943 -5233
cona -5234
szczenie -5235
kłady -5236
▁Tru -5237
▁stopnia -5238
▁pozostał -5239
▁Pier -5240
▁Robert -5241
▁żadnej -5242
▁powierzch -5243
▁kontrakt -5244
▁Is -5245
▁mand -5246
lomet -5247
alną -5248
▁częścią -5249
▁Minister -5250
▁władz -5251
▁trafił -5252
gor -5253
▁emo -5254
▁wynika -5255
▁jesteśmy -5256
▁spotyka -5257
▁zobaczy -5258
▁żą -5259
▁rodzina -5260
tości -5261
▁Mad -5262
▁południe -5263
▁west -5264
ase -5265
rez -5266
▁Cor -5267
▁Wito -5268
▁pamięci -5269
ściła -5270
▁sprowa -5271
▁najstar -5272
rak -5273
▁poto -5274
▁sprzę -5275
▁filmie -5276
▁związane -5277
tacza -5278
▁synem -5279
pał -5280
▁jakich -5281
▁Tom -5282
padzie -5283
▁Mę -5284
▁eli -5285
▁Austra -5286
stia -5287
▁sygna -5288
▁1946 -5289
syła -5290
ou -5291
owem -5292
aksym -5293
▁start -5294
▁własną -5295
▁Ach -5296
▁180 -5297
▁1942 -5298
rzucił -5299
miany -5300
cle -5301
tymi -5302
lli -5303
▁wzgó -5304
▁czer -5305
telu -5306
▁bab -5307
▁turysty -5308
cku -5309
▁handl -5310
▁powietrze -5311
dnej -5312
▁wyszedł -5313
dzać -5314
▁tempera -5315
▁bó -5316
▁znalazła -5317
▁Sza -5318
▁żar -5319
▁Wojcie -5320
▁jakąś -5321
jan -5322
▁Ak -5323
▁Ben -5324
puszcza -5325
▁daje -5326
▁dosta -5327
▁rozmowy -5328
70 -5329
▁Ona -5330
▁Nikt -5331
twór -5332
rócić -5333
▁światło -5334
▁Por -5335
▁chrześcija -5336
▁czo -5337
▁żoną -5338
rowany -5339
▁lę -5340
▁plu -5341
pier -5342
:1 -5343
▁zadzwo -5344
▁wychodzi -5345
▁składzie -5346
pospolitej -5347
czech -5348
trzymu -5349
pów -5350
▁kształt -5351
▁samą -5352
▁boku -5353
rząt -5354
▁kłopo -5355
▁Łodzi -5356
▁pali -5357
dała -5358
▁Niemczech -5359
▁Kata -5360
róży -5361
żnej -5362
▁zdu -5363
▁zwa -5364
bliż -5365
▁abso -5366
▁działań -5367
▁czymś -5368
dnią -5369
bami -5370
▁mówią -5371
dzień -5372
▁małe -5373
▁oczeki -5374
▁naszego -5375
▁północy -5376
▁Afry -5377
▁sali -5378
▁rodzaj -5379
▁roman -5380
▁zrezy -5381
▁klę -5382
onym -5383
▁stad -5384
▁spokojnie -5385
▁pil -5386
don -5387
▁wiedziała -5388
▁gatunków -5389
▁dziecka -5390
▁zato -5391
▁rąk -5392
▁lipcu -5393
▁reżyser -5394
▁obja -5395
▁podjął -5396
rator -5397
dr -5398
▁zachód -5399
kły -5400
▁ręka -5401
las -5402
▁zasko -5403
biegł -5404
▁prag -5405
▁koncert -5406
ręb -5407
▁pozwo -5408
▁jakiegoś -5409
▁Cóż -5410
atunek -5411
▁wybiera -5412
eli -5413
koju -5414
IE -5415
tycznie -5416
▁biegu -5417
▁teren -5418
▁październiku -5419
NA -5420
▁Zm -5421
wiedli -5422
szone -5423
▁badań -5424
▁światła -5425
▁zagrał -5426
▁dram -5427
▁żyje -5428
rop -5429
▁Choć -5430
▁Two -5431
▁Puł -5432
▁wygrał -5433
▁kapita -5434
▁stopni -5435
▁orygi -5436
▁182 -5437
▁pewnym -5438
▁gmina -5439
lną -5440
▁napę -5441
▁rodzinie -5442
▁kła -5443
▁delikat -5444
▁wzru -5445
▁ono -5446
▁1980 -5447
gent -5448
▁doj -5449
▁widzę -5450
▁uleg -5451
sel -5452
▁Cam -5453
wnego -5454
bię -5455
▁Dwa -5456
▁zajmował -5457
▁dwadzieścia -5458
▁brał -5459
kazała -5460
chen -5461
▁wyna -5462
▁1975–1998 -5463
▁wątpli -5464
ściem -5465
▁przesu -5466
▁granicy -5467
▁śre -5468
żni -5469
strzem -5470
▁zewnętrz -5471
▁dziad -5472
▁chro -5473
▁nastąpi -5474
▁rzeczywiście -5475
wiu -5476
▁diece -5477
łała -5478
▁Król -5479
▁Pau -5480
▁Fun -5481
▁zapła -5482
▁ow -5483
leci -5484
▁córka -5485
dzeń -5486
▁obję -5487
▁strasz -5488
▁brzegu -5489
▁obozu -5490
▁ros -5491
▁wynik -5492
▁wście -5493
▁zapewne -5494
▁Któ -5495
sion -5496
angaż -5497
▁nauczyciel -5498
▁dół -5499
▁hiszpa -5500
ore -5501
▁Bydgo -5502
▁konsek -5503
▁powy -5504
▁Międzynarod -5505
▁źle -5506
▁polu -5507
wajcar -5508
▁maszyn -5509
Ar -5510
▁członek -5511
ństwem -5512
dery -5513
▁listopadzie -5514
bin -5515
▁przeniósł -5516
▁zawołał -5517
▁pieniędzy -5518
▁Ban -5519
nosił -5520
▁amerykański -5521
▁serialu -5522
▁ukrai -5523
▁zanie -5524
▁dolarów -5525
▁potrzebu -5526
▁kapła -5527
oli -5528
▁dop -5529
▁głównym -5530
▁samochód -5531
wam -5532
▁boi -5533
czała -5534
▁powiatu -5535
▁ostrze -5536
leni -5537
▁mówię -5538
▁tabli -5539
spra -5540
▁siedzibą -5541
ation -5542
▁pomysł -5543
▁Marii -5544
▁sierpniu -5545
▁1988 -5546
▁ryzy -5547
int -5548
▁interes -5549
dnik -5550
▁nikogo -5551
▁nosi -5552
▁niewi -5553
▁Współ -5554
▁wykład -5555
▁umy -5556
▁rejonie -5557
▁Maz -5558
oni -5559
dzisz -5560
▁biur -5561
▁okrą -5562
trzu -5563
▁not -5564
▁gor -5565
▁1920 -5566
ałość -5567
▁swym -5568
mien -5569
▁celem -5570
▁zał -5571
▁Spraw -5572
▁en -5573
▁Zygmu -5574
▁żon -5575
szczone -5576
45 -5577
▁duszy -5578
▁Jose -5579
szono -5580
watel -5581
▁Stanów -5582
▁Sły -5583
bek -5584
▁nieba -5585
▁Wyż -5586
▁okolicy -5587
▁liczby -5588
▁staje -5589
gon -5590
▁wybi -5591
▁proces -5592
▁dyplom -5593
▁PR -5594
▁eksper -5595
twarza -5596
fu -5597
rzona -5598
▁gabine -5599
▁spotkanie -5600
▁Cha -5601
▁minister -5602
▁znajdował -5603
▁porówna -5604
▁śmi -5605
▁odwo -5606
▁wielkiego -5607
pel -5608
▁kilomet -5609
▁córkę -5610
▁reje -5611
▁Rok -5612
▁Karol -5613
gosła -5614
▁szereg -5615
▁wypowie -5616
▁formie -5617
▁dłuż -5618
szczony -5619
pres -5620
▁2017 -5621
▁mro -5622
▁wywal -5623
▁Sal -5624
▁wypadku -5625
sę -5626
▁kated -5627
her -5628
-18 -5629
▁pochodzenia -5630
▁wzrokiem -5631
▁dum -5632
▁wchodzą -5633
▁odde -5634
▁zgroma -5635
▁okazało -5636
zię -5637
▁Bla -5638
▁inżynie -5639
▁Bre -5640
▁leż -5641
▁Anna -5642
▁fakt -5643
▁rzucił -5644
▁Pucharu -5645
▁George -5646
▁niemieckiej -5647
▁kwietniu -5648
▁którymi -5649
▁powrocie -5650
▁jesie -5651
▁ręki -5652
▁oprócz -5653
▁stać -5654
▁cen -5655
▁radi -5656
▁środka -5657
▁połowy -5658
szymi -5659
Ch -5660
▁tobie -5661
ematy -5662
▁reszt -5663
▁klasyfikacji -5664
▁wybor -5665
▁Bal -5666
pem -5667
▁zapach -5668
▁wszystkiego -5669
▁postanowił -5670
pii -5671
▁zmę -5672
15 -5673
▁(198 -5674
-3 -5675
gres -5676
▁opiera -5677
▁Organi -5678
▁zabud -5679
▁Państw -5680
▁poszczegól -5681
▁wdzię -5682
wangeli -5683
▁odej -5684
żnie -5685
▁trzecie -5686
skiemu -5687
▁dziewczyna -5688
▁dodał -5689
▁przestrzeni -5690
▁Tre -5691
▁zasię -5692
▁zagad -5693
rektor -5694
▁Com -5695
▁patrzy -5696
▁Obie -5697
▁poni -5698
▁kariery -5699
▁zakresie -5700
▁och -5701
lla -5702
▁Wśród -5703
▁rodziców -5704
kowane -5705
szta -5706
▁pary -5707
▁Świat -5708
▁rozpoczęła -5709
▁grun -5710
burg -5711
praszam -5712
▁nomina -5713
▁rozegrał -5714
żeń -5715
▁tamtej -5716
▁mama -5717
owiadał -5718
▁wspólnie -5719
▁spotkaniu -5720
▁niemieckich -5721
gady -5722
▁nienawi -5723
wojen -5724
▁potrzeby -5725
▁pozbawi -5726
75 -5727
▁En -5728
▁Narodowego -5729
12 -5730
▁instru -5731
▁Ana -5732
▁niemiecki -5733
stiwa -5734
▁karierze -5735
ologii -5736
▁opan -5737
bina -5738
▁ląd -5739
▁bibliote -5740
▁Zre -5741
▁oznaj -5742
kiewicz -5743
▁1981 -5744
ńsku -5745
▁Kry -5746
▁pacj -5747
▁unik -5748
▁kategorii -5749
uri -5750
NO -5751
▁Han -5752
▁żaden -5753
tość -5754
mat -5755
▁przemysł -5756
para -5757
jne -5758
fan -5759
▁szar -5760
bas -5761
▁skaza -5762
▁is -5763
▁przyw -5764
pienie -5765
skała -5766
cier -5767
ena -5768
▁drzew -5769
▁zasłu -5770
▁klubie -5771
▁lutym -5772
▁dzielnicy -5773
▁Albo -5774
udo -5775
▁kup -5776
burgu -5777
▁Henryk -5778
są -5779
▁seksu -5780
▁Trzeba -5781
▁człowiekiem -5782
▁Pola -5783
▁scena -5784
▁obrony -5785
▁Ali -5786
▁uko -5787
▁samochodu -5788
▁XVII -5789
▁Zawsze -5790
▁sukces -5791
▁mistrza -5792
.: -5793
▁Ele -5794
▁mówiła -5795
ryt -5796
▁wnio -5797
patry -5798
▁popeł -5799
▁jakimś -5800
▁dłoni -5801
tes -5802
waniem -5803
▁strzel -5804
▁Tymczasem -5805
▁Poznaniu -5806
▁podat -5807
▁dyspo -5808
bri -5809
tyki -5810
cjalisty -5811
zglę -5812
▁igrzy -5813
▁gaz -5814
▁dużą -5815
▁Ir -5816
id -5817
/19 -5818
gip -5819
▁los -5820
▁niby -5821
▁1973 -5822
▁ża -5823
▁dziesią -5824
IA -5825
ych -5826
katoli -5827
▁dobro -5828
▁uch -5829
▁Dow -5830
▁pancer -5831
cjona -5832
▁piłkarz -5833
▁wym -5834
▁okręgu -5835
▁Większość -5836
▁należał -5837
anów -5838
szona -5839
▁Każdy -5840
▁sprawa -5841
dium -5842
▁mąd -5843
obraz -5844
▁broń -5845
▁1, -5846
▁Och -5847
▁Nowy -5848
▁psychi -5849
pole -5850
▁pewne -5851
▁ryce -5852
▁stosunku -5853
▁Em -5854
▁Niemców -5855
▁Nato -5856
▁pomyślał -5857
▁współpracy -5858
▁Kobie -5859
▁pomóc -5860
▁Michał -5861
żegna -5862
landii -5863
▁posła -5864
dziesiątych -5865
wiając -5866
dziesię -5867
▁Natomiast -5868
▁czaso -5869
▁szach -5870
chali -5871
▁macie -5872
▁nazwisko -5873
▁uj -5874
róg -5875
▁Pal -5876
▁założy -5877
▁wyrzu -5878
▁zez -5879
ure -5880
▁sięga -5881
▁rozwój -5882
▁tworzą -5883
▁stole -5884
stria -5885
iękuję -5886
▁polskim -5887
▁Ham -5888
▁wywiad -5889
kowano -5890
▁Jorku -5891
▁miałam -5892
▁profesor -5893
▁wzmian -5894
▁lot -5895
▁Komitetu -5896
▁próbował -5897
rowia -5898
dziesz -5899
zacja -5900
▁Flo -5901
▁Londynie -5902
▁któremu -5903
▁polityk -5904
▁epo -5905
iera -5906
▁2018 -5907
▁brzu -5908
▁Oprócz -5909
▁ostatnim -5910
kową -5911
▁funkcji -5912
▁żyć -5913
▁Coś -5914
▁1984 -5915
unku -5916
▁samodziel -5917
▁Nazwa -5918
▁zewnątrz -5919
▁okna -5920
▁Sztu -5921
▁trwa -5922
stość -5923
▁Min -5924
▁przyjął -5925
▁wytwór -5926
gół -5927
▁głosów -5928
▁1986 -5929
wzglę -5930
▁und -5931
▁świadomo -5932
łek -5933
▁choćby -5934
▁rację -5935
▁tle -5936
rasta -5937
▁porusza -5938
▁th -5939
▁własnych -5940
rzała -5941
▁okupa -5942
▁będziemy -5943
czonym -5944
tyczny -5945
▁pochy -5946
▁najlepiej -5947
▁komple -5948
niejszym -5949
▁Mój -5950
▁agen -5951
▁związek -5952
▁twórczo -5953
▁utrzyma -5954
▁proto -5955
gue -5956
serwa -5957
▁zaangaż -5958
Li -5959
▁tymi -5960
▁dostał -5961
▁druga -5962
partam -5963
▁niebo -5964
czce -5965
▁Znaj -5966
▁występują -5967
czoną -5968
▁wieczorem -5969
▁zazwyczaj -5970
▁otrzymała -5971
dzając -5972
arstwa -5973
czeństwo -5974
▁ogni -5975
szczu -5976
▁Wor -5977
▁rynku -5978
ckiem -5979
liwie -5980
▁wiej -5981
▁1985 -5982
▁Chło -5983
▁(... -5984
▁dowódcy -5985
ban -5986
▁funkcjon -5987
▁odległości -5988
▁materiał -5989
zje -5990
sząc -5991
mami -5992
▁doktor -5993
cząć -5994
▁płyty -5995
▁uszko -5996
▁zapropon -5997
▁Łą -5998
▁wybrze -5999
▁odwa -6000
▁kościele -6001
▁1983 -6002
▁popar -6003
▁regular -6004
▁groma -6005
▁napię -6006
▁1982 -6007
78 -6008
▁Tat -6009
▁Order -6010
▁Radzie -6011
▁60 -6012
rea -6013
szędzie -6014
▁SS -6015
▁ekonomi -6016
▁Trzy -6017
kony -6018
▁des -6019
czonej -6020
▁szan -6021
▁weso -6022
▁zauważył -6023
▁Stowarzy -6024
gły -6025
▁Można -6026
▁ofer -6027
▁Prac -6028
▁rezu -6029
owska -6030
▁bitwie -6031
▁twój -6032
▁1987 -6033
arka -6034
chnęła -6035
zempla -6036
dzki -6037
▁tyłu -6038
▁walce -6039
▁odczu -6040
▁duchow -6041
:0 -6042
▁FC -6043
▁Pił -6044
▁drzewa -6045
▁przychodzi -6046
▁dysk -6047
▁komputer -6048
▁nur -6049
tali -6050
▁zdję -6051
▁uczni -6052
▁zare -6053
▁Cla -6054
▁Panie -6055
arda -6056
▁wyszła -6057
nując -6058
▁chmu -6059
▁bezpośrednio -6060
▁uśmiechem -6061
▁żywo -6062
▁fał -6063
▁mln -6064
▁przywód -6065
bem -6066
▁panią -6067
▁rozpoczyna -6068
tw -6069
▁Film -6070
▁Andrze -6071
▁podwo -6072
▁siedmi -6073
▁utwór -6074
▁straż -6075
▁księży -6076
▁wczoraj -6077
niając -6078
▁pewna -6079
▁Właśnie -6080
▁telefon -6081
▁Ofi -6082
▁dźwię -6083
▁kru -6084
▁wyjechał -6085
▁Narodowej -6086
▁włó -6087
rzyły -6088
▁podróży -6089
▁miaste -6090
▁braci -6091
▁Nowo -6092
▁Ostatecznie -6093
▁kolor -6094
onego -6095
▁mógłby -6096
czonego -6097
▁Ziemi -6098
zami -6099
▁rozpoczęto -6100
▁wierz -6101
▁Fin -6102
eth -6103
▁epi -6104
▁kogo -6105
▁dawna -6106
▁model -6107
▁określe -6108
ują -6109
▁niewiele -6110
▁zle -6111
▁egzempla -6112
▁rundzie -6113
▁ściany -6114
▁ślu -6115
▁Piotra -6116
▁skon -6117
AT -6118
nator -6119
▁Regi -6120
ownik -6121
▁nagrodę -6122
▁podpisał -6123
tałem -6124
▁koncep -6125
▁3. -6126
gię -6127
▁Wilhel -6128
▁Polaków -6129
lonej -6130
▁wzniesi -6131
nat -6132
▁czuł -6133
▁książek -6134
▁dochodzi -6135
unt -6136
zację -6137
▁pogrze -6138
kować -6139
▁pewnego -6140
sunął -6141
▁Paweł -6142
▁komunika -6143
▁polskie -6144
▁północnej -6145
zmem -6146
▁pru -6147
miu -6148
▁zdol -6149
▁wprost -6150
▁choroby -6151
pać -6152
fel -6153
słał -6154
▁wysoko -6155
▁stanę -6156
▁ramionami -6157
▁twar -6158
▁Tele -6159
▁niektóre -6160
▁najbliż -6161
▁Mas -6162
▁naszym -6163
▁Słowa -6164
▁ostatniej -6165
▁historię -6166
▁osła -6167
Ko -6168
urę -6169
szak -6170
▁sej -6171
▁opuścił -6172
niać -6173
▁pokój -6174
▁zrezygn -6175
illa -6176
nień -6177
▁znak -6178
▁wzbu -6179
▁TV -6180
▁Pru -6181
lei -6182
▁Frydery -6183
▁zaczęły -6184
▁mechani -6185
▁Pawła -6186
bisku -6187
▁kamien -6188
▁80. -6189
wiała -6190
▁policji -6191
▁wyru -6192
76 -6193
▁wymy -6194
▁przeję -6195
loną -6196
ps -6197
czeni -6198
▁stwierdził -6199
eksy -6200
wiać -6201
fini -6202
▁Miała -6203
▁skom -6204
▁chu -6205
▁wydoby -6206
biego -6207
dziłem -6208
▁zabyt -6209
▁zabój -6210
▁zakłada -6211
dowi -6212
tanie -6213
▁poroz -6214
▁dzieła -6215
▁musie -6216
▁ciężko -6217
cznika -6218
▁oczami -6219
ime -6220
▁Brytyj -6221
▁własnego -6222
lądać -6223
▁średniowie -6224
ower -6225
▁Hiszpanii -6226
niły -6227
tari -6228
wencji -6229
▁byłam -6230
▁Wydziale -6231
▁potra -6232
▁ustawi -6233
▁Kilka -6234
żne -6235
pisu -6236
▁głowa -6237
▁Królew -6238
▁Tadeusz -6239
fał -6240
owników -6241
ziono -6242
▁1947 -6243
▁przo -6244
▁William -6245
▁punktu -6246
pki -6247
▁Wojska -6248
anę -6249
▁Masz -6250
▁policj -6251
enty -6252
▁japo -6253
fię -6254
▁zastąpi -6255
▁zmienił -6256
lis -6257
▁Nagle -6258
łego -6259
▁pozycję -6260
szedłem -6261
▁finale -6262
▁1948 -6263
▁fron -6264
▁dwoma -6265
▁zaprze -6266
ung -6267
dzin -6268
▁geo -6269
SZ -6270
▁tow -6271
jazd -6272
▁tajemni -6273
▁podwój -6274
▁zwierząt -6275
▁VI -6276
▁ścią -6277
▁ręko -6278
25 -6279
▁Pierwsza -6280
▁utrzymy -6281
ben -6282
▁bal -6283
▁okoliczności -6284
▁Die -6285
▁moment -6286
▁rozko -6287
▁1938 -6288
▁dywi -6289
▁szale -6290
▁inicjaty -6291
▁Py -6292
lana -6293
▁przetr -6294
▁obejmu -6295
hol -6296
–18 -6297
▁krzyż -6298
▁czterdzie -6299
▁ds -6300
▁Czyż -6301
▁zama -6302
▁wina -6303
▁Ur -6304
owicach -6305
jny -6306
▁kli -6307
▁węd -6308
▁informacje -6309
▁miesza -6310
▁Stanach -6311
▁myślą -6312
▁konkuren -6313
▁kardyna -6314
▁stali -6315
▁dwukrotnie -6316
▁Dan -6317
▁Konstan -6318
kiedy -6319
▁przechodzi -6320
▁Ludzie -6321
▁dłużej -6322
▁przyłą -6323
▁muszą -6324
▁skutek -6325
▁koncent -6326
▁robotni -6327
▁własnym -6328
mentem -6329
▁szó -6330
atak -6331
▁wiary -6332
▁napa -6333
▁wsty -6334
▁ramię -6335
▁Aleksandra -6336
▁dużej -6337
▁piosenki -6338
▁zajmuje -6339
▁osoba -6340
▁proś -6341
żonych -6342
▁żonę -6343
▁podję -6344
▁Dar -6345
lonym -6346
nieć -6347
▁zarazem -6348
▁rzadko -6349
▁leś -6350
▁pałacu -6351
▁terytorium -6352
▁ubo -6353
▁Mona -6354
denty -6355
prawdopodob -6356
▁austria -6357
▁Danie -6358
dzania -6359
▁zaro -6360
▁przebiega -6361
▁zapytała -6362
▁gaze -6363
▁koni -6364
staura -6365
▁umieję -6366
▁odszedł -6367
▁biskupa -6368
▁otrzyma -6369
▁Karola -6370
▁okru -6371
▁wykształ -6372
▁Instytutu -6373
jmuje -6374
jor -6375
▁ojcem -6376
▁Ok -6377
▁90. -6378
▁dawno -6379
▁1976 -6380
dło -6381
▁innej -6382
▁pasażer -6383
72 -6384
▁konkre -6385
nkiem -6386
▁Wydaw -6387
▁Spe -6388
padł -6389
▁legen -6390
andii -6391
▁założył -6392
▁Sła -6393
▁zamord -6394
▁barwach -6395
▁"" -6396
▁inteli -6397
▁Centrum -6398
▁Bob -6399
▁bezpieczeństwa -6400
▁łóżka -6401
▁młodych -6402
▁spokój -6403
▁władzę -6404
▁skrę -6405
bić -6406
ER -6407
▁eksplo -6408
use -6409
stiwalu -6410
▁Gos -6411
▁Były -6412
▁Zmarł -6413
AR -6414
▁słod -6415
▁charak -6416
ńsko -6417
▁Lubli -6418
kowany -6419
łgar -6420
▁Muzy -6421
▁Wyso -6422
▁Kro -6423
▁Hit -6424
▁rzuca -6425
▁olbrzy -6426
▁, -6427
▁Mak -6428
▁głęboko -6429
▁1979 -6430
jona -6431
gień -6432
▁pułkow -6433
▁nowoczes -6434
▁dost -6435
▁dozna -6436
▁decyzję -6437
rac -6438
▁miast -6439
ceum -6440
▁szeroko -6441
▁jakaś -6442
▁zamek -6443
mion -6444
▁północno -6445
▁jutro -6446
▁rywali -6447
▁obszarze -6448
▁głośno -6449
▁Nau -6450
lonego -6451
▁Jedy -6452
▁Wiesz -6453
▁ukazał -6454
4) -6455
szałem -6456
▁wystawi -6457
▁masy -6458
▁General -6459
▁dziewczyny -6460
79 -6461
iel -6462
Le -6463
ori -6464
▁nazwiska -6465
jmy -6466
kowało -6467
▁Chrystu -6468
▁urodził -6469
onej -6470
▁orze -6471
żny -6472
▁wysił -6473
▁stopień -6474
▁sprawiedli -6475
▁rozwija -6476
ient -6477
▁nerw -6478
▁przeci -6479
▁Bada -6480
▁grzbie -6481
rej -6482
▁Thom -6483
dować -6484
▁grzy -6485
▁częściowo -6486
▁178 -6487
▁studiów -6488
trą -6489
nięto -6490
▁rozegra -6491
kur -6492
▁ilości -6493
▁atmos -6494
rowo -6495
▁łago -6496
▁zdaniem -6497
arki -6498
owskich -6499
▁wstąpił -6500
▁wybuchu -6501
▁boga -6502
▁Wielkiego -6503
▁źró -6504
▁zwraca -6505
▁(...) -6506
▁widzenia -6507
▁wielkości -6508
van -6509
▁pozostałych -6510
▁Jesteś -6511
szczał -6512
▁pusty -6513
▁pragnie -6514
▁przeszłości -6515
▁Jerzego -6516
posto -6517
▁powstały -6518
mych -6519
▁odnale -6520
▁okrętów -6521
▁należało -6522
▁Oto -6523
11 -6524
dźmi -6525
miot -6526
▁kandydat -6527
▁sezon -6528
▁niemieckiego -6529
rei -6530
▁kl -6531
▁przew -6532
Ro -6533
tytuł -6534
▁nieprze -6535
▁Ve -6536
▁konsu -6537
▁Muszę -6538
tków -6539
adę -6540
▁Park -6541
▁łóżku -6542
▁szpi -6543
▁1978 -6544
▁spytała -6545
▁Zespół -6546
komo -6547
niało -6548
▁ścież -6549
▁przech -6550
▁milionów -6551
niło -6552
▁propozy -6553
▁wieczór -6554
nel -6555
nan -6556
ted -6557
sten -6558
▁Wraz -6559
▁dziewięć -6560
▁południowo -6561
▁szefa -6562
▁obi -6563
▁kolum -6564
▁dłonie -6565
▁Świętego -6566
▁okręt -6567
39 -6568
świado -6569
▁Najwyż -6570
▁szkoła -6571
▁opisa -6572
lam -6573
▁oryginal -6574
▁Włoch -6575
▁polsko -6576
▁odezwał -6577
▁Stefa -6578
▁podkre -6579
genty -6580
▁żebym -6581
kończył -6582
tycznego -6583
▁siedział -6584
KS -6585
ślę -6586
▁Środ -6587
▁Oli -6588
▁przyszedł -6589
▁moty -6590
▁większą -6591
▁lite -6592
▁jednostek -6593
▁intensy -6594
▁Hel -6595
▁operacji -6596
▁mając -6597
▁Krzyżem -6598
gal -6599
▁Ter -6600
▁istnienia -6601
tana -6602
żono -6603
▁stolicy -6604
niesienia -6605
65 -6606
▁słabo -6607
▁rodu -6608
ome -6609
▁dą -6610
▁pełne -6611
▁południowej -6612
dam -6613
▁głębi -6614
▁generała -6615
▁wiadomości -6616
▁bła -6617
▁nazwie -6618
▁0, -6619
gór -6620
niają -6621
▁Alex -6622
▁rela -6623
przód -6624
▁As -6625
▁Komu -6626
▁zaczęli -6627
▁Zakła -6628
gał -6629
żbie -6630
▁przestęp -6631
▁zachwy -6632
styczne -6633
▁redakcyjny -6634
zą -6635
▁soli -6636
▁Eri -6637
▁idą -6638
▁1972 -6639
▁świątyni -6640
osob -6641
▁głównych -6642
rot -6643
▁sąsiad -6644
▁uła -6645
▁Myśl -6646
▁odrzu -6647
▁dysku -6648
versi -6649
Je -6650
óp -6651
▁zajęła -6652
▁poszedł -6653
üh -6654
▁uzu -6655
ront -6656
▁1970 -6657
▁wieży -6658
dge -6659
rował -6660
▁braku -6661
▁Publi -6662
▁doskonale -6663
▁Ant -6664
▁Katarzy -6665
▁znaczenia -6666
ong -6667
▁ozd -6668
▁mianowany -6669
stek -6670
▁myśleć -6671
laty -6672
jeżdża -6673
raźniej -6674
▁restaura -6675
▁jeź -6676
▁koszt -6677
▁siostry -6678
▁Toru -6679
▁wolności -6680
▁1968 -6681
▁obwo -6682
▁bok -6683
szewi -6684
▁ludźmi -6685
▁probo -6686
▁młodo -6687
▁więzienia -6688
▁zaatak -6689
przeciw -6690
ys -6691
▁rekor -6692
długo -6693
▁wielkiej -6694
ówki -6695
▁zga -6696
▁70. -6697
techni -6698
▁śli -6699
▁2019 -6700
▁przeszło -6701
▁mono -6702
▁ratu -6703
▁większe -6704
▁samych -6705
kin -6706
▁salo -6707
▁akade -6708
▁spu -6709
pliwie -6710
▁mogłem -6711
▁uzbroje -6712
▁fla -6713
▁oficerów -6714
▁mistrzostwo -6715
atę -6716
▁dowódca -6717
berta -6718
▁urucho -6719
ostęp -6720
świet -6721
▁szwe -6722
▁rodzice -6723
▁Żad -6724
▁kape -6725
▁zwi -6726
tować -6727
wnych -6728
mir -6729
rwi -6730
▁kieszeni -6731
dzkiego -6732
▁poez -6733
▁1921 -6734
▁techno -6735
▁skrzydła -6736
szczeniu -6737
▁patrząc -6738
▁mag -6739
jak -6740
▁ważne -6741
up -6742
tos -6743
cham -6744
▁wodę -6745
▁Wrocławiu -6746
▁przyszłości -6747
tował -6748
▁mis -6749
▁zaj -6750
▁Strze -6751
▁pocał -6752
▁gatunek -6753
▁Histor -6754
cyfi -6755
▁przesta -6756
▁Arty -6757
▁ojczy -6758
seł -6759
▁koł -6760
▁przekro -6761
▁nierucho -6762
▁wydany -6763
▁kali -6764
cel -6765
▁południu -6766
rol -6767
niom -6768
▁wydarzenia -6769
▁wątpliwości -6770
▁Zresztą -6771
▁alko -6772
szczono -6773
▁odparła -6774
▁pisał -6775
jewo -6776
▁prowincji -6777
▁ból -6778
▁dek -6779
pl -6780
dano -6781
▁wykorzysta -6782
▁wszech -6783
▁państwo -6784
szeć -6785
▁Jane -6786
▁utworów -6787
▁naw -6788
▁sprzy -6789
ris -6790
ćmi -6791
▁pośredni -6792
▁kot -6793
wskich -6794
wska -6795
▁niechę -6796
▁przedsta -6797
▁znajdowała -6798
13 -6799
▁Ger -6800
▁unie -6801
▁deka -6802
ury -6803
nerem -6804
bru -6805
▁pomaga -6806
▁prezydent -6807
czając -6808
▁Uśmie -6809
▁Urodził -6810
nosząc -6811
cymi -6812
▁okno -6813
▁oficjalnie -6814
▁krajach -6815
▁Rodzi -6816
▁uśmiechnął -6817
▁spędził -6818
▁zachodniej -6819
▁wyr -6820
▁ostate -6821
▁meczach -6822
▁Matki -6823
▁wziąć -6824
▁nę -6825
▁podzi -6826
▁1950 -6827
▁poślu -6828
▁wzięła -6829
▁znane -6830
▁chcieli -6831
▁spojrzenie -6832
▁upraw -6833
▁liczbę -6834
▁zdobyła -6835
▁załat -6836
ndu -6837
syć -6838
▁Im -6839
trzymuje -6840
▁Central -6841
▁guber -6842
erium -6843
▁prawi -6844
unek -6845
▁Stre -6846
żyły -6847
niona -6848
▁dziew -6849
▁rekla -6850
prawdzie -6851
▁ministra -6852
.). -6853
▁popat -6854
▁przeczy -6855
▁pocie -6856
▁szans -6857
▁Władysław -6858
uth -6859
fra -6860
▁umiera -6861
zją -6862
▁Aby -6863
▁odmówi -6864
kiet -6865
▁cech -6866
zz -6867
▁krok -6868
kaj -6869
zują -6870
▁zdjęcia -6871
▁gospoda -6872
▁pomi -6873
▁strzelił -6874
▁dym -6875
▁mala -6876
▁dotarł -6877
▁rol -6878
▁Indi -6879
▁Bole -6880
▁zob -6881
op -6882
▁rękach -6883
▁Podobnie -6884
▁wielkich -6885
▁Gali -6886
mień -6887
bła -6888
iny -6889
▁pocią -6890
vy -6891
▁zegar -6892
▁lig -6893
▁polska -6894
▁bol -6895
▁tale -6896
▁Zwy -6897
ściami -6898
▁wrócić -6899
▁łącznie -6900
▁fanta -6901
▁dźwięk -6902
▁poby -6903
▁wspólnego -6904
▁Chociaż -6905
▁mieszkania -6906
▁lewej -6907
▁form -6908
▁zat -6909
nau -6910
ndy -6911
stami -6912
▁ski -6913
▁Czer -6914
▁odzie -6915
▁bliżej -6916
▁grupie -6917
▁młodzież -6918
▁opozy -6919
▁wewnątrz -6920
ctwo -6921
▁Jaro -6922
▁wersja -6923
▁niedaw -6924
!" -6925
trzeb -6926
sar -6927
Bo -6928
▁czasopis -6929
▁podniósł -6930
atą -6931
▁wycofa -6932
▁pisto -6933
gieł -6934
▁kome -6935
▁premiera -6936
sis -6937
▁krwa -6938
▁wypro -6939
); -6940
▁Białoru -6941
▁ochrony -6942
▁późno -6943
▁Try -6944
▁skra -6945
▁odpowiedź -6946
gać -6947
dników -6948
▁Miasto -6949
▁Szkoły -6950
tyk -6951
▁Zaraz -6952
budowy -6953
typ -6954
▁książkę -6955
▁przełomie -6956
▁Brze -6957
fre -6958
▁placów -6959
waną -6960
▁Ver -6961
▁czasami -6962
▁parku -6963
nieniem -6964
▁otacza -6965
har -6966
▁groź -6967
ległość -6968
▁podobne -6969
14 -6970
▁strzela -6971
czało -6972
▁rys -6973
▁80 -6974
▁Krzysztof -6975
▁udziału -6976
▁Królestwa -6977
ensy -6978
▁West -6979
lary -6980
▁1974 -6981
▁Elżbie -6982
▁pojawiła -6983
▁formy -6984
?... -6985
▁jedynym -6986
▁1956 -6987
▁zespole -6988
▁1954 -6989
▁docho -6990
▁zwycięstwo -6991
gl -6992
mara -6993
stanowie -6994
▁służył -6995
glądał -6996
▁papiero -6997
▁zdrowia -6998
kąd -6999
▁piętna -7000
▁Ogól -7001
▁samolotu -7002
wscho -7003
▁jasne -7004
sąd -7005
▁Wale -7006
▁wpływem -7007
łowi -7008
hn -7009
▁weszła -7010
▁1977 -7011
▁śmiercią -7012
obój -7013
val -7014
▁łaci -7015
▁albumu -7016
▁próby -7017
nieniu -7018
PR -7019
▁mle -7020
▁zaufa -7021
▁jeziora -7022
ls -7023
nkach -7024
▁mieści -7025
▁licznych -7026
▁ślub -7027
nili -7028
▁śmiertel -7029
▁arcybisku -7030
mann -7031
miej -7032
▁zdaje -7033
▁ćwi -7034
▁piłka -7035
▁stóp -7036
▁pode -7037
35 -7038
▁tram -7039
▁Mikołaja -7040
▁związany -7041
pami -7042
▁gard -7043
▁tereny -7044
▁honor -7045
▁myślę -7046
▁rzekła -7047
▁klucz -7048
▁staroży -7049
▁zabezpie -7050
spe -7051
▁mruk -7052
▁stanowisku -7053
guje -7054
▁Emi -7055
16 -7056
▁Scho -7057
▁kolek -7058
▁spośród -7059
▁osiągnął -7060
▁spotkań -7061
▁edu -7062
mus -7063
▁obrę -7064
▁nu -7065
▁bitwy -7066
▁mikro -7067
▁1937 -7068
▁szczyt -7069
▁więźni -7070
▁konstrukcji -7071
▁synów -7072
▁zatrudni -7073
▁Puchar -7074
▁moder -7075
▁matematy -7076
▁łzy -7077
▁Polskich -7078
▁mięk -7079
▁blu -7080
▁szk -7081
▁pożegna -7082
▁tytułem -7083
zor -7084
łom -7085
cjon -7086
▁próż -7087
▁zbliża -7088
▁rozsze -7089
-200 -7090
sków -7091
▁Nowego -7092
mistrz -7093
urat -7094
▁formal -7095
▁ponadto -7096
▁gwiazd -7097
▁obserwa -7098
▁Grand -7099
▁Mikołaj -7100
▁charakterze -7101
▁sprawi -7102
▁szkołę -7103
snęła -7104
▁ogar -7105
tkow -7106
▁słońca -7107
▁wystarcza -7108
▁Kle -7109
seudo -7110
▁studiował -7111
▁odzyska -7112
▁chcąc -7113
▁narzę -7114
char -7115
antów -7116
jest -7117
▁sześciu -7118
▁Zd -7119
▁aktu -7120
▁wręcz -7121
▁drużyn -7122
▁płyt -7123
▁Pewnie -7124
▁Berlinie -7125
▁1969 -7126
nna -7127
żczy -7128
▁problemy -7129
gdyś -7130
▁Zosta -7131
▁35 -7132
▁zawodnikiem -7133
▁miejscach -7134
▁Gło -7135
nięciu -7136
▁otworzył -7137
▁nieprzyja -7138
ziem -7139
miana -7140
gas -7141
▁placu -7142
▁radio -7143
▁głównego -7144
▁sklep -7145
▁y -7146
wkę -7147
▁zgło -7148
Sz -7149
▁chłopak -7150
▁Jad -7151
▁szkół -7152
▁stracił -7153
▁rezy -7154
▁ogień -7155
▁ruszył -7156
▁wyspy -7157
▁musieli -7158
▁tematy -7159
▁jakiejś -7160
szar -7161
wna -7162
▁głównej -7163
▁ramienia -7164
ct -7165
▁klien -7166
ém -7167
▁sypi -7168
▁Tri -7169
48 -7170
Za -7171
▁Grzego -7172
gat -7173
▁korzysta -7174
▁inwe -7175
fr -7176
▁Pomimo -7177
atorem -7178
▁samolotów -7179
rzysta -7180
niowej -7181
▁lasu -7182
▁nawią -7183
▁niepew -7184
▁wód -7185
rować -7186
▁moral -7187
Bi -7188
can -7189
?" -7190
▁dużym -7191
▁zaprojekt -7192
▁zem -7193
▁rozumiem -7194
▁owa -7195
▁móz -7196
▁odbyła -7197
To -7198
▁zarzu -7199
▁Chce -7200
▁czarne -7201
▁szczegół -7202
▁sowie -7203
▁powietrza -7204
▁cha -7205
▁bohate -7206
▁walk -7207
mental -7208
▁okazał -7209
▁producen -7210
▁poważnie -7211
▁dopóki -7212
▁wszędzie -7213
Re -7214
▁Dom -7215
▁krajów -7216
." -7217
▁Kazimierz -7218
kowana -7219
▁Henryka -7220
lecia -7221
czyków -7222
chodząc -7223
lesty -7224
▁herbu -7225
▁ducha -7226
▁wzajem -7227
▁przebywał -7228
▁jedyny -7229
▁1936 -7230
▁uznał -7231
▁Długo -7232
▁mach -7233
▁mieszkańcy -7234
▁metal -7235
▁przyjm -7236
▁zobaczył -7237
▁szac -7238
fia -7239
▁zwrócił -7240
nięciem -7241
▁przepły -7242
▁Zda -7243
▁as -7244
▁Rzymie -7245
owcy -7246
jnej -7247
▁ujaw -7248
wiony -7249
▁Universi -7250
▁wszelkie -7251
środ -7252
▁Los -7253
▁prawdę -7254
gogi -7255
▁zrobiła -7256
▁wydawało -7257
skami -7258
czania -7259
wców -7260
▁napo -7261
▁siostra -7262
żyłem -7263
▁Sara -7264
▁decyzji -7265
▁skupi -7266
▁maksym -7267
▁central -7268
deracji -7269
ire -7270
▁poraż -7271
▁akurat -7272
▁usłu -7273
niejszą -7274
▁emigra -7275
▁folwar -7276
▁Niestety -7277
▁króle -7278
▁urząd -7279
▁koszu -7280
lus -7281
▁Ameryki -7282
▁Dziś -7283
▁umożliwia -7284
▁wodą -7285
▁całości -7286
likwi -7287
▁/ -7288
▁anali -7289
▁okolicach -7290
▁przyjaciel -7291
gam -7292
▁bierze -7293
▁ewangeli -7294
▁widziałem -7295
zując -7296
▁Wydziału -7297
dziesięciu -7298
▁finału -7299
rys -7300
▁nieś -7301
ślił -7302
▁prawej -7303
▁czytel -7304
kowskiej -7305
▁domi -7306
▁podpisa -7307
▁początek -7308
▁Ek -7309
▁opa -7310
▁nowa -7311
▁opła -7312
▁położone -7313
▁Pomo -7314
▁Mieszka -7315
▁morza -7316
łożył -7317
▁nagrody -7318
▁1967 -7319
▁Oby -7320
▁skrom -7321
▁uczestniczył -7322
gaty -7323
▁pracowników -7324
padła -7325
wów -7326
▁słońce -7327
pusu -7328
▁warunkach -7329
▁zamieszka -7330
ville -7331
loka -7332
skutek -7333
▁tłum -7334
▁wokali -7335
73 -7336
kiew -7337
▁kampanii -7338
▁Wielko -7339
nior -7340
▁kończy -7341
▁Kultury -7342
▁spojrzała -7343
▁Piechoty -7344
▁kara -7345
▁dam -7346
▁literatury -7347
▁kg -7348
▁Jack -7349
▁zba -7350
▁Andrzeja -7351
▁Swo -7352
▁Paul -7353
▁klim -7354
▁zwolen -7355
▁obywate -7356
rywa -7357
▁konia -7358
▁poniżej -7359
▁godzinę -7360
▁niemieckie -7361
▁Unii -7362
▁Lwowie -7363
▁esk -7364
▁Część -7365
▁zależy -7366
gera -7367
▁umysł -7368
▁Lou -7369
▁wysu -7370
tkę -7371
▁Studi -7372
czycy -7373
▁ton -7374
▁1971 -7375
▁mała -7376
▁używa -7377
bla -7378
czącą -7379
▁przekaza -7380
68 -7381
sona -7382
▁1952 -7383
▁zrealiz -7384
▁katastro -7385
ałą -7386
▁poziom -7387
▁spoczy -7388
▁cmentarzu -7389
▁wóz -7390
uj -7391
▁ręku -7392
▁rozmawia -7393
zar -7394
▁czuła -7395
▁czyta -7396
gdzie -7397
▁2, -7398
▁polityki -7399
▁Najwięk -7400
▁nadzwyczaj -7401
▁niemożli -7402
▁powiedziałem -7403
toni -7404
▁teorii -7405
▁pach -7406
▁XIV -7407
atora -7408
inform -7409
▁największych -7410
▁kilometrów -7411
tus -7412
▁tworzy -7413
▁gatunku -7414
▁zespołem -7415
▁Zbi -7416
▁Jagiel -7417
kier -7418
▁szla -7419
▁gita -7420
▁Las -7421
▁pilo -7422
▁samolot -7423
▁siód -7424
▁debiut -7425
▁smo -7426
▁mecze -7427
ffa -7428
iła -7429
▁prezent -7430
▁specjali -7431
▁nabo -7432
69 -7433
▁Szu -7434
▁tęsk -7435
▁obiekt -7436
▁wykrzy -7437
▁pytania -7438
▁powtarza -7439
▁Oba -7440
▁obsługi -7441
▁odróż -7442
▁powietrzu -7443
mości -7444
▁prawosław -7445
▁1949 -7446
▁majątku -7447
▁czuje -7448
▁grupę -7449
▁generał -7450
▁siedzą -7451
▁najlepszych -7452
▁strate -7453
prawa -7454
▁parlamentar -7455
▁wywie -7456
▁symboli -7457
▁rozum -7458
▁wojnę -7459
▁politycznych -7460
▁Małgo -7461
ódź -7462
▁poety -7463
▁opis -7464
▁niezwykle -7465
Ne -7466
▁ulu -7467
▁drużyna -7468
▁niewoli -7469
spira -7470
▁Adama -7471
▁papier -7472
łod -7473
▁autorem -7474
etry -7475
BC -7476
Mo -7477
▁przygo -7478
▁150 -7479
czko -7480
▁Prowa -7481
▁konferen -7482
▁Ad -7483
▁Chcę -7484
▁oddech -7485
pach -7486
▁500 -7487
▁szpitala -7488
64 -7489
onach -7490
wca -7491
–198 -7492
gur -7493
▁obron -7494
▁poznać -7495
▁środków -7496
▁Lek -7497
▁starego -7498
spekty -7499
▁odcinku -7500
hen -7501
mont -7502
▁diecezji -7503
▁Hal -7504
wce -7505
▁punkty -7506
fon -7507
▁Jen -7508
▁artylerii -7509
dzają -7510
▁Działa -7511
▁Ję -7512
▁trzeciej -7513
▁Jac -7514
wka -7515
▁Japonii -7516
2) -7517
spon -7518
▁Szwajcar -7519
▁wykorzystu -7520
andard -7521
▁narze -7522
nce -7523
byśmy -7524
▁Sejm -7525
daleko -7526
spól -7527
▁Max -7528
nedy -7529
▁60. -7530
dzkiej -7531
czku -7532
▁zazd -7533
▁Chciał -7534
ür -7535
rał -7536
▁zaci -7537
▁poczucie -7538
▁Kazimierza -7539
▁internet -7540
▁ilu -7541
▁wojna -7542
▁kłam -7543
▁będąc -7544
ker -7545
▁energii -7546
▁Klu -7547
lizacji -7548
▁natury -7549
▁oboję -7550
▁ślady -7551
▁zatrzyma -7552
▁1934 -7553
ciar -7554
▁cesarza -7555
▁łańcu -7556
▁silnik -7557
1) -7558
Co -7559
▁matką -7560
▁absolu -7561
▁Rosja -7562
▁zginął -7563
▁Gal -7564
ae -7565
▁Skąd -7566
▁herb -7567
▁Edward -7568
ranie -7569
wers -7570
óbr -7571
▁wyz -7572
▁dotyczące -7573
▁żyw -7574
wymi -7575
▁sercu -7576
▁zdecydował -7577
▁mandat -7578
▁spostrze -7579
▁wschodniej -7580
lądu -7581
▁arab -7582
▁Archi -7583
▁potom -7584
▁1957 -7585
TA -7586
▁przemian -7587
▁mnó -7588
▁czwart -7589
▁Warszawskiego -7590
lety -7591
▁doda -7592
▁logi -7593
dowych -7594
▁snu -7595
▁Lan -7596
▁Pia -7597
dziem -7598
▁super -7599
▁bazy -7600
▁sztuk -7601
▁niszczy -7602
▁Lip -7603
▁siłą -7604
▁1960 -7605
jechał -7606
▁gimnazjum -7607
▁następnym -7608
wością -7609
▁wiadomość -7610
▁koron -7611
▁wielokrotnie -7612
▁imieniu -7613
▁budynków -7614
czyłem -7615
▁dało -7616
▁telewizji -7617
▁uczucia -7618
▁wiatr -7619
▁Dziewczy -7620
▁wartość -7621
unki -7622
ślić -7623
▁zwal -7624
▁chemi -7625
▁historia -7626
vie -7627
▁odbywa -7628
▁powięk -7629
▁wynikiem -7630
zon -7631
▁imienia -7632
▁oddziału -7633
▁Grupa -7634
stępuje -7635
▁kaz -7636
▁zależności -7637
uch -7638
nicze -7639
▁zdołał -7640
▁oże -7641
▁Sama -7642
▁pomyślała -7643
nos -7644
▁propa -7645
kam -7646
▁szukać -7647
▁widziała -7648
siadła -7649
17 -7650
wiami -7651
▁przyrody -7652
▁Frank -7653
▁eksperym -7654
▁likwi -7655
▁zazna -7656
▁Demokra -7657
mini -7658
▁potrafił -7659
▁żołnierze -7660
rezent -7661
▁położony -7662
▁rad -7663
▁Kos -7664
▁kazał -7665
▁wyboru -7666
▁patrzył -7667
▁opad -7668
▁zwło -7669
▁Para -7670
▁70 -7671
utor -7672
▁czoło -7673
dzonej -7674
▁James -7675
▁warunki -7676
▁... -7677
ciach -7678
cząca -7679
vel -7680
▁statku -7681
▁zadanie -7682
▁miesiące -7683
jając -7684
porząd -7685
▁cześć -7686
▁ślą -7687
▁zasady -7688
▁następujące -7689
rzami -7690
▁woła -7691
▁widzieć -7692
▁uf -7693
▁300 -7694
derem -7695
lio -7696
▁Whi -7697
▁medali -7698
rodzenia -7699
▁zrozumieć -7700
▁utwory -7701
▁akademi -7702
niak -7703
pania -7704
▁wymienia -7705
▁głosu -7706
rządu -7707
▁uzupeł -7708
▁cztero -7709
jami -7710
Mi -7711
▁termi -7712
▁kryzy -7713
▁pomimo -7714
▁Republiki -7715
▁Chod -7716
▁ogląda -7717
▁Naprawdę -7718
▁portu -7719
▁Powo -7720
niorów -7721
▁układu -7722
▁1966 -7723
▁nieza -7724
▁Paw -7725
ctwem -7726
ciągnął -7727
▁wiedzy -7728
▁żelaz -7729
▁Krakowa -7730
▁każda -7731
▁ksiądz -7732
▁zbrodni -7733
▁: -7734
▁osiedla -7735
▁przodu -7736
▁(201 -7737
▁okrop -7738
▁liczyła -7739
▁obejmuje -7740
▁sal -7741
▁szczęścia -7742
▁teatral -7743
▁1965 -7744
▁rozgrywek -7745
▁Mistrz -7746
▁Dywizji -7747
▁Władysława -7748
▁Szym -7749
pali -7750
▁poci -7751
czać -7752
stycznych -7753
▁dyrektor -7754
▁zasadzie -7755
▁cof -7756
▁drzwiach -7757
▁przeszko -7758
▁Być -7759
▁naczy -7760
▁biały -7761
▁zmo -7762
▁Czech -7763
▁pojem -7764
▁praca -7765
▁Jednakże -7766
▁dyrektora -7767
▁Stefan -7768
samo -7769
▁swoimi -7770
atki -7771
▁lekarz -7772
▁naprzeciw -7773
▁emery -7774
▁Człowie -7775
▁Plan -7776
▁Niektóre -7777
▁Plat -7778
▁nume -7779
▁Brazy -7780
▁szl -7781
▁miarę -7782
▁pałac -7783
▁zdanie -7784
▁małych -7785
▁4. -7786
słowa -7787
▁butel -7788
niono -7789
▁klat -7790
▁zech -7791
bit -7792
▁Drugi -7793
▁czuję -7794
▁zobowią -7795
▁Tomasz -7796
▁własny -7797
▁rosną -7798
▁córką -7799
▁car -7800
▁fal -7801
▁ham -7802
▁gmin -7803
▁Austrii -7804
▁tradycji -7805
▁twoja -7806
▁źródła -7807
▁Orderu -7808
jusz -7809
▁papieża -7810
▁Zgodnie -7811
kazało -7812
▁ćwier -7813
ford -7814
▁Zało -7815
▁ofice -7816
▁dużych -7817
▁wielka -7818
▁powinno -7819
▁profesora -7820
unkowo -7821
gnęła -7822
▁wycie -7823
natu -7824
▁Sil -7825
owanymi -7826
74 -7827
polu -7828
tałam -7829
▁chętnie -7830
▁udał -7831
▁białe -7832
▁osiąga -7833
▁Australii -7834
▁Ligi -7835
▁powinni -7836
▁Istnie -7837
line -7838
stal -7839
▁Moskwie -7840
▁równowa -7841
▁firma -7842
▁Przemy -7843
kl -7844
▁przeciwie -7845
▁ró -7846
stein -7847
▁naci -7848
▁służbę -7849
▁ó -7850
orient -7851
szeniu -7852
▁obrębie -7853
▁ryb -7854
▁następnego -7855
▁tydzień -7856
▁6: -7857
leniu -7858
conych -7859
▁ognia -7860
▁Wielki -7861
jał -7862
▁wierzy -7863
54 -7864
▁wp -7865
▁komunisty -7866
▁odczy -7867
sarz -7868
niosły -7869
▁spotkać -7870
▁pochowany -7871
3) -7872
▁marynar -7873
▁Jagiello -7874
▁Pas -7875
▁tonem -7876
▁Ram -7877
▁trener -7878
▁elementy -7879
▁doświadczenia -7880
▁widząc -7881
bs -7882
▁1922 -7883
ciło -7884
▁1964 -7885
▁małą -7886
rzały -7887
muni -7888
▁rzędu -7889
▁jakiego -7890
▁Północnej -7891
▁obecności -7892
▁dosyć -7893
▁wiedzą -7894
kając -7895
▁Matka -7896
▁filmów -7897
▁ciemności -7898
▁znam -7899
▁Miasta -7900
▁metody -7901
piła -7902
▁Krzyż -7903
▁Sport -7904
▁Wiele -7905
▁Dra -7906
▁listę -7907
▁Sha -7908
▁Aleksander -7909
daj -7910
▁związanych -7911
▁Auto -7912
▁Tere -7913
▁Tran -7914
nikach -7915
▁naby -7916
▁hipo -7917
▁Cham -7918
▁zabytków -7919
▁Bydgoszczy -7920
nowie -7921
▁Peters -7922
ye -7923
▁dane -7924
dowa -7925
▁Ktoś -7926
▁znanych -7927
▁zatytuł -7928
▁sytuacja -7929
▁Południowej -7930
▁wyżej -7931
▁1924 -7932
▁1930 -7933
▁żał -7934
62 -7935
▁wyniki -7936
ist -7937
▁Cmenta -7938
▁upły -7939
niczy -7940
remo -7941
▁spek -7942
atorów -7943
went -7944
ag -7945
fil -7946
▁pisarz -7947
▁tytułu -7948
▁ustanowi -7949
▁powiada -7950
▁elimina -7951
▁cio -7952
▁myślał -7953
▁muzeum -7954
▁podoba -7955
▁dziecię -7956
dae -7957
▁budowla -7958
▁zabiera -7959
fery -7960
▁poten -7961
▁zalicza -7962
komi -7963
▁flo -7964
▁ostatniego -7965
ston -7966
▁konserw -7967
▁niegdyś -7968
ras -7969
paty -7970
▁ste -7971
▁pseudo -7972
ory -7973
▁Luk -7974
▁właściciel -7975
▁Aż -7976
nictwie -7977
▁World -7978
▁pogar -7979
▁bronią -7980
▁sprawą -7981
AS -7982
alności -7983
▁pułk -7984
▁Najpierw -7985
▁dawniej -7986
▁Moja -7987
▁wyst -7988
▁Piosen -7989
▁powiem -7990
▁Pana -7991
▁poziomie -7992
▁imp -7993
▁Wreszcie -7994
▁1935 -7995
▁przyjaciela -7996
▁1951 -7997
▁znał -7998
▁czekał -7999
▁utworu -8000
▁członkowie -8001
▁1917 -8002
▁Johna -8003
▁brzmi -8004
cek -8005
▁er -8006
▁zaprezent -8007
▁znajdowały -8008
▁przedłu -8009
▁wyjątkiem -8010
▁dyna -8011
▁przewa -8012
szczona -8013
▁Mężczy -8014
MS -8015
chii -8016
świe -8017
▁działał -8018
dnika -8019
słucha -8020
▁Takie -8021
▁wiek -8022
▁Michael -8023
sm -8024
nnego -8025
▁tymczasem -8026
▁wystąpi -8027
90 -8028
▁linia -8029
▁złoty -8030
dziłam -8031
odniej -8032
▁kontakt -8033
▁czą -8034
38 -8035
miła -8036
▁wyjść -8037
▁wypadek -8038
▁Meksy -8039
▁kultural -8040
zwy -8041
▁Yor -8042
▁set -8043
udi -8044
▁monar -8045
▁uczelni -8046
▁pojawiły -8047
▁pers -8048
▁dniem -8049
▁kontr -8050
nda -8051
▁adres -8052
▁prawdy -8053
▁kawale -8054
▁wpisa -8055
▁zmniej -8056
▁wywalczył -8057
▁pozytyw -8058
ise -8059
rael -8060
▁zęby -8061
wałam -8062
▁Franciszka -8063
▁Wysp -8064
▁studen -8065
▁zamieszki -8066
lica -8067
▁płu -8068
▁soł -8069
▁urat -8070
▁sumie -8071
minarium -8072
▁Rozumie -8073
skokatoli -8074
▁drużynie -8075
wnej -8076
▁trudem -8077
28 -8078
▁dała -8079
▁wari -8080
▁sprawia -8081
biu -8082
burga -8083
bow -8084
▁zmy -8085
▁dyrektorem -8086
▁chciałem -8087
PS -8088
▁stare -8089
▁Nowej -8090
▁gada -8091
▁styl -8092
▁odgry -8093
▁1958 -8094
Pa -8095
▁pojedy -8096
▁Miejsc -8097
▁Jul -8098
▁tka -8099
▁rozgrywkach -8100
polskim -8101
ther -8102
lender -8103
owne -8104
▁dawnych -8105
▁majątek -8106
▁posiadał -8107
▁gwałtownie -8108
▁Val -8109
▁Ly -8110
nnej -8111
rozo -8112
▁mły -8113
▁zabu -8114
ES -8115
▁stołu -8116
▁porozumie -8117
▁status -8118
ake -8119
wii -8120
▁kieli -8121
▁właścicielem -8122
▁źródeł -8123
▁przybył -8124
▁poinform -8125
▁nieod -8126
▁wyjścia -8127
dowy -8128
mani -8129
▁test -8130
▁każde -8131
▁lekar -8132
▁sędzi -8133
▁rozmowę -8134
▁kore -8135
▁tekst -8136
▁Dziękuję -8137
▁dóbr -8138
▁uprawia -8139
wek -8140
▁wróciła -8141
▁powstrzyma -8142
▁niepoko -8143
▁Ow -8144
▁pamią -8145
▁Egip -8146
▁dobrym -8147
6) -8148
▁okiem -8149
▁wago -8150
▁granicach -8151
Prze -8152
▁Cal -8153
▁upadku -8154
▁miejscem -8155
▁posa -8156
dowe -8157
▁Cas -8158
▁sol -8159
▁małżeństwa -8160
▁1933 -8161
▁Peł -8162
▁komuni -8163
rowane -8164
żka -8165
▁Myślę -8166
deo -8167
▁poszczególnych -8168
▁Wiktor -8169
▁potrzeba -8170
zel -8171
▁Kas -8172
▁Zoba -8173
▁ludziom -8174
lał -8175
▁Smo -8176
jemu -8177
▁opieku -8178
▁przyszła -8179
▁wojną -8180
órek -8181
▁Marek -8182
▁Pierwszym -8183
▁hy -8184
▁wstrzą -8185
▁Cer -8186
▁wnu -8187
ziony -8188
dzonego -8189
▁hrab -8190
▁Norwe -8191
▁meczów -8192
▁AK -8193
▁matkę -8194
▁musisz -8195
▁rozmai -8196
letnie -8197
▁gałę -8198
▁dostać -8199
lacja -8200
▁Również -8201
▁poeta -8202
▁Właści -8203
ON -8204
▁Imp -8205
▁VII -8206
▁chor -8207
czącej -8208
▁1914 -8209
cąc -8210
▁płci -8211
▁Dia -8212
chami -8213
▁większych -8214
zia -8215
obecnie -8216
▁krzyża -8217
▁przywo -8218
▁Sier -8219
▁mózgu -8220
▁dworze -8221
▁powstało -8222
▁Pozost -8223
chan -8224
▁arche -8225
▁1962 -8226
▁jednakże -8227
▁proku -8228
▁pozostaje -8229
biła -8230
ion -8231
łej -8232
▁naszą -8233
▁modelu -8234
▁zdobywając -8235
▁Przepraszam -8236
OR -8237
▁obiad -8238
▁przeja -8239
▁palce -8240
▁skrzyż -8241
▁Igna -8242
tację -8243
▁wzmoc -8244
▁mieszkał -8245
▁wyklu -8246
skry -8247
Wy -8248
▁PRL -8249
▁wyba -8250
łka -8251
lizmu -8252
▁szuk -8253
▁Wer -8254
▁czarno -8255
sprawiedli -8256
kłe -8257
lonii -8258
▁1925 -8259
▁san -8260
▁uwol -8261
7) -8262
▁bólu -8263
▁inicjatywy -8264
rena -8265
stką -8266
▁Spi -8267
▁śnia -8268
▁węgier -8269
▁narodowej -8270
▁ogłosił -8271
▁przebieg -8272
▁1928 -8273
▁dę -8274
▁inną -8275
szów -8276
▁poga -8277
niny -8278
▁finał -8279
▁jasno -8280
wieniem -8281
▁rozmów -8282
▁obywatel -8283
▁Sek -8284
▁złego -8285
24 -8286
▁nasi -8287
▁kolejnym -8288
▁Pła -8289
▁elementów -8290
-4 -8291
▁Kru -8292
▁zastrze -8293
▁Ucze -8294
▁Super -8295
▁hrabi -8296
arem -8297
▁główną -8298
▁Richard -8299
ies -8300
▁wymieni -8301
bal -8302
▁prz -8303
▁has -8304
▁pamięta -8305
▁przemie -8306
języ -8307
▁tygodnie -8308
▁Roman -8309
▁przejął -8310
▁klasztoru -8311
▁wsta -8312
▁stałe -8313
▁niekiedy -8314
▁przeszła -8315
▁Gmina -8316
Ja -8317
strem -8318
▁spokoju -8319
▁zachę -8320
AM -8321
riusz -8322
▁roboty -8323
▁oddziałów -8324
▁gwiazdy -8325
▁biz -8326
▁byłby -8327
▁ruszy -8328
▁automaty -8329
▁główny -8330
▁uczniów -8331
sse -8332
▁Tor -8333
▁dwór -8334
niczej -8335
rer -8336
▁wzrostu -8337
▁Jakie -8338
▁klasztor -8339
▁mego -8340
▁Gol -8341
tność -8342
▁Jednocześnie -8343
▁kwali -8344
▁deszcz -8345
▁' -8346
amtąd -8347
▁spotkał -8348
▁wyspie -8349
ciły -8350
▁zaa -8351
▁chwilą -8352
bl -8353
▁Pen -8354
▁jazdy -8355
▁konflik -8356
ołów -8357
cała -8358
torów -8359
▁wyprowa -8360
▁okrętu -8361
▁życiem -8362
▁wieczoru -8363
▁wydarzeń -8364
▁młodego -8365
▁University -8366
ńcem -8367
▁Bał -8368
▁pisze -8369
▁Mont -8370
▁terro -8371
▁problemów -8372
▁transport -8373
kanie -8374
▁Osie -8375
▁zlikwi -8376
lektu -8377
▁popraw -8378
▁obozie -8379
pany -8380
▁poleg -8381
rwa -8382
▁amerykańskich -8383
▁Prix -8384
▁siłę -8385
▁oświet -8386
▁żebyś -8387
IS -8388
▁zagranicznych -8389
wicy -8390
▁XIII -8391
▁francuski -8392
liście -8393
ue -8394
▁Poto -8395
▁bran -8396
▁atrak -8397
▁następnych -8398
▁każdą -8399
▁odpo -8400
cus -8401
scypli -8402
▁walkę -8403
▁obowiązki -8404
▁Klub -8405
rabiego -8406
▁Jaki -8407
dwo -8408
▁tj -8409
▁spły -8410
▁popra -8411
▁zaczęło -8412
stron -8413
▁robił -8414
chosłowa -8415
▁fas -8416
▁Air -8417
ré -8418
▁Azji -8419
▁Zgroma -8420
nicą -8421
▁zajmując -8422
ktry -8423
▁ledwie -8424
▁ary -8425
▁złe -8426
▁Pięk -8427
▁koleg -8428
▁wywoła -8429
nor -8430
nieśli -8431
▁znana -8432
▁obra -8433
▁Jakub -8434
niczych -8435
▁del -8436
▁tysiące -8437
▁bratem -8438
▁impre -8439
▁Szyb -8440
▁partyzan -8441
ważnie -8442
▁okupacji -8443
▁najlepszy -8444
▁sprzedaży -8445
▁słone -8446
▁wstęp -8447
▁mogłam -8448
▁marszał -8449
▁przeszka -8450
▁nasza -8451
▁działacz -8452
▁ochotę -8453
siadał -8454
▁przewodniczącym -8455
▁rękami -8456
▁niepodległości -8457
brew -8458
▁dzieło -8459
▁zatrzymał -8460
▁Ukończył -8461
▁utworzono -8462
▁ukończeniu -8463
▁City -8464
▁pokonał -8465
▁kapitan -8466
▁interpre -8467
▁połączenia -8468
siu -8469
▁obsłu -8470
▁wyczu -8471
▁właściciela -8472
▁(„ -8473
▁piękna -8474
▁zmienić -8475
▁społeczeństwa -8476
▁wspomnienia -8477
▁chwila -8478
▁wypoży -8479
▁kierował -8480
▁odpowiedziała -8481
▁przysię -8482
▁mundu -8483
▁Koście -8484
▁awansował -8485
sin -8486
▁oczywi -8487
▁wojskowych -8488
▁zawodach -8489
▁zabić -8490
▁udziałem -8491
▁Ken -8492
▁Tour -8493
▁kano -8494
▁klubem -8495
▁wyjaśni -8496
▁Mel -8497
▁David -8498
▁Latem -8499
▁zdobyć -8500
▁odznaczony -8501
vin -8502
▁1929 -8503
▁1961 -8504
▁ben -8505
▁Obok -8506
▁kół -8507
ruje -8508
▁nastąpiło -8509
lig -8510
▁Ró -8511
▁fur -8512
▁1963 -8513
▁Frie -8514
▁obejm -8515
▁Rzeszy -8516
▁powyżej -8517
▁Met -8518
▁Mów -8519
▁gwiaz -8520
święt -8521
▁szo -8522
55 -8523
los -8524
▁Dywi -8525
▁Stary -8526
▁najlepszym -8527
szać -8528
▁mistrzem -8529
▁most -8530
▁Af -8531
▁argu -8532
▁szpitalu -8533
): -8534
▁Dor -8535
wic -8536
ik -8537
atur -8538
▁posił -8539
▁zała -8540
▁Doro -8541
żdż -8542
▁PZ -8543
▁ture -8544
▁Kamie -8545
▁wyprze -8546
▁Myśli -8547
▁wypu -8548
▁powołany -8549
▁wyglądał -8550
▁Mur -8551
twiej -8552
▁Dzień -8553
▁środowiska -8554
▁uści -8555
▁Argenty -8556
▁wtrą -8557
▁powią -8558
▁podziem -8559
▁niep -8560
▁odbiera -8561
▁ziemia -8562
▁przyznał -8563
zur -8564
▁raj -8565
rich -8566
▁zastanawia -8567
▁ex -8568
▁trium -8569
dzej -8570
▁osło -8571
róbu -8572
turą -8573
▁Zbignie -8574
▁złota -8575
▁get -8576
cieka -8577
▁walczył -8578
▁Bli -8579
▁mnóstwo -8580
▁hotelu -8581
▁Kan -8582
▁woda -8583
niętych -8584
▁usłyszał -8585
▁zdoła -8586
▁rodziną -8587
riu -8588
▁Szwecji -8589
alność -8590
▁Zat -8591
formy -8592
▁1955 -8593
▁Nacze -8594
▁poznał -8595
▁samobój -8596
▁niedaleko -8597
▁odpowiednio -8598
▁odręb -8599
dowania -8600
▁obchodzi -8601
▁trzydzieści -8602
dziny -8603
▁ćwierć -8604
▁wskutek -8605
▁pracować -8606
dania -8607
więcej -8608
▁Angeles -8609
▁Odw -8610
▁powrót -8611
La -8612
▁prędko -8613
▁obecność -8614
▁spali -8615
zdów -8616
ander -8617
▁kuzy -8618
▁Wojciech -8619
wczych -8620
▁wicepre -8621
seksu -8622
▁Chłop -8623
▁górze -8624
▁zbudowany -8625
▁zbu -8626
!". -8627
▁błęki -8628
▁twoim -8629
▁autorstwa -8630
▁znaleźli -8631
▁Iza -8632
▁Świe -8633
▁statek -8634
▁kobietę -8635
▁Van -8636
wentu -8637
▁pobytu -8638
▁kasz -8639
32 -8640
▁zbio -8641
▁suger -8642
▁32 -8643
▁książce -8644
▁małej -8645
▁kapelu -8646
58 -8647
czen -8648
▁celów -8649
▁rodzinę -8650
▁pisma -8651
▁postrze -8652
▁pospoli -8653
sil -8654
ciłem -8655
put -8656
▁1959 -8657
pp -8658
▁bibli -8659
szne -8660
▁nos -8661
▁odrze -8662
▁Związek -8663
▁chwil -8664
▁zacze -8665
». -8666
▁ilość -8667
▁Sali -8668
▁błyska -8669
▁mężczyźni -8670
▁Rosyj -8671
▁staran -8672
▁naukowych -8673
▁kiedykolwiek -8674
▁bior -8675
obo -8676
▁Dodat -8677
▁momentu -8678
grywając -8679
▁90 -8680
▁autora -8681
▁złotych -8682
▁Około -8683
▁Rec -8684
bienia -8685
▁Syn -8686
jonal -8687
ón -8688
▁melo -8689
▁podejm -8690
niesienie -8691
▁zami -8692
łki -8693
▁nieli -8694
▁osobą -8695
nionym -8696
▁częściej -8697
▁Legi -8698
▁medi -8699
▁średniej -8700
▁Rozpo -8701
anom -8702
fera -8703
ig -8704
▁Bran -8705
▁zby -8706
▁stowarzy -8707
▁czekać -8708
▁Cię -8709
▁Rumu -8710
owicza -8711
▁lesie -8712
▁Paryża -8713
▁gła -8714
▁sceny -8715
▁ref -8716
▁Ludwika -8717
wąt -8718
logię -8719
▁scenie -8720
▁specjalnie -8721
▁ranki -8722
▁1: -8723
klę -8724
▁rozsąd -8725
-8 -8726
way -8727
czów -8728
ction -8729
żonego -8730
▁użytku -8731
▁dowódcą -8732
▁drzwiami -8733
▁administracji -8734
chałem -8735
▁Jednym -8736
▁powierzchnię -8737
De -8738
▁linię -8739
▁wojennych -8740
▁Ex -8741
styn -8742
▁Kier -8743
▁ładu -8744
▁moderni -8745
wiga -8746
▁Boh -8747
▁bel -8748
foni -8749
▁piw -8750
▁1953 -8751
nionego -8752
▁lubel -8753
▁Michała -8754
▁spie -8755
▁Portu -8756
▁uspoko -8757
▁Franciszek -8758
▁pamiętam -8759
▁rozmawiać -8760
"; -8761
▁rzymskokatoli -8762
łuje -8763
▁toż -8764
▁posu -8765
▁znisz -8766
▁dobrego -8767
▁bywa -8768
▁ścianie -8769
wolni -8770
▁System -8771
▁homo -8772
▁uczę -8773
▁oszczę -8774
▁Wówczas -8775
▁dokonał -8776
▁Jean -8777
▁Skoro -8778
▁otwarte -8779
▁Eli -8780
▁Pis -8781
▁eki -8782
▁skóry -8783
▁pocisk -8784
kowskim -8785
▁dodatkowo -8786
▁krawę -8787
▁wzor -8788
▁małym -8789
▁interesu -8790
▁zbudowano -8791
56 -8792
31 -8793
▁przekra -8794
tarzem -8795
▁śledz -8796
Te -8797
▁zakończyła -8798
jnego -8799
tycznym -8800
▁sro -8801
▁ulega -8802
▁odniósł -8803
charze -8804
▁kadłu -8805
▁wnętrza -8806
▁szlachet -8807
tis -8808
▁kilkanaście -8809
▁las -8810
▁Filip -8811
34 -8812
▁Zako -8813
▁godzinie -8814
▁uważał -8815
lta -8816
▁elektro -8817
▁zachowania -8818
tno -8819
łąd -8820
wieniu -8821
▁Leo -8822
Wi -8823
łowa -8824
llege -8825
▁zwycięstwa -8826
▁spać -8827
▁młodzieży -8828
Ka -8829
inę -8830
liwy -8831
▁gdybym -8832
▁trudności -8833
▁Pię -8834
han -8835
▁dziesięciu -8836
▁wysokie -8837
stkę -8838
dzała -8839
▁myśla -8840
▁gabinetu -8841
▁rzeką -8842
▁alkoho -8843
hip -8844
▁wyobraź -8845
▁400 -8846
▁końc -8847
▁towarzyszy -8848
▁Hor -8849
▁musimy -8850
arni -8851
▁szyi -8852
▁zwolni -8853
▁umiejętności -8854
legan -8855
▁pozostałe -8856
pus -8857
▁Szkole -8858
▁silnie -8859
▁Marian -8860
▁głupi -8861
▁cyklu -8862
▁ses -8863
▁granicę -8864
▁podział -8865
▁królowej -8866
▁filozofii -8867
▁kobietą -8868
▁metro -8869
rd -8870
czak -8871
dzów -8872
▁Żeby -8873
▁Lar -8874
▁sia -8875
▁Anny -8876
kcji -8877
dzonym -8878
▁Społe -8879
▁spoży -8880
▁rolni -8881
giej -8882
rości -8883
▁nadziei -8884
▁Roy -8885
▁procesu -8886
▁Izraela -8887
.), -8888
▁dzieckiem -8889
▁1926 -8890
▁mani -8891
▁fałszy -8892
▁wspina -8893
▁pracuje -8894
naty -8895
rozu -8896
▁cieszy -8897
▁zamian -8898
36 -8899
nnym -8900
▁strachu -8901
▁ciemno -8902
▁tłumacza -8903
kały -8904
▁przegrał -8905
▁osi -8906
▁Mark -8907
żon -8908
▁funda -8909
▁Przyja -8910
▁starszy -8911
▁kształcie -8912
rur -8913
▁asyst -8914
▁naukę -8915
▁jedyną -8916
▁Wojewódz -8917
▁wybudowano -8918
▁Gil -8919
▁obrazy -8920
żną -8921
▁procent -8922
bki -8923
▁miastem -8924
FA -8925
▁ogród -8926
▁aresztowany -8927
▁Sel -8928
▁dawnej -8929
▁najgor -8930
▁ruchem -8931
▁skry -8932
▁stawia -8933
▁Marcin -8934
żyło -8935
▁dziedzinie -8936
mić -8937
▁kwad -8938
▁waha -8939
▁Wielka -8940
stach -8941
▁Pała -8942
▁misji -8943
gs -8944
zaj -8945
▁łączy -8946
mentach -8947
▁poczuł -8948
szałam -8949
▁żadne -8950
▁przyjdzie -8951
/201 -8952
▁wojewo -8953
▁1931 -8954
▁usił -8955
▁Saint -8956
▁Chrystusa -8957
czają -8958
▁gotów -8959
sud -8960
▁Wałę -8961
▁pozba -8962
▁zasło -8963
prawdopodobniej -8964
▁zbie -8965
▁Maggie -8966
▁kapitu -8967
▁zwycięz -8968
29 -8969
nał -8970
torze -8971
▁Macie -8972
▁miesiąc -8973
cuje -8974
zało -8975
▁dziwne -8976
nati -8977
żnych -8978
▁śmiechem -8979
▁świetle -8980
▁Prawa -8981
▁Gdańsku -8982
▁powiąza -8983
▁milczeniu -8984
rali -8985
nosić -8986
▁wejść -8987
▁załogi -8988
▁powstanie -8989
▁Br -8990
czały -8991
▁starych -8992
bus -8993
▁cesarz -8994
▁mni -8995
stre -8996
▁dre -8997
▁obni -8998
magał -8999
67 -9000
▁plany -9001
▁Bibliote -9002
kładem -9003
▁zamierza -9004
▁znalazły -9005
▁przeniesiony -9006
▁pamięć -9007
▁regionu -9008
▁rewolucji -9009
▁przerwał -9010
▁istocie -9011
▁trzymał -9012
▁stanow -9013
▁Hele -9014
▁Ameryce -9015
▁Stefana -9016
▁polską -9017
▁ogo -9018
▁tera -9019
▁1927 -9020
▁odwrócił -9021
▁Włoszech -9022
▁działo -9023
▁funkcje -9024
▁spowod -9025
▁czasy -9026
▁królem -9027
▁relacji -9028
▁mody -9029
▁większej -9030
ógł -9031
▁duchu -9032
▁samochodów -9033
▁dociera -9034
▁olimpijskich -9035
▁Now -9036
▁1932 -9037
▁okien -9038
▁przedstawicieli -9039
ngu -9040
▁astro -9041
▁Litera -9042
▁powietrz -9043
szłam -9044
▁Sar -9045
▁kary -9046
należ -9047
▁muzyka -9048
▁Powiedz -9049
▁zabija -9050
lad -9051
▁wyraża -9052
▁zadania -9053
▁ojcu -9054
owskie -9055
ńscy -9056
▁elektroni -9057
logia -9058
▁45 -9059
▁zapra -9060
▁amerykańskiej -9061
rzeni -9062
▁straty -9063
▁wydana -9064
▁Nat -9065
▁zgu -9066
ast -9067
osła -9068
▁krótki -9069
enu -9070
]. -9071
▁wynosiła -9072
▁Tek -9073
▁VIII -9074
lokaliz -9075
▁niezbę -9076
▁ofiary -9077
żyłam -9078
▁brwi -9079
▁Gri -9080
▁winy -9081
▁panem -9082
waku -9083
stolat -9084
ktora -9085
▁dokąd -9086
▁mężem -9087
▁wicemi -9088
▁słychać -9089
▁Zanim -9090
▁Janusz -9091
▁wydała -9092
▁kap -9093
▁wodzie -9094
▁dawnego -9095
▁Dre -9096
▁Jezio -9097
▁strzał -9098
ов -9099
▁wyku -9100
▁grunt -9101
▁opisy -9102
▁realiz -9103
▁grać -9104
pha -9105
▁ponu -9106
▁figu -9107
▁strach -9108
▁podlega -9109
▁perspekty -9110
21 -9111
kując -9112
▁Dal -9113
▁sos -9114
▁przekonać -9115
▁międzywojen -9116
▁ryt -9117
▁połączenie -9118
jad -9119
▁linie -9120
cher -9121
▁wilgot -9122
▁twórczości -9123
▁Chodź -9124
▁Antoni -9125
▁podporząd -9126
bija -9127
▁grozi -9128
▁grę -9129
▁oboje -9130
▁powieść -9131
▁niewol -9132
▁obiektów -9133
▁pełno -9134
▁porzu -9135
▁wyścigu -9136
dzkim -9137
▁zamiar -9138
▁wyczer -9139
zuł -9140
▁fili -9141
▁cia -9142
▁skłon -9143
▁kontroli -9144
▁mężczyzny -9145
▁podszedł -9146
▁osobiście -9147
▁pozwal -9148
▁stal -9149
▁bazie -9150
▁dwudziestu -9151
▁stopniowo -9152
▁Skar -9153
▁kadry -9154
▁Port -9155
▁żołnierz -9156
▁funkcjonu -9157
▁wykry -9158
▁radości -9159
ame -9160
▁Rada -9161
▁podpis -9162
▁Gospod -9163
lda -9164
asad -9165
▁Prawdopodob -9166
▁opat -9167
▁Open -9168
▁cisza -9169
▁porozmawiać -9170
▁muzykę -9171
▁podobny -9172
▁dzieł -9173
▁Poja -9174
▁sprób -9175
▁Małgorz -9176
▁zwany -9177
▁dziennik -9178
▁Vo -9179
▁Łuka -9180
▁jedena -9181
bum -9182
▁węz -9183
▁nowi -9184
▁dodała -9185
▁kolejno -9186
▁Sco -9187
▁twojej -9188
▁dż -9189
▁Zasłu -9190
▁niemieckim -9191
gium -9192
kazały -9193
▁Dzieci -9194
▁Politechni -9195
lanie -9196
▁trz -9197
▁saty -9198
▁Niektórzy -9199
▁wojskowej -9200
yer -9201
skoń -9202
szewski -9203
▁komend -9204
▁powiat -9205
▁plat -9206
▁dobrą -9207
▁konstytu -9208
▁przebo -9209
▁bas -9210
▁zapis -9211
polskiego -9212
urne -9213
▁mio -9214
formu -9215
26 -9216
pto -9217
▁stacja -9218
▁Urzę -9219
▁dystan -9220
▁ludność -9221
33 -9222
49 -9223
waran -9224
▁deko -9225
▁1923 -9226
owywał -9227
▁Jerozo -9228
▁proboszcz -9229
▁5. -9230
▁sprawach -9231
KA -9232
stian -9233
▁reprezentu -9234
▁ir -9235
▁krąż -9236
czkach -9237
▁wygranym -9238
kul -9239
owny -9240
▁Nar -9241
▁krzyw -9242
▁ucho -9243
▁poż -9244
▁żywi -9245
▁Książę -9246
heim -9247
sus -9248
▁równa -9249
noślą -9250
▁trasy -9251
▁Pomyśl -9252
▁naprzód -9253
▁Ależ -9254
▁wygo -9255
▁itp -9256
▁orga -9257
?". -9258
▁sobo -9259
▁przyszłość -9260
orskim -9261
▁organ -9262
▁przejść -9263
new -9264
▁przeciwieństwie -9265
▁man -9266
▁mon -9267
szyb -9268
▁kontu -9269
▁ukazała -9270
▁maj -9271
tyczną -9272
▁gatunki -9273
▁jąd -9274
▁koła -9275
▁wiedziałem -9276
macie -9277
▁Fili -9278
▁Kraków -9279
▁podłodze -9280
utów -9281
▁użytkow -9282
cro -9283
▁gład -9284
▁marki -9285
▁schro -9286
fak -9287
▁podał -9288
▁długość -9289
▁kolejną -9290
owce -9291
▁komite -9292
szkę -9293
piony -9294
▁Rez -9295
▁nikomu -9296
▁Blo -9297
▁złożył -9298
▁ulic -9299
▁zajęcia -9300
▁krzyknął -9301
▁Pło -9302
lery -9303
▁Den -9304
▁morze -9305
▁zapowie -9306
▁Bułgar -9307
▁nieustan -9308
▁sprawdzić -9309
▁loka -9310
kręcił -9311
▁wiemy -9312
▁ugrup -9313
▁Harry -9314
▁mru -9315
▁szedł -9316
▁Jedna -9317
▁elegan -9318
▁sześci -9319
▁Mach -9320
▁pośpie -9321
▁wyjątkowo -9322
▁PK -9323
▁zaopat -9324
▁trwała -9325
sor -9326
▁uwię -9327
▁podejrze -9328
▁cesar -9329
▁Instytucie -9330
urze -9331
beli -9332
ownicy -9333
kowania -9334
▁History -9335
▁płyną -9336
▁społeczności -9337
▁demokra -9338
▁smak -9339
▁unika -9340
▁spacer -9341
▁brązowy -9342
37 -9343
▁Agnie -9344
▁Monte -9345
▁sytuację -9346
▁wydzie -9347
▁promieni -9348
dźwie -9349
▁pielę -9350
▁trwał -9351
▁Palesty -9352
▁Juli -9353
▁kimś -9354
▁hrabia -9355
twę -9356
▁popo -9357
▁skró -9358
▁plecami -9359
▁wytwarza -9360
▁pw -9361
sili -9362
▁stosunkowo -9363
▁chodziło -9364
ńsk -9365
▁30. -9366
▁Nowa -9367
▁poszła -9368
▁Fla -9369
▁bał -9370
▁małego -9371
▁dopu -9372
▁zapas -9373
▁odsu -9374
▁znać -9375
▁Kated -9376
▁opisu -9377
▁piękne -9378
▁karę -9379
95 -9380
amo -9381
▁usi -9382
▁panowania -9383
▁zaby -9384
▁odsło -9385
owaliśmy -9386
fal -9387
▁uczucie -9388
owal -9389
misja -9390
terium -9391
▁prowadzić -9392
▁więzieniu -9393
▁CHNO -9394
nkę -9395
▁duża -9396
▁najp -9397
▁chłopca -9398
▁50. -9399
ateli -9400
ownika -9401
▁przera -9402
źnia -9403
▁Prawo -9404
▁obrazu -9405
▁Holandii -9406
▁Sim -9407
▁wniosku -9408
logiczne -9409
▁Wcześniej -9410
▁wystarczy -9411
▁wprowadzono -9412
▁Mac -9413
▁słab -9414
▁opuszcza -9415
▁stworzył -9416
▁IX -9417
niętą -9418
▁reform -9419
mad -9420
tany -9421
▁Kal -9422
▁koszy -9423
ental -9424
▁Wyższej -9425
▁ang -9426
▁trzecim -9427
riar -9428
▁sak -9429
▁żył -9430
▁Poni -9431
▁spektak -9432
▁założony -9433
▁wprawdzie -9434
▁klasie -9435
▁więźniów -9436
▁den -9437
żoną -9438
ux -9439
jek -9440
▁warszt -9441
▁kontynuował -9442
▁uto -9443
▁licen -9444
▁powiedz -9445
lonia -9446
▁Czasem -9447
▁rozej -9448
▁słowem -9449
▁wyjaśnie -9450
wnym -9451
▁cios -9452
▁Dą -9453
▁kal -9454
▁tacy -9455
▁rozry -9456
▁zdania -9457
▁zatwier -9458
▁Bisku -9459
▁napast -9460
▁premier -9461
▁niewielkie -9462
▁Trudno -9463
▁rokiem -9464
twi -9465
▁Wym -9466
owuje -9467
▁dywizji -9468
▁bolszewi -9469
▁ostatnio -9470
▁zająć -9471
▁KM -9472
▁Mnie -9473
OS -9474
▁pocze -9475
▁Roberta -9476
44 -9477
razić -9478
▁Śląska -9479
orth -9480
▁wypły -9481
▁fragment -9482
▁forte -9483
▁powiedziałam -9484
▁wolność -9485
71 -9486
jna -9487
▁Zaczę -9488
ond -9489
▁Yo -9490
ctor -9491
gnąć -9492
owiska -9493
▁chciałam -9494
gania -9495
▁Black -9496
▁językiem -9497
▁publicznej -9498
też -9499
▁zabie -9500
▁spada -9501
▁Ai -9502
▁szczerze -9503
dność -9504
▁łazie -9505
▁patrzeć -9506
▁Jos -9507
▁promo -9508
66 -9509
▁lor -9510
▁Węgier -9511
▁dzieli -9512
▁rozmowa -9513
▁tworząc -9514
▁regional -9515
▁wisi -9516
▁namię -9517
▁powodów -9518
▁porównaniu -9519
elle -9520
▁własnością -9521
In -9522
▁działanie -9523
▁przykry -9524
łm -9525
▁Tem -9526
▁Biel -9527
▁domem -9528
▁sporo -9529
▁poję -9530
owicie -9531
▁pija -9532
▁politycznej -9533
▁zakon -9534
▁kłó -9535
▁najlepsze -9536
▁równocześnie -9537
22 -9538
▁powtórzył -9539
▁rezult -9540
▁wytłuma -9541
mur -9542
▁sir -9543
▁republi -9544
▁Witold -9545
Mar -9546
▁Vol -9547
▁obaj -9548
jskiego -9549
Do -9550
OP -9551
▁Będzie -9552
brał -9553
▁handlu -9554
▁ogólno -9555
▁tygodnia -9556
▁południa -9557
bii -9558
▁dworu -9559
▁Młodzie -9560
▁obszaru -9561
▁studentów -9562
tyczna -9563
▁podium -9564
▁substan -9565
▁zachowanie -9566
hl -9567
▁Tim -9568
▁prezbi -9569
▁Tadeusza -9570
▁intelektu -9571
▁społecznych -9572
▁Miło -9573
▁walkach -9574
wans -9575
▁Sym -9576
▁zlokaliz -9577
lit -9578
Ba -9579
▁oży -9580
strów -9581
▁uświado -9582
▁dowiedzieć -9583
ords -9584
▁hrabiego -9585
▁siat -9586
▁pieśni -9587
▁księżni -9588
▁przyznać -9589
▁zza -9590
▁Julia -9591
▁cierpi -9592
▁opowieści -9593
St -9594
▁tygodniu -9595
▁zakresu -9596
▁jednostka -9597
ring -9598
▁starał -9599
▁skompli -9600
▁siedmiu -9601
etr -9602
–201 -9603
▁160 -9604
▁brzeg -9605
▁białych -9606
▁zachować -9607
szając -9608
▁kawałek -9609
styczny -9610
dnicy -9611
▁oporu -9612
▁Podstaw -9613
wione -9614
▁cechy -9615
▁straszli -9616
▁największym -9617
▁identy -9618
▁stanowiły -9619
▁Razem -9620
▁Ukrainy -9621
świat -9622
▁poezji -9623
▁cmentarz -9624
▁zły -9625
dzeni -9626
wanego -9627
pą -9628
pana -9629
szości -9630
▁powoduje -9631
▁zbiór -9632
▁powszechnie -9633
nowo -9634
▁czarny -9635
szach -9636
▁Prawdopodobnie -9637
▁nade -9638
▁sens -9639
niejszego -9640
▁przyg -9641
tania -9642
mość -9643
▁wyra -9644
chą -9645
ołem -9646
▁tury -9647
▁Afryki -9648
▁Zygmunt -9649
▁ciężkie -9650
▁Got -9651
▁główne -9652
▁chorych -9653
▁pokładzie -9654
▁resztę -9655
▁opada -9656
▁szczu -9657
▁ustach -9658
▁codziennie -9659
▁Kim -9660
▁pokazy -9661
▁pomnik -9662
▁przystan -9663
lady -9664
▁Atlan -9665
▁samoloty -9666
▁największą -9667
▁skali -9668
▁stronach -9669
ugh -9670
▁Gor -9671
▁Sejmu -9672
▁wzrost -9673
▁towarzystwie -9674
tóż -9675
▁opuści -9676
▁ap -9677
MP -9678
▁stamtąd -9679
skute -9680
▁poczuła -9681
▁szwa -9682
▁największe -9683
▁społecznej -9684
▁3, -9685
▁tań -9686
▁pełnym -9687
▁Bożej -9688
▁latem -9689
▁zag -9690
kazano -9691
▁nastro -9692
▁prędkości -9693
▁usy -9694
▁zarządu -9695
▁Zi -9696
▁filozofi -9697
▁Dobra -9698
▁przet -9699
▁początk -9700
wili -9701
end -9702
▁pójść -9703
▁terenach -9704
▁leżał -9705
szonych -9706
▁gale -9707
▁firmę -9708
▁wysoki -9709
▁przysta -9710
kało -9711
▁kultur -9712
▁grupą -9713
▁egzemplarzy -9714
▁znajdzie -9715
▁dowództwem -9716
▁Blu -9717
▁Zdoby -9718
▁pewną -9719
▁znakomi -9720
kru -9721
▁współpracę -9722
▁Cały -9723
▁wroga -9724
▁grający -9725
▁sukcesy -9726
▁Europejskiej -9727
52 -9728
▁grafi -9729
▁hodow -9730
▁defini -9731
▁narko -9732
▁pokład -9733
▁przyczyną -9734
lany -9735
tacja -9736
▁inna -9737
▁roześ -9738
pora -9739
▁wino -9740
▁stę -9741
▁Poczu -9742
▁założenia -9743
▁lewo -9744
lność -9745
59 -9746
77 -9747
▁Krajowej -9748
▁Piłsud -9749
▁urzędu -9750
▁Parla -9751
▁ceremo -9752
▁szer -9753
▁Należ -9754
▁łatwiej -9755
ky -9756
▁UE -9757
▁Zim -9758
▁Chor -9759
▁Hono -9760
▁dołączył -9761
▁byle -9762
▁rock -9763
▁Wielu -9764
▁kosmi -9765
nują -9766
polski -9767
▁twarzą -9768
▁pierście -9769
▁francuskiej -9770
▁Mama -9771
biegła -9772
tniczej -9773
sna -9774
▁zasi -9775
▁podaje -9776
▁przemo -9777
cław -9778
▁gnia -9779
▁lekarza -9780
▁CD -9781
jnie -9782
▁Maj -9783
manie -9784
▁słyszał -9785
▁ostrożnie -9786
▁front -9787
▁serde -9788
▁głosie -9789
▁czyni -9790
▁Bun -9791
ankę -9792
AL -9793
▁pozby -9794
▁okręty -9795
bój -9796
leniem -9797
ingu -9798
▁fut -9799
rodą -9800
żonym -9801
▁adwo -9802
dowego -9803
▁samorząd -9804
▁inform -9805
▁sekund -9806
▁krajobraz -9807
▁zdolności -9808
▁francuskiego -9809
▁dynastii -9810
▁Ces -9811
trafi -9812
▁Dost -9813
▁Pucharze -9814
tnik -9815
▁niespodzie -9816
▁europejskich -9817
▁Szczeci -9818
▁Jezusa -9819
▁Katoli -9820
▁drzewo -9821
▁kapitana -9822
▁1915 -9823
▁usiadł -9824
▁funkcjona -9825
▁[... -9826
▁serwi -9827
▁dróg -9828
▁Jezus -9829
czyński -9830
▁School -9831
▁żal -9832
▁poseł -9833
▁zmieniła -9834
▁krokiem -9835
stokra -9836
▁terenu -9837
▁silnika -9838
▁zawodników -9839
▁Nagro -9840
prowadził -9841
▁uwzglę -9842
▁pracowała -9843
▁Del -9844
▁pożar -9845
▁Imperium -9846
▁zadaniem -9847
▁wpada -9848
trzymała -9849
▁hała -9850
przewodni -9851
SP -9852
▁Johan -9853
▁Polskę -9854
▁rzuciła -9855
con -9856
▁medycy -9857
▁duszę -9858
rzonych -9859
gel -9860
▁pobo -9861
▁dziećmi -9862
niąc -9863
ofi -9864
▁38 -9865
▁bramek -9866
▁przemysłu -9867
▁120 -9868
▁XII -9869
▁Dę -9870
▁odwoła -9871
iz -9872
▁kurs -9873
▁nosem -9874
▁używane -9875
▁igrzyskach -9876
kak -9877
korzy -9878
▁gier -9879
▁płaszcz -9880
▁Tę -9881
▁Krzyża -9882
▁poziomu -9883
lać -9884
żąc -9885
nionej -9886
▁dorad -9887
▁Uczest -9888
▁Najświęt -9889
▁umar -9890
▁Świad -9891
▁życi -9892
▁służb -9893
▁zakry -9894
▁rozwiązania -9895
▁Mamy -9896
▁zdecydowanie -9897
▁opo -9898
▁sypialni -9899
ses -9900
▁Peter -9901
▁nieskoń -9902
niesieniu -9903
ves -9904
▁zaka -9905
▁Mało -9906
kazują -9907
▁liczyć -9908
▁rezyden -9909
▁cokolwiek -9910
▁publikacji -9911
42 -9912
▁zachodu -9913
▁skarb -9914
▁cień -9915
▁kroków -9916
▁Konstanty -9917
▁małżeństwo -9918
▁udzie -9919
▁treści -9920
wiło -9921
▁prezesem -9922
Cz -9923
olo -9924
▁trwo -9925
▁inwesty -9926
▁przytu -9927
jnym -9928
▁zgodził -9929
▁chorą -9930
▁ewaku -9931
▁India -9932
▁Została -9933
▁Szwajcarii -9934
łac -9935
knie -9936
▁udaje -9937
▁warst -9938
▁macierzy -9939
ney -9940
▁oca -9941
▁standard -9942
▁rządów -9943
▁panowie -9944
▁zaproponował -9945
nioną -9946
▁Taki -9947
▁ambi -9948
▁zorient -9949
▁wstał -9950
▁Szkoła -9951
▁przestrzeń -9952
▁Owszem -9953
▁Wene -9954
▁szefem -9955
▁mą -9956
▁Daw -9957
nur -9958
ryte -9959
glądając -9960
nomii -9961
▁oszu -9962
ńczyków -9963
▁Napole -9964
▁dziewią -9965
dzieliśmy -9966
▁istniała -9967
▁proste -9968
▁wystąpiła -9969
▁Kara -9970
▁pokoj -9971
▁orbi -9972
▁stół -9973
▁sensu -9974
▁staty -9975
rzonego -9976
▁negaty -9977
tonu -9978
▁pisać -9979
Pro -9980
▁Cu -9981
kują -9982
dora -9983
▁Mich -9984
▁wystart -9985
▁Can -9986
▁włosów -9987
▁Dawi -9988
▁wyglądała -9989
▁Abra -9990
▁paru -9991
▁Broni -9992
▁buty -9993
▁koro -9994
▁rana -9995
osenek -9996
▁Daniel -9997
▁niektórzy -9998
ńcz -9999
▁Ogólno -10000
gada -10001
▁parafia -10002
▁ambas -10003
▁pewnej -10004
▁batalionu -10005
46 -10006
▁materiału -10007
▁najważniejszych -10008
▁lotu -10009
▁tymczas -10010
▁wskazy -10011
dują -10012
▁Ala -10013
▁ulicę -10014
▁Tyle -10015
▁wkro -10016
▁Kalifor -10017
▁młodzi -10018
▁zmianę -10019
▁powstrzymać -10020
Al -10021
▁niezbyt -10022
pty -10023
▁Far -10024
▁niemu -10025
▁odcinek -10026
▁waka -10027
▁wyróżnia -10028
pała -10029
zeku -10030
▁istnieją -10031
▁Stowarzyszenia -10032
czli -10033
czyka -10034
▁Ostatni -10035
▁prześla -10036
knąć -10037
▁Sąd -10038
▁Bibli -10039
letniej -10040
▁takimi -10041
▁brytyjski -10042
▁prawdziwe -10043
▁Ode -10044
▁wspomnia -10045
▁radę -10046
▁rocz -10047
▁Zamie -10048
▁Maciej -10049
▁ciśnie -10050
▁jechać -10051
▁ogół -10052
▁dystry -10053
▁rezer -10054
▁własność -10055
▁zrezygnował -10056
towej -10057
▁rozmi -10058
▁Ludwik -10059
▁zo -10060
pływ -10061
▁obronie -10062
▁większy -10063
zowie -10064
▁edycji -10065
▁inspek -10066
▁zastąpił -10067
57 -10068
▁zamów -10069
▁August -10070
▁dywizj -10071
▁tekstu -10072
▁wejścia -10073
▁warunków -10074
▁uśmiechnęła -10075
rest -10076
▁nazi -10077
pieniu -10078
▁liczy -10079
▁kwestii -10080
▁niedawno -10081
▁Kost -10082
▁ponie -10083
▁uciec -10084
▁wpadł -10085
▁zesta -10086
▁odrobi -10087
”). -10088
▁Koło -10089
▁piosenek -10090
▁realizacji -10091
▁sprawował -10092
▁Psy -10093
▁Kate -10094
▁papież -10095
▁urządzenia -10096
ksy -10097
▁Opera -10098
▁konfli -10099
▁młodości -10100
23 -10101
98 -10102
pet -10103
▁lam -10104
▁progu -10105
▁pięcio -10106
owic -10107
▁wydawał -10108
leba -10109
▁dowodził -10110
onymi -10111
▁Głównym -10112
czkami -10113
dagogi -10114
▁wyzwo -10115
bij -10116
▁Buk -10117
▁barwy -10118
▁różno -10119
▁Kit -10120
▁chó -10121
▁posł -10122
▁mieszkań -10123
▁wysokość -10124
prawę -10125
wacji -10126
▁cele -10127
▁zwierzęta -10128
▁powrotu -10129
▁Jona -10130
▁Instytut -10131
tele -10132
▁pió -10133
▁błąd -10134
▁wyjątk -10135
ienie -10136
▁pada -10137
▁młoda -10138
▁ucieka -10139
mith -10140
▁mruknął -10141
▁skło -10142
▁zabrać -10143
bera -10144
▁Lie -10145
▁wyciągnął -10146
47 -10147
▁Thomas -10148
▁pokazać -10149
▁Poch -10150
▁spółki -10151
▁przeraż -10152
▁Zawo -10153
▁spadł -10154
the -10155
▁sposobem -10156
▁ozdob -10157
▁zapamię -10158
▁Mora -10159
61 -10160
▁sądu -10161
▁schodach -10162
▁Wspól -10163
▁Pły -10164
tta -10165
▁pełen -10166
▁narciar -10167
▁zastanawi -10168
▁Bog -10169
▁formę -10170
▁gazet -10171
▁plane -10172
▁zaczęto -10173
▁dole -10174
▁dwaj -10175
▁amerykańskiego -10176
▁zwykł -10177
▁izrael -10178
▁krótkim -10179
▁znajdowało -10180
żonej -10181
▁Clar -10182
▁przeciwnika -10183
▁Koz -10184
▁sensie -10185
▁praktycznie -10186
▁poran -10187
▁drewna -10188
▁uważnie -10189
▁teore -10190
▁zdawało -10191
▁Leona -10192
▁miłos -10193
▁wskazuje -10194
▁inteligen -10195
▁Gry -10196
▁religii -10197
▁doli -10198
▁remont -10199
▁rozleg -10200
▁bracia -10201
▁najmłod -10202
▁Don -10203
▁Najbardziej -10204
▁Otwo -10205
▁obsa -10206
▁polityczne -10207
▁święto -10208
▁wykonał -10209
▁malar -10210
▁chłopiec -10211
▁bomb -10212
▁oddy -10213
nictwem -10214
▁Nag -10215
▁poczę -10216
▁piosenka -10217
▁wszelkich -10218
63 -10219
iem -10220
▁Ośrod -10221
▁pokar -10222
▁zmysł -10223
▁planie -10224
▁mieszkanie -10225
▁), -10226
▁Rado -10227
▁Bernar -10228
dzka -10229
▁Lea -10230
▁demon -10231
▁bun -10232
▁kontynen -10233
▁tysiąc -10234
▁rosyjskiej -10235
▁wersję -10236
▁terenów -10237
▁łódz -10238
▁statu -10239
kiewicza -10240
▁Państwa -10241
▁brzy -10242
▁pras -10243
▁podnie -10244
▁publicy -10245
▁holender -10246
▁ramieniu -10247
pular -10248
▁zdjęcie -10249
▁ca -10250
▁Usta -10251
▁floty -10252
▁przyczyn -10253
▁Domi -10254
▁Znowu -10255
▁budynki -10256
▁ostatnią -10257
▁ewentu -10258
▁Mistrzostw -10259
esa -10260
lała -10261
”) -10262
▁Róż -10263
▁sprzed -10264
▁szczegó -10265
▁Fir -10266
▁oblę -10267
kowała -10268
▁pełną -10269
▁pou -10270
▁Kre -10271
▁przyjąć -10272
BA -10273
głów -10274
▁Sol -10275
▁Kole -10276
▁niena -10277
budowany -10278
▁tramwaj -10279
bło -10280
tler -10281
▁siła -10282
▁kroki -10283
▁przewidy -10284
adowo -10285
▁królowa -10286
▁nieobec -10287
▁Towarzystwo -10288
regu -10289
▁podstawowym -10290
kel -10291
dzią -10292
▁kupić -10293
stały -10294
▁Ewa -10295
▁Zrobi -10296
▁wojsko -10297
wcy -10298
▁now -10299
▁United -10300
zował -10301
27 -10302
mas -10303
▁Poje -10304
▁dnie -10305
▁2: -10306
▁Ama -10307
mierz -10308
▁Parafi -10309
▁walczyć -10310
▁syl -10311
▁recen -10312
▁upamię -10313
▁Chciała -10314
▁przyspie -10315
atami -10316
▁kompanii -10317
▁koncentra -10318
▁wer -10319
▁mater -10320
▁pogląd -10321
▁błogosła -10322
▁pośród -10323
▁wrę -10324
▁Feli -10325
▁tronu -10326
▁zauważyła -10327
▁Bil -10328
▁szczycie -10329
▁wiedzieli -10330
▁Ara -10331
▁Krze -10332
▁zagi -10333
▁wioski -10334
▁gli -10335
▁przekazy -10336
dzięk -10337
▁Moje -10338
▁Siedzi -10339
▁trudne -10340
▁przerwy -10341
▁Raz -10342
▁granicą -10343
sied -10344
▁Lee -10345
▁Inne -10346
bó -10347
niosek -10348
▁strasznie -10349
wice -10350
▁poet -10351
▁rekord -10352
żeni -10353
▁Bet -10354
lata -10355
▁głosy -10356
▁kolana -10357
▁otwarcie -10358
tując -10359
▁nastąpił -10360
pka -10361
łaś -10362
▁Pułk -10363
▁wysyła -10364
▁wir -10365
▁Należy -10366
▁dwoje -10367
▁Robo -10368
▁Wojen -10369
▁Bezpie -10370
▁zamyka -10371
ńczycy -10372
▁brakowało -10373
41 -10374
▁Rock -10375
▁uchy -10376
▁dzielni -10377
▁książka -10378
▁batalion -10379
▁przestał -10380
▁dotyczących -10381
trzeć -10382
▁neuro -10383
▁Prób -10384
▁Czemu -10385
▁przecię -10386
▁ludu -10387
lania -10388
▁rozległ -10389
▁arystokra -10390
dzoną -10391
▁triumf -10392
▁wysy -10393
▁przywró -10394
gowy -10395
▁jaj -10396
▁kas -10397
ołnie -10398
▁kaplicy -10399
▁Prus -10400
grafia -10401
klo -10402
▁uzysku -10403
▁Wiedniu -10404
▁Phi -10405
▁rakiet -10406
▁Augusta -10407
▁Ile -10408
▁Rysz -10409
skać -10410
▁wspó -10411
▁prom -10412
▁stale -10413
▁konkursie -10414
▁oder -10415
▁wybór -10416
entuzja -10417
▁Liceum -10418
▁zarząd -10419
wcze -10420
wzię -10421
▁Rzymu -10422
▁Odzna -10423
▁Kij -10424
▁nawie -10425
▁uczuć -10426
▁ukocha -10427
▁labo -10428
▁Byłem -10429
▁autobus -10430
▁zobowiąza -10431
▁mieszkaniu -10432
waler -10433
▁Zbro -10434
nas -10435
mawi -10436
czanie -10437
▁wystą -10438
▁kamień -10439
gun -10440
▁muzuł -10441
▁żadnym -10442
▁zapisa -10443
▁święta -10444
dry -10445
rując -10446
▁przod -10447
▁hipote -10448
▁złośli -10449
rowana -10450
▁słuchać -10451
AC -10452
▁170 -10453
Dzie -10454
▁Znów -10455
▁wycof -10456
owu -10457
dzielić -10458
▁powinny -10459
▁Pierwo -10460
chium -10461
▁Francis -10462
▁Czyli -10463
▁najwyraźniej -10464
▁Mis -10465
▁dodatku -10466
king -10467
▁Czego -10468
cznością -10469
▁Wier -10470
▁żadna -10471
▁wyciąga -10472
▁terytori -10473
▁pozostały -10474
▁Was -10475
▁powinie -10476
▁Glo -10477
mierza -10478
▁Jakby -10479
▁Vale -10480
▁umoc -10481
bienie -10482
▁Kiedyś -10483
▁wyprawy -10484
▁przyniósł -10485
▁Pot -10486
▁ożenił -10487
▁obfi -10488
▁Mah -10489
▁chy -10490
▁wymi -10491
▁zwol -10492
▁apara -10493
▁zespołów -10494
▁nieszczęśli -10495
ken -10496
▁Ludowej -10497
▁koali -10498
▁perku -10499
▁Jacek -10500
▁metra -10501
▁cerkwi -10502
▁kontrol -10503
▁leci -10504
▁dyscypli -10505
gg -10506
sky -10507
▁Pracował -10508
pek -10509
▁ner -10510
▁zary -10511
▁pozostała -10512
terem -10513
phy -10514
sche -10515
▁sądzę -10516
kowanie -10517
▁największy -10518
▁komo -10519
▁Powiedział -10520
lnia -10521
▁Joe -10522
słych -10523
▁Święto -10524
▁wydania -10525
▁rejestru -10526
▁vi -10527
▁mowy -10528
▁fazie -10529
▁uzyskała -10530
ccy -10531
▁Obrony -10532
▁uroczystości -10533
▁Lewi -10534
▁Autor -10535
▁Natu -10536
▁facet -10537
▁nosił -10538
▁trenerem -10539
towy -10540
▁bole -10541
▁płytę -10542
▁siedziała -10543
▁sum -10544
▁Stara -10545
▁komplek -10546
▁zawołała -10547
▁umieszczono -10548
▁głąb -10549
▁mówisz -10550
▁artystów -10551
▁regionie -10552
▁fry -10553
▁Miejscowość -10554
▁Fra -10555
▁trenera -10556
▁Świą -10557
niętym -10558
▁próbę -10559
Pol -10560
ming -10561
▁Fryderyka -10562
▁piel -10563
▁Polacy -10564
▁", -10565
▁jaski -10566
▁Gimnazjum -10567
głos -10568
▁cyt -10569
unkiem -10570
▁Barba -10571
▁posie -10572
▁tamtego -10573
tują -10574
styki -10575
▁obiekty -10576
▁skazany -10577
Sa -10578
▁najszyb -10579
▁szpital -10580
▁przynależ -10581
▁Edu -10582
▁wyborów -10583
▁podejrza -10584
ppe -10585
▁protestan -10586
▁Śmier -10587
skoczył -10588
▁biorąc -10589
▁wskaza -10590
▁ber -10591
torzy -10592
wskie -10593
zycji -10594
▁kawi -10595
▁posą -10596
▁brutal -10597
▁York -10598
▁preten -10599
▁zrozumiał -10600
▁profesorem -10601
edy -10602
▁ścianę -10603
▁» -10604
tero -10605
owatych -10606
▁północny -10607
▁produkcję -10608
kara -10609
rość -10610
mistrza -10611
▁komórki -10612
symi -10613
▁Kobieta -10614
▁szansę -10615
żki -10616
▁uwiel -10617
▁hum -10618
budow -10619
▁Ameri -10620
▁Edwar -10621
▁skal -10622
▁Radio -10623
▁ciąży -10624
stycznej -10625
▁prawem -10626
ide -10627
▁niemożliwe -10628
dzam -10629
chając -10630
▁instruk -10631
▁okrzy -10632
▁rycer -10633
▁przestra -10634
▁żydowskiej -10635
▁okazała -10636
▁wyproduk -10637
wanej -10638
▁zawodów -10639
pul -10640
▁dokumenty -10641
▁ucieczki -10642
▁festiwalu -10643
▁Iwan -10644
▁stosuje -10645
▁kwiaty -10646
43 -10647
▁mieliśmy -10648
wanym -10649
▁Va -10650
rowie -10651
▁uszy -10652
Ga -10653
▁Kło -10654
dowej -10655
▁1000 -10656
▁doliny -10657
▁daleka -10658
koma -10659
▁Hand -10660
▁selek -10661
▁twoją -10662
▁pięćdziesiąt -10663
▁oczyma -10664
▁siedzibę -10665
▁mogłaby -10666
śka -10667
▁budowie -10668
▁maszyny -10669
▁siedziba -10670
sum -10671
miało -10672
▁ucha -10673
▁zarządza -10674
▁Wan -10675
▁zasy -10676
bol -10677
▁zakonu -10678
▁materiałów -10679
▁przypadkiem -10680
cago -10681
▁nara -10682
tum -10683
▁biura -10684
▁Spra -10685
▁czci -10686
mać -10687
▁uś -10688
▁College -10689
▁wró -10690
▁podp -10691
▁partner -10692
▁Grzegorz -10693
▁ps -10694
▁entuzja -10695
▁tragi -10696
▁odnosi -10697
▁przykro -10698
▁rozstrzy -10699
cam -10700
lop -10701
▁bak -10702
▁zanu -10703
▁nieraz -10704
stało -10705
wiązał -10706
▁dzier -10707
▁Monachium -10708
▁1910 -10709
▁mniejsze -10710
▁Białorusi -10711
▁nogami -10712
▁przyci -10713
▁van -10714
▁czytać -10715
▁ludzkie -10716
▁srebrny -10717
Ty -10718
▁das -10719
▁Skrzy -10720
▁zapomina -10721
znę -10722
▁Oni -10723
▁Euge -10724
▁występujący -10725
▁księdza -10726
towych -10727
utej -10728
▁gola -10729
▁malu -10730
▁epoki -10731
▁robią -10732
▁rozpro -10733
▁36 -10734
▁pozwolić -10735
iu -10736
▁Beat -10737
▁pewnych -10738
▁juniorów -10739
▁Trybu -10740
▁Wilhelm -10741
▁użytk -10742
▁otwart -10743
stad -10744
▁zep -10745
▁with -10746
▁recep -10747
▁traktu -10748
▁oznajmił -10749
ins -10750
▁szklan -10751
▁zbrod -10752
słuchi -10753
▁goty -10754
▁natar -10755
▁rannych -10756
▁jo -10757
▁Ran -10758
▁wor -10759
uszki -10760
▁chodzić -10761
kakrotnie -10762
▁wyle -10763
▁niestety -10764
▁wygrała -10765
▁Byli -10766
▁panna -10767
▁zamach -10768
ologiczne -10769
wiec -10770
▁egzeku -10771
jki -10772
szczeń -10773
▁Przeciw -10774
▁nicht -10775
▁miesię -10776
natora -10777
▁Człowiek -10778
pkę -10779
paść -10780
▁pies -10781
▁Odpowie -10782
▁narodu -10783
▁Czasami -10784
▁krymina -10785
AP -10786
▁qu -10787
adał -10788
▁firm -10789
▁eduka -10790
▁letni -10791
▁granice -10792
▁wbrew -10793
▁złote -10794
▁Zwycię -10795
▁You -10796
▁Chin -10797
dzkich -10798
▁przydzie -10799
▁con -10800
▁Czechosłowa -10801
finale -10802
wające -10803
▁oddać -10804
▁Olszty -10805
▁palcami -10806
▁Men -10807
▁istnienie -10808
▁zapewnia -10809
▁rosyjski -10810
▁20. -10811
▁budże -10812
▁utrzymać -10813
▁Bon -10814
▁poka -10815
▁uwierzyć -10816
▁ustawy -10817
▁Lublinie -10818
▁dosł -10819
▁Zygmunta -10820
▁prą -10821
▁rozp -10822
▁obecnej -10823
▁Czerwonej -10824
yo -10825
wający -10826
▁mel -10827
▁sołec -10828
▁granic -10829
▁Pozosta -10830
▁słusz -10831
▁późniejszych -10832
▁nóg -10833
Be -10834
att -10835
▁bramy -10836
▁Adol -10837
▁uniemożli -10838
▁regularnie -10839
▁Kir -10840
▁Pracy -10841
▁reszta -10842
▁dowództwo -10843
▁6. -10844
śpie -10845
▁cenę -10846
trzymując -10847
▁Col -10848
▁psa -10849
▁wye -10850
▁kocham -10851
▁prowadziła -10852
czeć -10853
tani -10854
▁Marka -10855
▁wiedząc -10856
głe -10857
sena -10858
wiel -10859
▁sieć -10860
▁ewolu -10861
▁lubię -10862
▁niedługo -10863
▁Korpusu -10864
ned -10865
ational -10866
▁związana -10867
▁pierwotnie -10868
▁świadomość -10869
tch -10870
▁Eliza -10871
▁silne -10872
▁gazety -10873
▁porze -10874
▁współczu -10875
▁Jim -10876
▁pens -10877
▁szczą -10878
▁ekstra -10879
towe -10880
▁sporzą -10881
żnym -10882
▁Rzu -10883
▁kawę -10884
prawie -10885
▁dobrej -10886
▁teatru -10887
▁karty -10888
▁sojusz -10889
▁uległ -10890
▁tło -10891
▁post -10892
sponden -10893
▁kolejowej -10894
▁środki -10895
▁Szczegól -10896
▁byś -10897
▁spło -10898
▁zaprzy -10899
▁doszedł -10900
▁zwyciężył -10901
▁Katowicach -10902
miony -10903
▁śniegu -10904
▁środek -10905
▁wschodu -10906
▁Gun -10907
skop -10908
gio -10909
▁Mogę -10910
▁trybu -10911
▁żołąd -10912
▁popiera -10913
▁dziennikarz -10914
▁Góry -10915
▁ciele -10916
▁ośmiu -10917
śnia -10918
▁Zamo -10919
▁idio -10920
▁pozostało -10921
▁lepsze -10922
▁czynności -10923
▁nale -10924
▁sateli -10925
▁wierzyć -10926
ima -10927
▁stanowiła -10928
▁sufi -10929
▁zabytk -10930
▁usług -10931
▁Włodzi -10932
▁spojrzeniem -10933
atek -10934
sad -10935
owna -10936
▁Ski -10937
postol -10938
▁Wciąż -10939
▁będący -10940
▁zmieniono -10941
▁Kolejne -10942
▁widzisz -10943
▁restauracji -10944
dawało -10945
▁różni -10946
▁połowę -10947
▁uprzej -10948
▁dramaty -10949
▁sprzeci -10950
▁reakcji -10951
▁okazy -10952
siąść -10953
szeniem -10954
rzało -10955
▁rynek -10956
▁zasługi -10957
▁skończył -10958
53 -10959
mentami -10960
ult -10961
źle -10962
nota -10963
▁towar -10964
▁ściśle -10965
▁rośliny -10966
▁zniknął -10967
▁wcie -10968
▁mierze -10969
▁położył -10970
▁Wą -10971
▁Cieka -10972
ceń -10973
▁wszystkimi -10974
mac -10975
żach -10976
▁weź -10977
▁wybrał -10978
▁Projekt -10979
▁transportu -10980
beth -10981
▁bogat -10982
▁stopy -10983
▁przedtem -10984
▁lasy -10985
▁starannie -10986
lane -10987
cząłem -10988
▁byłego -10989
▁dziwnie -10990
dana -10991
▁plo -10992
▁teledy -10993
inga -10994
▁baz -10995
darności -10996
▁przypuszcz -10997
▁procesie -10998
▁pożą -10999
▁rozpow -11000
▁najwięcej -11001
▁określenie -11002
▁Zamiast -11003
▁Komen -11004
▁przysto -11005
tkach -11006
▁Angli -11007
▁obcho -11008
▁biegną -11009
▁zmiana -11010
▁Der -11011
szyng -11012
▁Mali -11013
▁Tutaj -11014
▁sztyw -11015
▁starej -11016
▁pogrzeb -11017
▁Vin -11018
▁docze -11019
▁małżon -11020
komu -11021
▁rany -11022
▁zabrał -11023
▁Grecji -11024
▁Olimpij -11025
▁zawa -11026
▁sztur -11027
▁opinii -11028
▁przedstawił -11029
▁pp -11030
letu -11031
ranu -11032
▁Records -11033
owisko -11034
▁Festi -11035
▁zabił -11036
fikowany -11037
sur -11038
▁Nick -11039
▁Przyby -11040
okoła -11041
hm -11042
▁skończy -11043
▁gal -11044
▁Otóż -11045
kowska -11046
glądała -11047
▁ptaków -11048
▁Wspo -11049
▁silny -11050
▁leżała -11051
▁podłogę -11052
▁zawodnik -11053
coną -11054
▁ogromne -11055
▁następne -11056
Ra -11057
▁Brow -11058
▁szyję -11059
▁uczył -11060
▁powstaniu -11061
▁najważniejsze -11062
▁patro -11063
manisty -11064
▁dotyczy -11065
▁zdarza -11066
▁nastąpiła -11067
via -11068
▁Trój -11069
▁Rę -11070
▁pojazdu -11071
roku -11072
▁art -11073
szonym -11074
▁złu -11075
▁dokony -11076
nką -11077
▁Gwia -11078
▁gwar -11079
▁filozof -11080
▁Gabr -11081
▁następuje -11082
▁Gene -11083
▁King -11084
▁zacząć -11085
▁Hali -11086
▁fabu -11087
▁Ochro -11088
pisów -11089
myśla -11090
▁Szybko -11091
▁Nas -11092
▁Także -11093
owiadała -11094
▁próbuje -11095
▁33 -11096
▁szlak -11097
▁okazuje -11098
hil -11099
tzw -11100
▁trą -11101
▁Ac -11102
▁wzy -11103
▁raka -11104
▁standar -11105
▁zrozumi -11106
▁potrzebuje -11107
lądy -11108
▁zwro -11109
kazując -11110
▁świetnie -11111
ienia -11112
▁zadań -11113
▁południowy -11114
▁przeważnie -11115
▁Marta -11116
▁umarł -11117
▁trasie -11118
51 -11119
ceniu -11120
owską -11121
▁uzasad -11122
▁Techni -11123
▁widziałam -11124
utrz -11125
▁Góra -11126
▁wyła -11127
EN -11128
▁plac -11129
▁osady -11130
cs -11131
▁Zale -11132
▁imprez -11133
▁ocenia -11134
▁otworzyła -11135
▁póki -11136
▁odmie -11137
▁Polskim -11138
wood -11139
▁tożsamo -11140
OW -11141
logicznych -11142
pież -11143
▁Mają -11144
▁jemu -11145
▁Bart -11146
▁niecier -11147
wum -11148
▁Daj -11149
dzali -11150
▁mózg -11151
▁1905 -11152
▁Brał -11153
▁Taj -11154
skaku -11155
▁turnie -11156
nger -11157
▁fali -11158
▁niewin -11159
▁oświadczył -11160
▁utru -11161
stował -11162
▁miesiącach -11163
▁glo -11164
▁Hy -11165
indu -11166
▁Old -11167
▁jakości -11168
▁komenta -11169
▁1916 -11170
▁uderzył -11171
▁wschodzie -11172
▁cuk -11173
▁Zasta -11174
▁myślisz -11175
▁autostra -11176
▁dziewczę -11177
▁Dodatkowo -11178
▁Fu -11179
mor -11180
anci -11181
▁wedle -11182
▁Powszech -11183
▁najwyżej -11184
▁uci -11185
▁fundu -11186
▁stworzenia -11187
▁płycie -11188
▁Mężczyzna -11189
▁Mistrzostwa -11190
▁Okręgu -11191
▁tore -11192
▁rezygna -11193
▁kolejowa -11194
▁Kapi -11195
▁Uważa -11196
▁studyj -11197
▁Rus -11198
rzyłem -11199
▁rzeka -11200
▁wystrze -11201
▁uczynić -11202
▁planu -11203
▁większa -11204
▁zdążył -11205
wel -11206
▁1900 -11207
▁całość -11208
▁pozwolił -11209
▁Raj -11210
▁gorzej -11211
▁założona -11212
▁nego -11213
▁późniejszym -11214
▁tekstów -11215
▁wniosek -11216
▁potrzebne -11217
▁przekazał -11218
żała -11219
▁Ate -11220
▁nawy -11221
▁przechowy -11222
▁odpowiedzieć -11223
lazł -11224
encie -11225
▁Royal -11226
▁programie -11227
▁Teatru -11228
▁dalsze -11229
rąd -11230
▁szczególności -11231
▁Spół -11232
blem -11233
▁Kot -11234
cać -11235
▁odbior -11236
fur -11237
▁płyta -11238
▁przedsięwzię -11239
▁Sak -11240
▁ście -11241
▁dłonią -11242
▁stosunki -11243
▁prowadzenia -11244
okół -11245
▁Cmentarzu -11246
właści -11247
▁prosi -11248
▁sekretarza -11249
▁spojrzenia -11250
sol -11251
▁języków -11252
▁struktury -11253
▁Żydzi -11254
▁[...] -11255
▁sztabu -11256
▁zacznie -11257
Soli -11258
▁propag -11259
▁fragmenty -11260
▁jedyna -11261
łując -11262
▁nadał -11263
▁cerkiew -11264
sau -11265
wiona -11266
▁wydanie -11267
gała -11268
▁krwią -11269
▁Mazowie -11270
ild -11271
▁Dzien -11272
adu -11273
▁osiedli -11274
▁wpół -11275
▁lok -11276
▁wyma -11277
▁rapor -11278
KW -11279
▁Polak -11280
▁synte -11281
▁niezależnie -11282
▁zainteresowania -11283
eter -11284
chowa -11285
▁eskad -11286
▁Jakuba -11287
▁szybciej -11288
▁zwar -11289
▁trzę -11290
mianie -11291
▁postanowie -11292
▁krzyk -11293
▁kilkunastu -11294
▁parlamentu -11295
▁Duż -11296
▁ciężar -11297
▁Parku -11298
▁próbowała -11299
▁znaczeniu -11300
▁przyjechał -11301
Ni -11302
We -11303
bacz -11304
tnia -11305
▁Bir -11306
▁Służ -11307
▁gigan -11308
▁poślubił -11309
▁stanowił -11310
▁zachodzie -11311
chło -11312
rzonej -11313
▁wcześnie -11314
▁kolejnego -11315
▁przyczyny -11316
ele -11317
▁chleb -11318
▁Konkur -11319
▁byłaby -11320
▁urodziła -11321
▁Cała -11322
▁Radia -11323
▁kredy -11324
▁Kwi -11325
▁wzór -11326
▁zamo -11327
▁Reprez -11328
▁geografi -11329
▁torpe -11330
▁zatrzymać -11331
kana -11332
▁ślad -11333
▁skraj -11334
▁prezes -11335
national -11336
▁dobrych -11337
▁dodatkowe -11338
▁pospie -11339
▁Pewnego -11340
▁rozebra -11341
▁nóż -11342
▁przygotowania -11343
▁wytwórni -11344
warz -11345
▁krzesła -11346
▁Chicago -11347
▁goli -11348
▁wrażli -11349
▁łaska -11350
▁miejskich -11351
▁Wit -11352
▁głup -11353
niosło -11354
▁Kongre -11355
urów -11356
▁trwały -11357
tas -11358
stąpić -11359
▁zasięgu -11360
▁pomyśle -11361
▁warszawskiego -11362
▁przebie -11363
▁uzyskać -11364
ind -11365
biny -11366
szyn -11367
▁zaak -11368
▁służyć -11369
▁musiało -11370
oro -11371
▁Igrzy -11372
▁zaplan -11373
▁Nowe -11374
▁pudeł -11375
▁zamknięte -11376
▁nogę -11377
▁zupeł -11378
▁TVP -11379
godni -11380
▁Jasne -11381
▁ukryć -11382
▁Chcesz -11383
▁obóz -11384
▁osobę -11385
▁dokumentów -11386
▁Cel -11387
▁bogów -11388
▁Powsta -11389
▁uderza -11390
▁zmierza -11391
▁mej -11392
▁Taka -11393
▁patrzyła -11394
▁koleż -11395
▁pogrą -11396
▁rośnie -11397
▁imieniem -11398
▁systemie -11399
biony -11400
field -11401
▁podar -11402
▁miejskie -11403
▁wyobrazić -11404
▁Wisły -11405
wających -11406
▁powtarz -11407
drze -11408
▁Narodów -11409
▁przedstawiciel -11410
▁węgla -11411
▁wiedziałam -11412
%. -11413
żyna -11414
▁komisji -11415
▁pobiera -11416
▁półfina -11417
▁Konstytu -11418
dorf -11419
▁złoto -11420
▁hitler -11421
▁gotowa -11422
▁źródło -11423
▁nawiąza -11424
▁szt -11425
▁ocze -11426
▁dachu -11427
▁związków -11428
▁Rose -11429
▁pracą -11430
ckimi -11431
▁rozstrze -11432
▁zrze -11433
▁niedzie -11434
śń -11435
▁Filo -11436
▁ośrodek -11437
▁włoski -11438
wieni -11439
▁armia -11440
▁używany -11441
▁świętego -11442
ile -11443
▁kupi -11444
▁Łącznie -11445
niania -11446
▁płynie -11447
▁zobaczyła -11448
▁Mógł -11449
rzwi -11450
▁Meksyku -11451
▁bezpośre -11452
▁radość -11453
▁instytucji -11454
▁Cra -11455
▁uniknąć -11456
▁zachował -11457
ora -11458
▁oper -11459
▁kąpie -11460
▁reszty -11461
szer -11462
▁Zato -11463
▁noszą -11464
▁szpie -11465
zen -11466
▁oddał -11467
▁uczynił -11468
▁wprowadził -11469
▁Postanowi -11470
▁es -11471
sport -11472
cyna -11473
▁kawy -11474
▁trzeciego -11475
▁kierownikiem -11476
▁wart -11477
▁wrocła -11478
▁specyfi -11479
▁wykonane -11480
▁wygna -11481
▁Partia -11482
▁palcem -11483
▁stłu -11484
▁Szta -11485
▁wojskowy -11486
fę -11487
dowym -11488
dzący -11489
lich -11490
▁wzroku -11491
▁niespokoj -11492
▁powodzenia -11493
▁dzisiejszego -11494
▁Leś -11495
▁Lubel -11496
▁tamtym -11497
▁działać -11498
▁przeprowadził -11499
▁kroku -11500
▁kamieni -11501
▁formacji -11502
▁wyło -11503
▁ciepło -11504
▁przełoż -11505
ör -11506
▁potrzą -11507
▁filmach -11508
▁kolejnej -11509
▁kontakty -11510
▁świadomości -11511
▁żąda -11512
▁Żołnie -11513
▁szlache -11514
▁Lam -11515
▁Zau -11516
▁wodo -11517
▁Budy -11518
▁rozmowie -11519
AF -11520
▁konkursu -11521
▁homoseksu -11522
▁skórę -11523
▁pojęcie -11524
▁ciężarów -11525
▁ostatnia -11526
▁miecz -11527
▁gali -11528
▁Smith -11529
▁Oficer -11530
▁inżynier -11531
▁przedmiot -11532
ezon -11533
niczego -11534
dąc -11535
▁Ul -11536
▁problemu -11537
lację -11538
▁podobnych -11539
stanu -11540
▁Sztuki -11541
ktorów -11542
▁szkla -11543
▁zjedno -11544
▁wyjaśnił -11545
ryn -11546
▁dowiedział -11547
non -11548
mania -11549
party -11550
▁Raci -11551
▁Morza -11552
▁chirur -11553
▁She -11554
▁żyją -11555
▁prócz -11556
▁termin -11557
▁wiernych -11558
▁przypadkach -11559
▁rogu -11560
▁przewie -11561
▁rozczar -11562
vis -11563
dzkie -11564
▁analiz -11565
füh -11566
towa -11567
osto -11568
snąć -11569
▁śpi -11570
▁Wystar -11571
▁kolega -11572
▁dalszych -11573
zui -11574
biegał -11575
jskiej -11576
▁Mickie -11577
▁Polskie -11578
▁lokalnych -11579
▁przystos -11580
som -11581
▁przyjaź -11582
▁osiągnięcia -11583
▁przeniesiono -11584
▁Jer -11585
▁okry -11586
gana -11587
▁piękny -11588
▁stanęła -11589
uel -11590
▁zmi -11591
▁nogach -11592
▁posługi -11593
▁zaprowa -11594
▁luk -11595
▁Medy -11596
▁śmiał -11597
▁biznes -11598
▁spowodowało -11599
▁parlamentarnych -11600
CH -11601
bku -11602
▁jedwa -11603
▁1912 -11604
▁gorz -11605
▁wyląd -11606
cjone -11607
▁specjalnych -11608
zajutrz -11609
▁współczesnych -11610
▁(3 -11611
cjoni -11612
▁chłopców -11613
partamentu -11614
▁chroni -11615
▁Znajduje -11616
▁Antoniego -11617
bka -11618
shi -11619
▁wci -11620
▁poku -11621
▁sekretarzem -11622
▁pojawiają -11623
▁cich -11624
▁bramki -11625
licy -11626
▁trzymać -11627
▁Gie -11628
▁odległość -11629
▁Fal -11630
▁Kel -11631
▁Jerozoli -11632
▁Cza -11633
▁podziału -11634
▁potencjal -11635
▁reprezentował -11636
soli -11637
▁Mieczy -11638
▁zainteresowanie -11639
▁orien -11640
▁dynami -11641
▁tamtych -11642
▁pasażerów -11643
▁rosyjskiego -11644
▁1/ -11645
▁zwycza -11646
▁obrazów -11647
▁wewnętrznych -11648
▁Młody -11649
wań -11650
sson -11651
▁klubów -11652
▁ziemią -11653
▁emit -11654
▁Ostro -11655
▁bramkę -11656
▁Odrodzenia -11657
▁Stru -11658
▁Indii -11659
▁rozwiązanie -11660
jni -11661
▁zginęło -11662
zdem -11663
▁Zwie -11664
▁słowami -11665
▁3: -11666
▁Wierz -11667
▁opowiadał -11668
▁delikatnie -11669
żyse -11670
▁Licz -11671
▁repor -11672
▁debiutan -11673
▁opozycji -11674
▁dyplomaty -11675
▁zmart -11676
▁odprowa -11677
▁słyszy -11678
▁przesłucha -11679
demu -11680
▁odnot -11681
▁Pierwszą -11682
▁x -11683
▁Lor -11684
ero -11685
▁żart -11686
▁błyskawi -11687
▁dziewczynę -11688
chylił -11689
▁zechce -11690
szliśmy -11691
▁wysłał -11692
kłó -11693
żeby -11694
ższe -11695
▁Zel -11696
▁herbat -11697
▁partia -11698
▁harmo -11699
▁Album -11700
niowych -11701
▁przesła -11702
US -11703
▁śnieg -11704
▁Charles -11705
▁miastach -11706
▁podleg -11707
▁wyjazd -11708
▁odbyły -11709
▁Vir -11710
cjonu -11711
istnie -11712
▁zezna -11713
▁przypadek -11714
▁"„ -11715
▁4, -11716
kroć -11717
▁Najlep -11718
▁Śląsku -11719
2). -11720
▁sztuce -11721
▁obiektu -11722
▁Toruniu -11723
▁twierdzi -11724
▁sprawiedliwości -11725
cas -11726
▁alter -11727
▁brygady -11728
▁PS -11729
▁Que -11730
▁ziemie -11731
▁jeno -11732
▁Stron -11733
▁Wielo -11734
▁odwro -11735
▁staną -11736
▁pion -11737
▁Musimy -11738
▁uję -11739
▁olej -11740
tników -11741
▁szkie -11742
▁umowy -11743
▁Dąbr -11744
blo -11745
gom -11746
▁kłopoty -11747
▁Brazylii -11748
97 -11749
▁Mate -11750
▁zamachu -11751
▁Ministerstwa -11752
▁reżyserii -11753
łożyła -11754
▁wyrok -11755
▁Christo -11756
▁opóź -11757
chowie -11758
jną -11759
▁zwró -11760
▁szepnął -11761
▁zarejest -11762
▁Bezpieczeństwa -11763
ódł -11764
▁przeprowadzono -11765
emo -11766
▁teksty -11767
▁byliśmy -11768
▁koły -11769
▁przyjęcia -11770
▁czynienia -11771
▁spotkaniach -11772
▁Kiel -11773
▁barok -11774
▁popi -11775
panie -11776
▁opuścić -11777
▁wracać -11778
nasto -11779
▁osied -11780
▁miejskiej -11781
▁ukra -11782
▁namio -11783
▁Lite -11784
No -11785
▁Grupy -11786
▁wprowadza -11787
▁hal -11788
▁Dowód -11789
▁przytom -11790
▁poprzedniego -11791
▁ON -11792
▁zgodę -11793
liwe -11794
▁kaszte -11795
gina -11796
▁ulo -11797
niłem -11798
▁nocą -11799
▁7. -11800
tale -11801
▁singel -11802
ktem -11803
▁Twier -11804
▁zdjęć -11805
▁prezesa -11806
zno -11807
ferze -11808
▁amuni -11809
▁uczci -11810
▁zdawał -11811
▁Nu -11812
czeb -11813
▁liczył -11814
▁zmuszony -11815
▁Administra -11816
puł -11817
ID -11818
▁park -11819
▁rach -11820
▁należały -11821
▁Wolne -11822
ówka -11823
▁żela -11824
▁zajęli -11825
▁starszych -11826
lizm -11827
ltacie -11828
bał -11829
▁Arab -11830
▁indyj -11831
▁popołu -11832
▁wskazał -11833
▁rezultacie -11834
▁Armia -11835
▁doby -11836
▁Wielkie -11837
▁pojedynku -11838
▁chęć -11839
▁wyrzut -11840
▁świado -11841
Me -11842
bet -11843
low -11844
tywi -11845
▁postanowiła -11846
▁śród -11847
ather -11848
▁kibu -11849
▁porów -11850
▁użyciu -11851
dową -11852
▁ano -11853
▁idei -11854
gowego -11855
▁liści -11856
▁przeczu -11857
bela -11858
cken -11859
▁omi -11860
▁udowo -11861
▁zanot -11862
▁północnym -11863
▁własności -11864
▁przyniosła -11865
chła -11866
▁Wen -11867
▁boles -11868
▁niewielki -11869
fen -11870
▁Hein -11871
▁Jake -11872
wczego -11873
▁myślach -11874
przestrze -11875
▁gospodarki -11876
szanie -11877
▁adwok -11878
▁Oce -11879
▁Bill -11880
▁gniew -11881
▁ludzkiej -11882
dt -11883
▁teni -11884
▁Parafia -11885
▁przenik -11886
▁racji -11887
▁Miałem -11888
▁czerwone -11889
Hi -11890
▁Waszyng -11891
▁podobie -11892
biec -11893
▁Cią -11894
▁postu -11895
▁westchnął -11896
▁Uniwersytet -11897
▁Szczy -11898
▁bater -11899
▁specjalne -11900
▁ada -11901
ciłam -11902
▁legi -11903
▁zastępcą -11904
▁przyjaciele -11905
ńczyk -11906
▁nagry -11907
▁naboże -11908
kowanych -11909
ruch -11910
ciami -11911
▁Mili -11912
▁gałęzi -11913
▁plecach -11914
▁stanowiło -11915
▁jada -11916
dnienia -11917
▁liczbie -11918
▁Festiwalu -11919
▁posiadają -11920
dało -11921
▁Rej -11922
▁bogi -11923
▁publika -11924
▁wyświet -11925
▁szerokości -11926
▁posiadłości -11927
▁przyjemność -11928
▁dotarła -11929
▁kombina -11930
▁autorów -11931
▁przygotowy -11932
▁trwało -11933
▁sukcesem -11934
rzach -11935
tonie -11936
▁Popat -11937
▁obszer -11938
▁ryby -11939
▁kolegów -11940
▁światem -11941
dowanie -11942
▁populacji -11943
sey -11944
amie -11945
krew -11946
▁krótkie -11947
dziane -11948
▁plecy -11949
▁zakrę -11950
▁inwa -11951
▁okład -11952
▁Możesz -11953
▁prokura -11954
▁Dziewczyna -11955
stel -11956
▁tan -11957
▁Sowie -11958
▁dusza -11959
▁udostęp -11960
dygna -11961
▁matce -11962
▁posel -11963
▁Mistrzów -11964
▁Wojciecha -11965
▁Zapew -11966
▁mecha -11967
▁prędzej -11968
▁Wali -11969
▁Award -11970
▁orkie -11971
▁usłyszeć -11972
▁tata -11973
▁zdenerw -11974
▁wyw -11975
▁ruszyła -11976
śnią -11977
▁zmarła -11978
▁wrażenia -11979
▁zrozumienia -11980
szal -11981
▁poły -11982
▁przybra -11983
▁charakteru -11984
▁prawdziwy -11985
▁generalnej -11986
96 -11987
reo -11988
▁zgody -11989
▁siostrę -11990
▁biała -11991
▁Jacka -11992
▁Polską -11993
▁Londynu -11994
szny -11995
nowe -11996
▁biorą -11997
▁najpo -11998
▁osiągnąć -11999
▁pacjentów -12000
stam -12001
słem -12002
▁Chwi -12003
▁zamknął -12004
▁toru -12005
▁dokoła -12006
▁kolację -12007
ratorium -12008
▁bohaterów -12009
▁5, -12010
▁Gon -12011
▁Zarządu -12012
▁Studiował -12013
▁stanowczo -12014
▁spła -12015
▁śpiewa -12016
▁stwierdziła -12017
▁klawi -12018
▁pseudonim -12019
▁otrzymy -12020
▁pomieszczenia -12021
szczą -12022
▁Lei -12023
▁czuć -12024
▁Brygady -12025
▁wierzcho -12026
▁hor -12027
▁lasów -12028
stycznego -12029
▁Będę -12030
ałyśmy -12031
▁mistrzostwa -12032
▁miliona -12033
▁oparciu -12034
▁przynosi -12035
▁absol -12036
▁umiał -12037
▁Poznań -12038
▁ciałem -12039
▁udziela -12040
▁kontrolę -12041
ture -12042
▁zawdzię -12043
▁poprosił -12044
szyna -12045
▁Gdybym -12046
▁organizacja -12047
ges -12048
▁obda -12049
▁czarną -12050
▁zaczer -12051
▁towarzyszą -12052
gr -12053
▁Lot -12054
▁nieroz -12055
▁jakże -12056
▁wejście -12057
▁fotograf -12058
▁fotografi -12059
▁Hil -12060
▁mostu -12061
▁wargi -12062
▁popr -12063
▁odziedzi -12064
różnic -12065
▁osiedle -12066
▁NAT -12067
▁tedy -12068
niałem -12069
czyłam -12070
▁ogniem -12071
letniego -12072
▁Historia -12073
▁zmieniło -12074
tte -12075
▁minuty -12076
▁prędkość -12077
▁przejścia -12078
▁Następnego -12079
ceae -12080
▁Gli -12081
antem -12082
▁Indian -12083
▁rozkazu -12084
▁chleba -12085
▁źródłem -12086
▁ranny -12087
▁Piosenki -12088
▁zostawił -12089
▁próbując -12090
powi -12091
▁naraz -12092
▁Moskwy -12093
▁jedzenia -12094
▁mówili -12095
▁piętrze -12096
85 -12097
▁akcep -12098
▁duszpa -12099
▁sukcesów -12100
▁Dr -12101
tagna -12102
▁składu -12103
▁czarnych -12104
▁rosyjskich -12105
▁Sił -12106
rzeli -12107
nąwszy -12108
▁opublikował -12109
bier -12110
▁reprezentant -12111
▁75 -12112
▁chłopcy -12113
▁telefonu -12114
SS -12115
klasy -12116
▁lubił -12117
▁angielski -12118
mera -12119
▁pak -12120
▁majo -12121
▁angielskiego -12122
tha -12123
▁okup -12124
▁Champi -12125
▁zostawi -12126
pur -12127
▁admi -12128
▁mark -12129
▁wyobra -12130
▁Starego -12131
▁audy -12132
▁ochoty -12133
▁Edwarda -12134
▁Rozumiem -12135
▁Domu -12136
▁Funk -12137
▁napeł -12138
▁piłki -12139
▁wiąże -12140
▁prostoką -12141
▁komunikacji -12142
▁wyrze -12143
▁żonaty -12144
▁długich -12145
▁nigdzie -12146
giego -12147
Artagna -12148
▁gwaran -12149
▁rządzie -12150
▁wysokim -12151
orem -12152
▁kierunkiem -12153
Wie -12154
▁Kol -12155
▁łat -12156
▁Widzę -12157
▁pełna -12158
▁historyk -12159
▁uczestników -12160
▁Szczę -12161
▁manew -12162
▁skorzy -12163
▁Wydział -12164
▁cias -12165
▁Zasługi -12166
▁ludzkich -12167
▁konserwaty -12168
▁południowym -12169
AD -12170
▁wali -12171
▁nios -12172
▁reż -12173
▁starym -12174
▁podobno -12175
▁swojemu -12176
▁Umie -12177
chodzę -12178
formacji -12179
▁strategi -12180
▁efekcie -12181
▁uk -12182
jrzałem -12183
▁przewodniczący -12184
!» -12185
▁zago -12186
▁Martin -12187
▁dzieciństwa -12188
liki -12189
▁służbie -12190
▁ekspo -12191
▁League -12192
▁Spojrzał -12193
▁drugo -12194
▁użyte -12195
▁porozu -12196
▁zmianie -12197
▁Obywatel -12198
▁oznaczało -12199
ista -12200
▁jezui -12201
▁ordyna -12202
▁przyjęcie -12203
▁walka -12204
pela -12205
▁nieuda -12206
▁członka -12207
▁Teo -12208
▁Edmu -12209
▁jeść -12210
▁służy -12211
▁sh -12212
pola -12213
wiązy -12214
▁bój -12215
▁ołta -12216
92 -12217
▁Nico -12218
▁pozostawał -12219
▁10. -12220
▁Dział -12221
▁Funda -12222
▁kaza -12223
▁Formu -12224
fin -12225
glu -12226
-5 -12227
▁Straż -12228
▁kwesti -12229
▁Księstwa -12230
▁konferencji -12231
jenia -12232
▁Niepo -12233
▁precy -12234
▁kancle -12235
▁wysokich -12236
▁kilkakrotnie -12237
▁Charlot -12238
▁powraca -12239
▁profesjonal -12240
▁itd -12241
berga -12242
▁Agen -12243
▁podą -12244
▁umiar -12245
▁bohatera -12246
▁com -12247
▁Stał -12248
▁zimno -12249
▁pta -12250
▁lodow -12251
▁Katarzyna -12252
kłych -12253
▁archite -12254
▁Pamiętam -12255
▁Izby -12256
▁Izrael -12257
śc -12258
▁Uważ -12259
▁porę -12260
▁sekcji -12261
▁zaliczył -12262
▁towarzystwa -12263
zwycza -12264
cząt -12265
▁akt -12266
conej -12267
▁Belgii -12268
▁Zbigniew -12269
▁zagrożenia -12270
▁ciszy -12271
▁przecie -12272
▁dokonano -12273
▁Elżbieta -12274
▁przywilej -12275
ep -12276
▁naśla -12277
▁medale -12278
EL -12279
jski -12280
▁Sku -12281
▁Gnie -12282
czków -12283
▁siódm -12284
▁piłkarską -12285
ema -12286
fes -12287
tok -12288
atyka -12289
▁sekundy -12290
▁doprowadził -12291
księ -12292
▁dowci -12293
▁pisarza -12294
▁One -12295
sunęła -12296
▁wyraż -12297
cielami -12298
acji -12299
karza -12300
▁numerem -12301
▁leczenia -12302
▁wykonania -12303
▁tch -12304
▁Wyda -12305
lika -12306
stom -12307
▁literaturze -12308
▁bank -12309
▁kupił -12310
▁sekretarz -12311
▁potrafiła -12312
haus -12313
▁Jugosła -12314
▁Barce -12315
▁alian -12316
▁umowę -12317
▁robotników -12318
▁kę -12319
▁sery -12320
▁czoła -12321
▁wykorzystać -12322
▁nieleg -12323
ili -12324
water -12325
▁Kę -12326
▁łodzi -12327
▁białym -12328
99 -12329
brz -12330
▁laty -12331
▁rozważa -12332
▁francuskich -12333
▁niemiecką -12334
▁Nr -12335
▁Red -12336
jenie -12337
▁fabryki -12338
▁schroni -12339
▁Norwegii -12340
▁danej -12341
▁długą -12342
▁pojazdów -12343
▁przedwojen -12344
▁McC -12345
▁wiosną -12346
▁występów -12347
▁rejon -12348
▁międzynarodowej -12349
▁mak -12350
▁Występ -12351
▁Mike -12352
▁młode -12353
▁habili -12354
ude -12355
łku -12356
▁Wios -12357
:00 -12358
▁mazowie -12359
▁wzgórza -12360
▁owi -12361
▁Podni -12362
▁potrafią -12363
▁34 -12364
▁mit -12365
▁minę -12366
▁wrze -12367
▁odbyło -12368
▁zdrowie -12369
▁widoczne -12370
wiają -12371
▁podniosła -12372
iono -12373
▁kwo -12374
ierar -12375
▁ciemne -12376
▁ścianach -12377
▁inteligent -12378
get -12379
lice -12380
▁wul -12381
▁energi -12382
▁fu -12383
sing -12384
▁wolę -12385
▁Friedri -12386
▁Niemcami -12387
zacho -12388
▁lider -12389
hono -12390
▁likwidacji -12391
▁boli -12392
▁wymag -12393
hal -12394
tyku -12395
▁wymu -12396
▁litur -12397
▁drobne -12398
▁opieki -12399
▁komplet -12400
▁tutej -12401
▁Batali -12402
▁posiadała -12403
▁Idź -12404
▁każe -12405
▁Wygląda -12406
▁ekranie -12407
▁prowadzone -12408
dowo -12409
amery -12410
▁Pancer -12411
▁zaakcep -12412
tniej -12413
▁wszak -12414
▁władza -12415
▁zastanowi -12416
▁Karl -12417
▁ogląd -12418
▁trage -12419
▁dookoła -12420
▁seminarium -12421
▁złą -12422
▁Gale -12423
▁opisał -12424
ktyw -12425
unków -12426
▁spoty -12427
▁lokali -12428
ciwszy -12429
▁większym -12430
▁puła -12431
▁Alfre -12432
▁Druga -12433
▁ofensy -12434
▁skupia -12435
▁wizyty -12436
▁przyjacielem -12437
cieć -12438
▁skru -12439
▁uznać -12440
▁wzięli -12441
▁stry -12442
▁Każda -12443
▁Komitet -12444
▁indziej -12445
▁myślałem -12446
▁niezadowo -12447
▁przywiąza -12448
▁tworzenia -12449
▁usłyszała -12450
▁podstawowej -12451
▁Soli -12452
▁szkoleni -12453
▁Sty -12454
▁katedry -12455
▁pozostali -12456
▁wzniesiono -12457
rodku -12458
▁dając -12459
▁komórek -12460
▁policja -12461
skryp -12462
▁Wilnie -12463
ssa -12464
▁Bazy -12465
▁koja -12466
▁patrio -12467
▁gruncie -12468
▁wydłu -12469
▁uległa -12470
▁przejście -12471
▁Uży -12472
▁fre -12473
▁niew -12474
▁pytań -12475
▁dat -12476
▁Club -12477
▁ministrem -12478
▁rzek -12479
▁białą -12480
▁zrobiło -12481
▁Irlandii -12482
ones -12483
▁Rzecz -12484
▁reguły -12485
▁pocisków -12486
licz -12487
▁móc -12488
▁Stąd -12489
szkiem -12490
ologicznych -12491
▁ekspres -12492
▁jesienią -12493
▁dziesięcio -12494
lacje -12495
▁Helen -12496
▁pismo -12497
▁ciągnął -12498
▁myślała -12499
anny -12500
▁przyjęty -12501
▁tajemnicy -12502
▁niepotrzeb -12503
▁publicznych -12504
zym -12505
▁gene -12506
▁jedyne -12507
▁brytyjskiej -12508
▁leg -12509
gresy -12510
macji -12511
▁Staro -12512
▁stabi -12513
▁sąsiedz -12514
▁najlepszego -12515
▁obyd -12516
▁pięknie -12517
diece -12518
nawiał -12519
▁zwłoki -12520
▁istniał -12521
oły -12522
▁wspani -12523
▁pokolenia -12524
czyńskiego -12525
▁układa -12526
cemy -12527
▁trafia -12528
▁odwraca -12529
▁metropoli -12530
án -12531
▁nań -12532
▁1913 -12533
▁Leon -12534
▁rundy -12535
▁konfliktu -12536
stycznym -12537
hor -12538
łyśmy -12539
▁głosi -12540
▁godzinach -12541
▁tren -12542
▁rozsta -12543
▁czarnej -12544
▁podnosi -12545
▁przyjęła -12546
▁współpracował -12547
▁hotel -12548
▁prośbę -12549
▁reżyse -12550
ira -12551
żera -12552
▁Eko -12553
▁znika -12554
ródziem -12555
▁Wydaje -12556
▁uniósł -12557
▁wpatry -12558
zła -12559
▁Zdzi -12560
jga -12561
▁instyn -12562
▁kochan -12563
▁sięgnął -12564
▁wiceprzewodni -12565
▁międzywojennym -12566
▁drewniany -12567
▁pośrednictwem -12568
▁Sre -12569
▁drę -12570
▁dziwnego -12571
ume -12572
wina -12573
▁naru -12574
▁trzema -12575
▁świeżo -12576
▁strzelców -12577
▁zastosowanie -12578
▁Ochrony -12579
fem -12580
▁Wzi -12581
▁element -12582
fizy -12583
▁jeńców -12584
▁domowej -12585
▁powróci -12586
▁bronić -12587
▁muzyczny -12588
▁zajmowała -12589
▁zapomnieć -12590
▁Mes -12591
▁twoich -12592
▁piosenkę -12593
rzymał -12594
▁kochać -12595
▁popularność -12596
▁skinął -12597
▁dala -12598
▁Zgo -12599
▁Seba -12600
▁kontek -12601
▁gabinecie -12602
▁przyjaźni -12603
kłą -12604
gich -12605
▁gle -12606
kształcą -12607
stie -12608
▁widzieli -12609
▁Oko -12610
▁jakichś -12611
▁rytu -12612
▁konkurencji -12613
▁Un -12614
owcem -12615
▁sposobu -12616
▁Wel -12617
▁uciekł -12618
▁pewność -12619
▁Rumunii -12620
lając -12621
▁kuli -12622
▁Hitler -12623
▁socjal -12624
▁Europejskiego -12625
rans -12626
▁1911 -12627
▁kwalifika -12628
dziera -12629
rzyłam -12630
▁portre -12631
▁Portuga -12632
▁zróżnic -12633
elu -12634
very -12635
▁warszawskim -12636
▁wpat -12637
▁Panny -12638
▁proro -12639
▁Chodzi -12640
▁brać -12641
▁wypa -12642
▁bitwa -12643
▁Joseph -12644
▁48 -12645
▁krz -12646
▁insta -12647
▁talen -12648
▁zaszczy -12649
▁zespoły -12650
▁przegranym -12651
▁Fak -12652
▁zachowy -12653
▁różnorod -12654
Ży -12655
mona -12656
rzymy -12657
▁padł -12658
▁wsparcia -12659
miały -12660
żając -12661
▁koresponden -12662
nowy -12663
▁przery -12664
▁mężczyznę -12665
▁odpowiedni -12666
Or -12667
▁powojen -12668
▁bezwzglę -12669
misję -12670
▁figur -12671
▁przedmiotów -12672
▁budzi -12673
▁Turcji -12674
▁rozbud -12675
rey -12676
▁społeczne -12677
ial -12678
▁wolny -12679
▁Lepiej -12680
▁dalszej -12681
▁wysokiej -12682
▁polityczną -12683
rzonym -12684
▁Doktor -12685
▁liceum -12686
▁wieczor -12687
run -12688
▁ułat -12689
▁doświadczenie -12690
▁znaleziono -12691
gim -12692
▁Radzi -12693
sztu -12694
▁Tal -12695
▁scenę -12696
▁dzielą -12697
▁przełę -12698
▁podkreśla -12699
▁dziewczynka -12700
nąc -12701
zała -12702
▁moi -12703
▁wrz -12704
▁klas -12705
chanie -12706
szania -12707
▁pełnią -12708
▁zamknięty -12709
▁pojemności -12710
▁przedmiotem -12711
▁Jesie -12712
▁dawał -12713
▁dotrzeć -12714
niusz -12715
▁Divi -12716
▁przedstawiciele -12717
▁zamierzał -12718
cht -12719
▁„" -12720
▁płó -12721
Da -12722
▁600 -12723
▁widzów -12724
▁elementem -12725
▁mór -12726
▁postacią -12727
▁Sos -12728
zanty -12729
▁kwiat -12730
▁startu -12731
2), -12732
▁diabła -12733
▁Wiedział -12734
IN -12735
gród -12736
▁znanym -12737
▁wojskowe -12738
robo -12739
órka -12740
▁Wska -12741
niętej -12742
▁punkcie -12743
▁obowiązu -12744
miesz -12745
▁poszu -12746
▁danego -12747
▁inspi -12748
▁faktycznie -12749
▁funtów -12750
So -12751
Ha -12752
▁Hun -12753
▁nap -12754
▁znu -12755
▁górach -12756
▁pomara -12757
▁skraju -12758
▁czterdzieści -12759
dona -12760
▁Trochę -12761
▁usługi -12762
▁wierszy -12763
▁odezwała -12764
▁prywatnych -12765
vić -12766
▁Byłam -12767
▁paliwa -12768
▁władcy -12769
▁odpoczy -12770
▁odnaleźć -12771
▁zapewnić -12772
▁rozpoczęły -12773
łko -12774
▁polo -12775
▁wybory -12776
94 -12777
TV -12778
▁Most -12779
gin -12780
tyzmu -12781
zwoi -12782
▁posze -12783
ciągnęła -12784
▁Music -12785
▁Prace -12786
▁osada -12787
▁ścian -12788
wojewódz -12789
▁gospody -12790
▁osiągnęła -12791
▁bara -12792
▁presti -12793
fla -12794
uer -12795
▁dwój -12796
▁nomin -12797
▁kilkoma -12798
▁nastolat -12799
▁nakry -12800
▁Prawie -12801
▁musiały -12802
atry -12803
▁Patri -12804
▁dostała -12805
szeń -12806
▁zaż -12807
lonie -12808
etrów -12809
▁Marynar -12810
▁140 -12811
▁tabeli -12812
ée -12813
▁Schu -12814
▁systematy -12815
▁prezbiterium -12816
▁Mistrzostwach -12817
uti -12818
▁ero -12819
szają -12820
▁pokonując -12821
biał -12822
szowie -12823
▁budowa -12824
▁podzięk -12825
▁słyszeć -12826
▁han -12827
▁mężczyzną -12828
▁przeje -12829
▁ówczesnego -12830
▁maryna -12831
▁oddali -12832
▁białoru -12833
▁dokument -12834
▁wojskowego -12835
Mu -12836
▁Uzna -12837
miernie -12838
▁wychodzą -12839
▁Lwowa -12840
kowskich -12841
▁Program -12842
▁kwiatów -12843
▁wspaniał -12844
▁piętnaście -12845
owując -12846
▁son -12847
▁Właściwie -12848
cky -12849
▁Ky -12850
▁Kad -12851
cząco -12852
▁Mały -12853
▁odebrał -12854
▁procedu -12855
Lu -12856
▁Litwy -12857
▁Sezon -12858
▁gracz -12859
▁grubo -12860
▁Zw -12861
▁Ira -12862
▁analizy -12863
ffe -12864
▁naukowe -12865
▁Jeh -12866
puści -12867
▁filmy -12868
▁wygło -12869
▁znalazło -12870
▁ramionach -12871
Ge -12872
▁nud -12873
▁poster -12874
▁sympat -12875
▁National -12876
▁redakcji -12877
▁Bitwa -12878
▁księżyc -12879
▁politykę -12880
▁doprowadzić -12881
▁ciał -12882
andra -12883
▁1908 -12884
▁straj -12885
▁Wrocław -12886
▁pozostać -12887
▁wyższych -12888
▁uzbrojenia -12889
▁Hans -12890
▁rangi -12891
ałów -12892
▁God -12893
▁sekun -12894
▁drżą -12895
▁kina -12896
▁jezioro -12897
▁Istnieje -12898
▁stosunków -12899
▁Julie -12900
▁Głu -12901
▁zostawić -12902
▁Chro -12903
▁Równo -12904
▁Organizacji -12905
▁dol -12906
▁rower -12907
▁zyskał -12908
▁przeraża -12909
▁7, -12910
▁8. -12911
witz -12912
▁Aha -12913
▁konieczne -12914
▁porozumienia -12915
bią -12916
▁Sun -12917
▁wyeli -12918
zin -12919
▁Dziedzi -12920
▁poważne -12921
▁ulicach -12922
▁płk -12923
▁pokazał -12924
▁przymus -12925
3), -12926
▁drużyną -12927
▁propo -12928
▁przeba -12929
▁Berlina -12930
▁mórg -12931
▁związki -12932
▁Pusz -12933
▁Nadal -12934
▁zwane -12935
▁International -12936
▁Danii -12937
▁rodzinnym -12938
▁znajomych -12939
lesa -12940
czysz -12941
walił -12942
▁deput -12943
▁szukał -12944
-10 -12945
dowany -12946
letnią -12947
▁czekała -12948
▁siostrą -12949
▁wzmianka -12950
▁Wir -12951
gowej -12952
▁ante -12953
▁obywateli -12954
▁mające -12955
▁ryzyko -12956
▁Rol -12957
▁częstotli -12958
▁Land -12959
▁Woło -12960
▁tron -12961
hat -12962
▁ziar -12963
▁uzależ -12964
▁Street -12965
▁tune -12966
▁Ag -12967
dows -12968
▁starsze -12969
▁praktyce -12970
▁rankingu -12971
▁telefoni -12972
▁zadzwonił -12973
▁130 -12974
▁Dwie -12975
▁Rena -12976
▁udowodni -12977
▁wsią -12978
▁firmie -12979
▁właściwości -12980
▁napad -12981
▁obowiązek -12982
▁przyjmuje -12983
cti -12984
▁Cał -12985
▁Epi -12986
▁wysa -12987
▁ulubio -12988
▁kamienia -12989
pni -12990
▁cyfr -12991
▁propozycję -12992
bez -12993
▁statków -12994
▁Len -12995
▁nai -12996
▁Stalin -12997
▁rozmawi -12998
▁zaawans -12999
▁śpiew -13000
▁dostos -13001
▁nosiła -13002
▁ubrania -13003
▁wyglądało -13004
▁konieczność -13005
▁Piłsudskiego -13006
3). -13007
żeć -13008
skra -13009
▁Ren -13010
▁remon -13011
▁Księży -13012
▁sylwet -13013
▁wywiadu -13014
▁Wilhelma -13015
91 -13016
▁przep -13017
▁prąd -13018
▁zapad -13019
dym -13020
▁dojrz -13021
▁decydu -13022
▁odwróciła -13023
▁większego -13024
ganie -13025
tyków -13026
▁planów -13027
▁37 -13028
racał -13029
conego -13030
▁zwolniony -13031
▁istnieć -13032
wschodniej -13033
▁Rząd -13034
▁czwo -13035
▁fotelu -13036
▁obcych -13037
Przy -13038
▁oli -13039
▁el -13040
▁dziadek -13041
▁systemem -13042
cjom -13043
manów -13044
▁nabra -13045
myślnie -13046
▁niedob -13047
▁obyczaj -13048
▁pułkownik -13049
asu -13050
▁Zde -13051
▁oddziel -13052
▁szczytu -13053
▁twojego -13054
kształt -13055
▁poglądy -13056
▁Świętej -13057
▁latar -13058
▁Najważ -13059
żności -13060
▁nacjona -13061
▁obszary -13062
▁zdolność -13063
▁wschodnim -13064
gowych -13065
▁nadzor -13066
▁Dis -13067
sista -13068
sował -13069
▁szaf -13070
▁wizer -13071
▁odrzekł -13072
▁emocjonal -13073
Pod -13074
nty -13075
żnego -13076
▁zdy -13077
cedo -13078
fryka -13079
▁Rach -13080
ninie -13081
▁pojechał -13082
▁producent -13083
▁postępowania -13084
tką -13085
szku -13086
▁Dalej -13087
▁odmówił -13088
▁świadec -13089
pione -13090
▁Hill -13091
▁puchar -13092
▁prawidł -13093
▁wyobraż -13094
▁Ocho -13095
niczym -13096
▁efekt -13097
▁miejscowych -13098
ździ -13099
▁Pułku -13100
▁skalę -13101
▁nazywany -13102
▁przejści -13103
▁żydowskiego -13104
eck -13105
wiły -13106
▁żywności -13107
▁alu -13108
▁Prawda -13109
▁aktorka -13110
▁materiały -13111
▁stosowane -13112
nowski -13113
▁obrońcy -13114
▁Tuż -13115
▁kodek -13116
sio -13117
▁Spa -13118
▁Flor -13119
▁przypomniał -13120
tain -13121
▁ss -13122
▁Ska -13123
▁nosa -13124
▁przyzwycza -13125
stce -13126
▁rozpacz -13127
▁chciałbym -13128
▁pułkownika -13129
▁technologii -13130
fort -13131
styczną -13132
▁wystarczająco -13133
▁gr -13134
▁remi -13135
▁żało -13136
▁Krysty -13137
▁istoty -13138
▁Dzisiaj -13139
▁biegnie -13140
łożone -13141
ponował -13142
▁przyjmu -13143
▁dostępne -13144
▁swobodnie -13145
ameryka -13146
▁wah -13147
▁Paula -13148
blu -13149
żym -13150
odła -13151
▁sar -13152
▁rozkazy -13153
▁sprzedaż -13154
▁detek -13155
▁dworca -13156
▁niesam -13157
▁Krzysztofa -13158
▁zamieszkał -13159
grzym -13160
▁niemi -13161
▁ustro -13162
▁hierar -13163
▁miasteczka -13164
▁Sus -13165
cając -13166
▁obcią -13167
▁lotnisk -13168
▁sklepie -13169
eme -13170
▁sio -13171
▁sklepu -13172
▁pociągu -13173
miać -13174
manna -13175
▁wznosi -13176
jać -13177
▁Um -13178
▁Ogro -13179
▁dogo -13180
▁mogąc -13181
▁przechodzą -13182
▁adi -13183
nowano -13184
▁umysłu -13185
▁pójdzie -13186
▁trzykrotnie -13187
▁kopu -13188
▁długim -13189
▁pozycje -13190
▁marynarki -13191
▁najnow -13192
▁stworzyć -13193
He -13194
▁wrza -13195
▁natura -13196
▁pochwy -13197
▁doży -13198
▁mury -13199
▁znanego -13200
▁potrafię -13201
▁systemów -13202
pal -13203
▁Dam -13204
szyło -13205
▁średnio -13206
▁konfe -13207
▁lokomo -13208
▁układzie -13209
"? -13210
89 -13211
rzcie -13212
▁toale -13213
▁kuchen -13214
▁deszczu -13215
sfak -13216
lenda -13217
leś -13218
ball -13219
stri -13220
▁miałby -13221
wątpliwie -13222
▁powód -13223
▁Politechniki -13224
▁trójką -13225
boga -13226
▁bała -13227
▁plasti -13228
ün -13229
▁Mała -13230
▁Sprawiedli -13231
▁historycznych -13232
▁Wobec -13233
▁Hitlera -13234
▁wieża -13235
▁kompleks -13236
▁katolicki -13237
▁prowadzenie -13238
▁choroba -13239
▁wyjaśnić -13240
▁podstawowych -13241
uszem -13242
▁tylu -13243
▁wytwo -13244
▁jakbym -13245
▁konkurs -13246
▁krawędzi -13247
nistycznej -13248
▁zrę -13249
siedli -13250
▁marsz -13251
▁odbud -13252
nicznych -13253
▁oficera -13254
ntów -13255
BS -13256
▁Utwór -13257
▁ulice -13258
▁wstrę -13259
▁wierzę -13260
▁zegarek -13261
▁cierpli -13262
▁Fryderyk -13263
▁ree -13264
kinie -13265
podal -13266
▁Afryce -13267
▁Premier -13268
▁przypadków -13269
zgó -13270
▁zasiadał -13271
cena -13272
jmował -13273
▁faktu -13274
▁Przypom -13275
▁czwarty -13276
szoną -13277
▁umrzeć -13278
▁Champions -13279
rześle -13280
▁jasna -13281
▁zwróci -13282
▁uważany -13283
zn -13284
stitu -13285
▁Tech -13286
▁dźwi -13287
▁niepraw -13288
▁zasob -13289
▁Ukrainie -13290
▁magazynu -13291
▁straciła -13292
ffi -13293
▁Liz -13294
▁odbywały -13295
▁angielskim -13296
ńc -13297
cke -13298
pane -13299
▁zaklę -13300
▁Teatrze -13301
▁krześle -13302
▁Generalnego -13303
dl -13304
▁1907 -13305
▁wydat -13306
▁Oddziału -13307
▁skał -13308
▁nożnej -13309
▁przybli -13310
▁wycofał -13311
▁ligowych -13312
inie -13313
▁Jaka -13314
▁PZPR -13315
skając -13316
▁czekając -13317
▁przeciwnie -13318
▁przykładem -13319
▁konsekwencji -13320
dok -13321
▁Zer -13322
▁kłę -13323
▁sile -13324
ńskimi -13325
▁frontu -13326
▁okazję -13327
▁dolinie -13328
▁imprezy -13329
▁otwarto -13330
▁magistra -13331
▁biało -13332
▁artykułów -13333
▁Obaj -13334
▁sform -13335
▁pistolet -13336
sno -13337
tnicy -13338
▁pomógł -13339
▁twarze -13340
▁obowiązków -13341
▁przedmioty -13342
▁zadu -13343
▁śpią -13344
▁odejść -13345
▁zachodzi -13346
pin -13347
warii -13348
▁losu -13349
▁słaby -13350
▁trasę -13351
▁artysta -13352
▁Kolum -13353
▁zaniepo -13354
zachodniej -13355
biej -13356
▁mowa -13357
▁odpor -13358
▁trafiła -13359
▁Stowarzyszenie -13360
listów -13361
▁sierż -13362
zydenta -13363
stępując -13364
▁dojść -13365
▁wieki -13366
▁trzecią -13367
▁poprzednich -13368
▁Miro -13369
▁setki -13370
▁straży -13371
▁czołgów -13372
▁ołtarz -13373
▁należący -13374
88 -13375
RD -13376
wól -13377
▁Tony -13378
niejszej -13379
▁eksploata -13380
▁Wykona -13381
▁pośrodku -13382
uter -13383
stawił -13384
▁tegoż -13385
▁wolna -13386
▁spojrzeć -13387
lara -13388
▁Habs -13389
▁Ruch -13390
▁Albert -13391
▁filmowy -13392
▁oglądać -13393
▁przebud -13394
▁szepnęła -13395
▁komedii -13396
▁zapytać -13397
pce -13398
many -13399
▁dali -13400
▁stając -13401
▁łe -13402
plan -13403
▁Róża -13404
▁Bożego -13405
▁kwadrat -13406
War -13407
▁cało -13408
▁robisz -13409
▁Zaczyna -13410
▁zajmują -13411
▁zar -13412
▁Dnia -13413
▁spóź -13414
▁laure -13415
▁choler -13416
▁Dąb -13417
▁wyk -13418
▁trza -13419
miarach -13420
▁magazyn -13421
▁jedzenie -13422
stymi -13423
▁kanadyj -13424
▁ubezpie -13425
▁Bła -13426
▁genety -13427
▁niedźwie -13428
▁najszybciej -13429
▁izo -13430
ffen -13431
leya -13432
▁wese -13433
gowi -13434
▁startował -13435
▁ver -13436
▁wyjął -13437
▁Maksym -13438
cielu -13439
legle -13440
▁gość -13441
▁Jagieł -13442
▁zachowały -13443
▁zaczynają -13444
województwo -13445
śnięte -13446
▁dostrzegł -13447
▁1906 -13448
▁norwe -13449
waliśmy -13450
▁sprzęt -13451
▁koncertów -13452
▁gda -13453
wczo -13454
▁Hei -13455
dzało -13456
erson -13457
▁ogrodu -13458
▁wieloma -13459
▁łagodnie -13460
▁środkowej -13461
": -13462
1). -13463
▁gospodarstwa -13464
asady -13465
▁zdob -13466
▁Cztery -13467
▁kadrze -13468
▁zakończenie -13469
conym -13470
▁tatu -13471
▁Sztuk -13472
logicznej -13473
▁Artur -13474
▁stoją -13475
▁tat -13476
▁kibi -13477
bre -13478
▁wieków -13479
▁skrzydeł -13480
chuje -13481
▁liczeb -13482
▁konieczności -13483
xa -13484
▁week -13485
▁kompletnie -13486
▁niewielką -13487
▁potwor -13488
▁Maryi -13489
▁wiodą -13490
▁zakaz -13491
▁czerwony -13492
▁kawalerii -13493
chałam -13494
▁promu -13495
▁pielęgni -13496
▁szam -13497
▁zjad -13498
riusza -13499
▁papieru -13500
▁jesteście -13501
▁zamówi -13502
▁Wiadomo -13503
▁nieprzyjem -13504
utra -13505
ktery -13506
▁sztuka -13507
▁dba -13508
▁stosunek -13509
▁usprawiedli -13510
pisuje -13511
▁Występuje -13512
▁potwierdził -13513
Wo -13514
▁Gdyni -13515
▁spisu -13516
▁patriar -13517
▁otworzyć -13518
▁wspomnienie -13519
cker -13520
niane -13521
▁pasz -13522
▁rejonu -13523
▁dalszym -13524
▁igrzysk -13525
▁lw -13526
▁uło -13527
4), -13528
▁1909 -13529
▁malarz -13530
pry -13531
▁fel -13532
▁opro -13533
▁Pradze -13534
▁przywie -13535
▁mogi -13536
▁architektoni -13537
luje -13538
▁Tata -13539
▁Andrew -13540
▁salonu -13541
▁miesiąca -13542
▁miły -13543
▁zawody -13544
▁sympaty -13545
▁polecenie -13546
▁Najświętszej -13547
Se -13548
▁skały -13549
▁rozpad -13550
nisz -13551
▁Łódź -13552
▁Johns -13553
▁przeła -13554
▁otoczeniu -13555
▁uniwersytecie -13556
wską -13557
▁Chmie -13558
▁prezentu -13559
▁poszukiwaniu -13560
tyzm -13561
▁modu -13562
▁jakoby -13563
▁Shi -13564
▁trzecia -13565
▁amerykańskie -13566
▁zatytułowany -13567
jże -13568
▁wersje -13569
▁uchodzi -13570
▁Babi -13571
▁Historii -13572
ózł -13573
▁hory -13574
▁zdał -13575
▁Chara -13576
▁Medio -13577
▁nisko -13578
5) -13579
▁owoc -13580
KWD -13581
▁wid -13582
▁Gwar -13583
▁High -13584
▁ciężkiej -13585
▁brytyjskich -13586
▁Ash -13587
▁Kami -13588
▁Pres -13589
▁past -13590
▁myślenia -13591
▁pomocnika -13592
▁zachodnim -13593
nus -13594
jskim -13595
sławem -13596
▁Barto -13597
▁Eve -13598
dźców -13599
▁pierś -13600
▁Życie -13601
▁Bolesław -13602
▁czwartej -13603
▁musiałem -13604
▁ery -13605
niczne -13606
▁Marce -13607
▁chory -13608
▁Uczestni -13609
▁autorski -13610
uli -13611
▁Bad -13612
▁Rzy -13613
czerwo -13614
▁kolejności -13615
▁właścicieli -13616
zione -13617
▁zrzu -13618
▁karcz -13619
▁pokazuje -13620
▁Cro -13621
▁Dun -13622
▁żebra -13623
▁Charlie -13624
▁Obej -13625
▁Santa -13626
▁mocniej -13627
▁kierowcy -13628
..." -13629
▁moni -13630
▁dużego -13631
▁mający -13632
▁decyzja -13633
▁szczęśliwy -13634
▁Let -13635
▁lotnictwa -13636
▁westch -13637
▁dostanie -13638
▁połączone -13639
▁piękną -13640
▁przypada -13641
▁zjawiska -13642
▁Sę -13643
▁Ari -13644
▁Opie -13645
▁Sur -13646
▁nazwał -13647
▁Niedługo -13648
▁wybrzeża -13649
▁niedzielę -13650
ida -13651
▁Ny -13652
gene -13653
▁Sob -13654
▁publicznego -13655
▁Jacob -13656
▁Głównego -13657
▁Zgromadzenia -13658
own -13659
głym -13660
▁przestała -13661
▁najwyższym -13662
szany -13663
▁wiarę -13664
▁klaszto -13665
▁nawzajem -13666
▁alkoholu -13667
▁emeryturę -13668
gowym -13669
▁fazy -13670
▁panny -13671
▁lepszy -13672
▁społecze -13673
iro -13674
tce -13675
▁Niko -13676
▁Czyżby -13677
▁zauważyć -13678
Ta -13679
bora -13680
▁wieść -13681
▁aktora -13682
▁palców -13683
▁konflikt -13684
▁formalnie -13685
▁Socjalisty -13686
▁pud -13687
▁mówiłem -13688
▁Głos -13689
▁mógłbym -13690
▁słuchał -13691
/0 -13692
sja -13693
▁Wers -13694
riuszy -13695
▁występy -13696
gol -13697
czom -13698
bione -13699
▁Serce -13700
▁dawne -13701
▁podwó -13702
▁radykal -13703
mowy -13704
▁koper -13705
▁wychowa -13706
▁sumienia -13707
▁położenie -13708
tic -13709
iach -13710
rała -13711
vers -13712
▁poj -13713
ralne -13714
▁piwa -13715
▁obrzy -13716
▁Ferdyna -13717
▁wsparcie -13718
▁het -13719
▁Ozna -13720
▁Liczba -13721
▁emocji -13722
▁łamach -13723
▁chłopów -13724
▁froncie -13725
▁siostrze -13726
▁ojc -13727
▁różnią -13728
▁słyszę -13729
▁samochody -13730
6). -13731
▁cien -13732
▁Droga -13733
▁wywia -13734
▁Jehowy -13735
▁koncepcji -13736
▁rodzicami -13737
▁Nazy -13738
▁kuch -13739
▁upew -13740
▁nazywał -13741
▁Cieszy -13742
▁podstawy -13743
▁skończyła -13744
▁nieustannie -13745
uka -13746
niczą -13747
▁nakrę -13748
▁Produk -13749
owate -13750
▁piwo -13751
▁działaczy -13752
rent -13753
▁zremis -13754
▁dystrybu -13755
yne -13756
rand -13757
ssen -13758
▁ape -13759
▁ósm -13760
▁przekonany -13761
inte -13762
▁morzu -13763
ralnych -13764
▁ciężkich -13765
▁rozpaczy -13766
▁dorosłych -13767
▁kilkadziesiąt -13768
▁Gö -13769
▁łez -13770
▁osobie -13771
▁techniki -13772
red -13773
▁Stos -13774
▁sukien -13775
▁policję -13776
▁świętych -13777
▁un -13778
▁mno -13779
▁(190 -13780
▁Warszawskiej -13781
tyn -13782
▁Ola -13783
szemu -13784
▁sztafe -13785
▁Karierę -13786
▁miłością -13787
▁[] -13788
▁wuj -13789
towego -13790
▁poparcie -13791
▁słyszałem -13792
▁utworzenia -13793
lasy -13794
▁delega -13795
▁spodnie -13796
▁przyrodni -13797
▁65 -13798
▁SC -13799
▁Kri -13800
▁aku -13801
lewski -13802
▁Spotka -13803
▁zra -13804
stracji -13805
▁wyelimin -13806
▁francuskim -13807
▁wiatru -13808
▁wybrać -13809
▁przyjemności -13810
▁Uz -13811
wica -13812
▁grob -13813
▁poszukiwania -13814
▁jéj -13815
▁napi -13816
▁taksów -13817
▁Ist -13818
▁Kowal -13819
▁Możli -13820
▁Gdańska -13821
▁odcinka -13822
bridge -13823
▁zabrz -13824
▁pełnej -13825
▁poczyna -13826
▁ludzkiego -13827
▁arcybiskup -13828
kono -13829
tocy -13830
okrotnie -13831
▁uzyskując -13832
▁0: -13833
ates -13834
▁przek -13835
▁urządzeń -13836
nicza -13837
▁rumu -13838
▁ulica -13839
▁zamierz -13840
▁poświęcił -13841
▁publicznie -13842
far -13843
▁Andre -13844
▁piłkarski -13845
żemy -13846
▁adap -13847
kowice -13848
▁chmur -13849
▁czeko -13850
darność -13851
siębior -13852
▁koloru -13853
▁propor -13854
▁wiersze -13855
▁światową -13856
▁programów -13857
▁Usły -13858
▁dykt -13859
▁Wieczo -13860
rzadziej -13861
cyjnymi -13862
nicznej -13863
▁gan -13864
▁kle -13865
▁komer -13866
▁sygnał -13867
day -13868
▁błysz -13869
▁Miałam -13870
▁rocznie -13871
▁Bułgarii -13872
▁ogrodzie -13873
artą -13874
▁Bank -13875
▁renes -13876
▁wypła -13877
▁PO -13878
sper -13879
szami -13880
▁garni -13881
▁liter -13882
▁cieniu -13883
▁robiła -13884
▁westchnęła -13885
▁odpowiednie -13886
▁dziwa -13887
▁Dowódz -13888
orskiego -13889
piał -13890
▁koszul -13891
▁Kolejny -13892
▁morskich -13893
▁trzymając -13894
pas -13895
cial -13896
nału -13897
▁zaspo -13898
▁zakładów -13899
▁nominację -13900
▁mianowicie -13901
▁skutecznie -13902
▁Alb -13903
▁ulicą -13904
▁NKWD -13905
▁skan -13906
▁dowodów -13907
▁łóżko -13908
▁środowisku -13909
▁Jar -13910
▁pracach -13911
▁powstaje -13912
▁obserwacji -13913
▁Naro -13914
▁niespe -13915
szczyzny -13916
▁Nagrody -13917
▁kwar -13918
▁Jakże -13919
stralij -13920
▁oddzie -13921
▁znajom -13922
▁Wojennej -13923
▁organizację -13924
▁kel -13925
▁izby -13926
▁amator -13927
▁przepro -13928
▁Kanadzie -13929
▁mieszkała -13930
lka -13931
▁daj -13932
▁Sano -13933
▁chary -13934
▁Rosjan -13935
▁wrogów -13936
▁Parlamentu -13937
▁men -13938
▁Języ -13939
▁Świąty -13940
▁rodzaje -13941
▁rozciąga -13942
▁okolicznościach -13943
kot -13944
erów -13945
kiety -13946
▁param -13947
▁Musiał -13948
▁wpływu -13949
▁wydaniu -13950
▁siedzieć -13951
▁nazwiskiem -13952
▁Otto -13953
▁kultu -13954
▁toteż -13955
IC -13956
wień -13957
▁tył -13958
▁kalibru -13959
▁Mickiewicza -13960
▁przeznaczone -13961
▁Tay -13962
▁wesoło -13963
▁Boskiej -13964
▁czarnym -13965
▁ogromny -13966
▁Love -13967
▁zostaną -13968
▁pragnął -13969
4). -13970
▁jazz -13971
▁Główny -13972
▁żelaza -13973
▁udo -13974
▁Pers -13975
▁zjawisko -13976
▁wyobraźni -13977
▁określenia -13978
▁usytu -13979
▁reformy -13980
▁przystąpił -13981
jako -13982
neto -13983
ronie -13984
szały -13985
tkami -13986
▁opór -13987
▁seks -13988
▁Chinach -13989
▁odchodzi -13990
niczo -13991
▁Roze -13992
▁UEFA -13993
zienie -13994
▁Strzel -13995
▁strefy -13996
▁szeregu -13997
▁konfi -13998
▁nagród -13999
▁obraca -14000
▁folwark -14001
▁kopalni -14002
▁wnętrze -14003
▁dziękuję -14004
▁250 -14005
▁pul -14006
▁Alba -14007
▁Cri -14008
▁Opowie -14009
▁kochał -14010
▁mogłoby -14011
▁palec -14012
▁przyjść -14013
ан -14014
▁maleń -14015
▁podwór -14016
▁muzycznych -14017
dzały -14018
▁głodu -14019
▁tytuły -14020
ino -14021
tasz -14022
towany -14023
założy -14024
▁górnej -14025
▁trzydziestu -14026
more -14027
▁Ster -14028
▁sesji -14029
▁Doliny -14030
▁siedli -14031
▁otwarty -14032
▁sukcesu -14033
▁wyjeżdża -14034
93 -14035
formuł -14036
▁począł -14037
▁sędzia -14038
▁skonstru -14039
▁9. -14040
▁có -14041
▁losy -14042
letnia -14043
▁Galicji -14044
▁podobnego -14045
logu -14046
▁Orderem -14047
▁historyczne -14048
▁MS -14049
▁Św -14050
ceni -14051
▁Bat -14052
▁komuś -14053
▁rodze -14054
▁Członek -14055
▁pewności -14056
▁wydawała -14057
▁warunkiem -14058
▁warszawskiej -14059
tarł -14060
▁Twój -14061
▁robię -14062
polskiej -14063
▁relacje -14064
▁konsekwen -14065
▁zanied -14066
▁dokonać -14067
▁samochodem -14068
▁niżej -14069
▁obawy -14070
▁prawdziwą -14071
▁Tr -14072
wisko -14073
▁święty -14074
▁Zad -14075
▁Jedną -14076
▁Hall -14077
▁doko -14078
▁przeno -14079
▁reelek -14080
▁wysoką -14081
▁zwierzch -14082
▁niemiecka -14083
▁Ruchu -14084
▁murów -14085
▁przysłu -14086
▁szwajcar -14087
rodzi -14088
budowę -14089
wcześniej -14090
▁żydowskich -14091
▁obecny -14092
:] -14093
▁Produ -14094
▁kaden -14095
▁budowli -14096
▁zabitych -14097
▁papierosa -14098
▁Posiada -14099
▁przeciwlo -14100
▁SA -14101
▁fat -14102
stoku -14103
▁gminę -14104
▁stają -14105
▁białej -14106
▁podjęła -14107
▁amerykańska -14108
__ -14109
żyny -14110
▁PAN -14111
kujących -14112
▁pewny -14113
-16 -14114
▁hali -14115
▁Białym -14116
▁wchodził -14117
▁mosza -14118
▁ptaki -14119
▁końcem -14120
▁podwyż -14121
▁resztki -14122
▁sprzętu -14123
▁zacząłem -14124
▁katolickiego -14125
▁owego -14126
▁zbudowana -14127
zujący -14128
▁Lotni -14129
▁rozciąg -14130
zki -14131
czonymi -14132
▁prawdą -14133
▁brakuje -14134
▁Jesteśmy -14135
▁postacie -14136
idy -14137
”), -14138
zmów -14139
▁piln -14140
▁bydgo -14141
▁debiu -14142
▁zepsu -14143
dru -14144
▁opiekę -14145
▁twierdził -14146
PA -14147
▁pieczę -14148
▁okolicznych -14149
dziano -14150
▁Sen -14151
▁Sing -14152
▁redaktorem -14153
nizmu -14154
▁wyprost -14155
▁kochanie -14156
▁wystawia -14157
▁fik -14158
▁owym -14159
▁śladu -14160
▁czując -14161
▁ważnym -14162
▁Szkocji -14163
▁sma -14164
▁sprę -14165
▁pozor -14166
▁klientów -14167
▁kierownik -14168
Ca -14169
rozumie -14170
▁białego -14171
▁turniejach -14172
▁zakończenia -14173
dzimy -14174
nizacji -14175
piąc -14176
▁militar -14177
żać -14178
▁Lil -14179
▁Pad -14180
▁kardynał -14181
▁narodowości -14182
▁zasu -14183
▁architektury -14184
rug -14185
▁fote -14186
▁stworzenie -14187
▁zadowolony -14188
▁wydawnictwa -14189
▁Bul -14190
▁Dzwo -14191
▁zamont -14192
▁długiej -14193
▁twórców -14194
szep -14195
▁gole -14196
▁chciało -14197
▁wielkość -14198
▁wykonano -14199
▁Jadwi -14200
▁właśc -14201
▁znała -14202
▁zabawy -14203
▁Lucy -14204
▁lotniska -14205
jazdu -14206
ografi -14207
▁Celem -14208
▁Musisz -14209
▁Dio -14210
▁uzysk -14211
▁Maksymi -14212
▁42 -14213
▁Dou -14214
nikom -14215
▁tkwi -14216
kładać -14217
▁odnowi -14218
▁oparty -14219
▁Podobno -14220
▁podeszła -14221
Au -14222
▁Ap -14223
▁800 -14224
▁Copa -14225
▁wkład -14226
%) -14227
▁nawo -14228
▁odwagi -14229
▁wyposażony -14230
▁Ryszard -14231
▁negocja -14232
▁stoczni -14233
▁kontaktu -14234
▁krakowskiego -14235
nistów -14236
▁będące -14237
▁Kongres -14238
▁Fundacji -14239
▁lamp -14240
▁finan -14241
▁sercem -14242
▁Marszał -14243
▁wywodzi -14244
▁starszego -14245
▁Kalifornii -14246
Lek -14247
▁ryba -14248
▁Ministra -14249
▁Hum -14250
▁wskazów -14251
▁Wej -14252
▁dają -14253
lądzie -14254
▁nadaje -14255
reś -14256
▁dora -14257
czasie -14258
▁lasach -14259
▁ofiarą -14260
▁komunik -14261
▁nakazał -14262
▁zaczynał -14263
▁socjalisty -14264
urch -14265
▁szli -14266
▁opowieść -14267
▁silników -14268
tajem -14269
rowanych -14270
▁mianował -14271
▁rozumiesz -14272
▁śniadanie -14273
▁kompozytor -14274
miny -14275
ceniem -14276
▁senator -14277
▁czasopisma -14278
nich -14279
fikacja -14280
▁dziewczynki -14281
IV -14282
stwu -14283
▁ledwo -14284
chaliśmy -14285
mum -14286
▁kance -14287
▁wydano -14288
▁zrobię -14289
▁śmiech -14290
▁siedziby -14291
▁fio -14292
▁owych -14293
iss -14294
lind -14295
▁tri -14296
▁ogromną -14297
▁sla -14298
▁dodatek -14299
▁korzyst -14300
▁Agnieszka -14301
goty -14302
▁przeko -14303
▁głęboki -14304
▁redaktor -14305
szewskiego -14306
▁występowania -14307
▁szor -14308
▁Podla -14309
▁odpły -14310
▁skier -14311
▁dosłownie -14312
1), -14313
▁Jutro -14314
▁ważną -14315
▁dostrzec -14316
▁absolutnie -14317
9) -14318
cik -14319
▁Bło -14320
▁Jon -14321
▁odno -14322
▁wiąza -14323
▁kolanach -14324
dney -14325
▁Benedy -14326
▁wypowiedzi -14327
▁temperatury -14328
▁politycznego -14329
▁wykorzystywane -14330
dalem -14331
wczym -14332
▁przecią -14333
▁religijnych -14334
▁jab -14335
▁imigra -14336
gował -14337
łanie -14338
▁Sądu -14339
▁syno -14340
▁bieżą -14341
▁nauczyć -14342
gara -14343
▁zej -14344
ńskiemu -14345
stycznie -14346
▁piosenkar -14347
pot -14348
▁atom -14349
▁traci -14350
▁odróżnieniu -14351
▁Tan -14352
▁gardło -14353
▁uznała -14354
▁obliczu -14355
▁Rosjanie -14356
▁Małgorzata -14357
▁przegrywając -14358
lory -14359
▁dzwon -14360
▁dwanaście -14361
▁1904 -14362
trzymują -14363
▁kierunek -14364
▁sprzedał -14365
▁Francisco -14366
jon -14367
▁komisa -14368
▁licząc -14369
▁niespodziewanie -14370
▁Mem -14371
dowali -14372
▁kolonii -14373
▁starając -14374
▁zauważ -14375
▁dzieciństwie -14376
bile -14377
▁nadano -14378
▁Magdale -14379
▁wnętrzu -14380
▁australij -14381
▁banku -14382
▁zainstal -14383
▁skierowany -14384
jała -14385
▁Zofia -14386
▁Oddział -14387
▁wspólne -14388
▁funkcjonuje -14389
▁umieszczony -14390
▁apli -14391
▁zesz -14392
▁odległ -14393
▁reklam -14394
▁generalnego -14395
zną -14396
▁Ade -14397
▁Salo -14398
jewski -14399
▁etapie -14400
▁uznany -14401
▁spełnia -14402
▁rywalizacji -14403
▁powodzeniem -14404
▁umieszczone -14405
▁Ża -14406
▁gałą -14407
▁nadej -14408
▁Słuchaj -14409
▁Louis -14410
▁synago -14411
Czy -14412
hama -14413
▁mianem -14414
▁zakłady -14415
▁Poznania -14416
▁rozgrywa -14417
▁Czechosłowacji -14418
▁pokaz -14419
▁Spojrzała -14420
noza -14421
▁kątem -14422
▁oknem -14423
▁pionie -14424
▁weszli -14425
▁Son -14426
▁Wybor -14427
▁zdobyli -14428
zes -14429
▁tamże -14430
▁powinnam -14431
▁ST -14432
▁Krót -14433
▁śmigł -14434
▁połowa -14435
frastruk -14436
▁usiadła -14437
▁Ogólnokształcą -14438
My -14439
▁puste -14440
▁dwiema -14441
▁Chciałem -14442
▁Ostatnie -14443
▁przystąpi -14444
▁szczegóły -14445
wasz -14446
▁Fri -14447
puścił -14448
▁rozgrywki -14449
▁55 -14450
▁Honor -14451
▁domaga -14452
▁persone -14453
▁modlitwy -14454
arskiej -14455
▁opisuje -14456
▁Bolesława -14457
▁nauczyciela -14458
▁Cur -14459
▁pytał -14460
▁przedmie -14461
▁turystów -14462
ństwu -14463
▁tara -14464
▁manife -14465
▁Wielkim -14466
▁przemyśle -14467
Go -14468
jej -14469
▁Fron -14470
▁szła -14471
▁serię -14472
▁dekora -14473
▁garniz -14474
▁składała -14475
▁nasy -14476
▁płuc -14477
▁jam -14478
ważne -14479
▁wyczy -14480
▁Budynek -14481
▁Pierwotnie -14482
gany -14483
konie -14484
▁miną -14485
niowego -14486
▁Egiptu -14487
▁nagrał -14488
▁niepokój -14489
▁wspomnień -14490
dob -14491
▁44 -14492
▁otu -14493
▁chłopaka -14494
▁Gmin -14495
▁grub -14496
▁spor -14497
▁White -14498
▁zawodu -14499
▁wszelką -14500
▁atmosfery -14501
phi -14502
▁Fel -14503
▁zdarzenia -14504
▁osobowości -14505
▁założyciel -14506
głego -14507
▁Isto -14508
▁mija -14509
▁socj -14510
▁schwy -14511
styczna -14512
▁tenden -14513
▁Badania -14514
▁rodzajów -14515
stię -14516
▁rola -14517
▁dorosł -14518
▁Wewnętrz -14519
▁amerykańskim -14520
mel -14521
▁trum -14522
▁Indiach -14523
▁wyników -14524
▁zniszczenia -14525
▁babcia -14526
▁kadłuba -14527
▁trwania -14528
▁państwowych -14529
▁Wolf -14530
▁Zamek -14531
▁Zespo -14532
▁cudzo -14533
▁znaki -14534
▁krzesło -14535
▁określić -14536
▁zastępcy -14537
▁Posłu -14538
▁karto -14539
▁zuży -14540
▁rzeczą -14541
▁Williama -14542
▁studiach -14543
▁dyspozycji -14544
▁sznur -14545
▁pilota -14546
▁wymiany -14547
▁jednozna -14548
▁twórczość -14549
nną -14550
rąg -14551
▁koniu -14552
▁warmi -14553
▁odkrył -14554
▁rozg -14555
▁artykuł -14556
miono -14557
▁Cześć -14558
▁wydać -14559
Su -14560
▁6, -14561
▁mona -14562
▁aspek -14563
▁uśmiechu -14564
▁potrzebował -14565
zienia -14566
▁odtwo -14567
▁słowia -14568
▁magnety -14569
▁ćwierćfina -14570
▁Nan -14571
▁owe -14572
▁Zakład -14573
▁słowach -14574
▁prawdziwym -14575
▁Bio -14576
▁Rak -14577
żność -14578
▁wami -14579
▁brzuch -14580
▁wyspę -14581
▁okazały -14582
▁prestiż -14583
▁Wrocławia -14584
feld -14585
▁namie -14586
▁korzyści -14587
▁milczenie -14588
▁powinienem -14589
▁Nim -14590
▁dokoń -14591
▁wikar -14592
minacji -14593
▁UN -14594
▁Zatem -14595
▁Zdaje -14596
strój -14597
▁grób -14598
▁skur -14599
dowane -14600
▁Davida -14601
▁świadkiem -14602
▁Specjal -14603
▁młodszy -14604
▁fotografii -14605
głem -14606
▁Rodzina -14607
▁zwróciła -14608
▁Il -14609
▁Olim -14610
▁okazać -14611
logicznego -14612
nacie -14613
▁ścisł -14614
uda -14615
▁jaz -14616
▁rzekę -14617
walifik -14618
▁czerwonym -14619
▁przeszłość -14620
▁powierzchnia -14621
VD -14622
▁Hej -14623
niowe -14624
▁Nowak -14625
▁ciekawe -14626
▁działała -14627
GB -14628
▁poła -14629
▁szum -14630
▁młodej -14631
▁wydało -14632
▁Barbara -14633
▁Federacji -14634
▁repres -14635
▁pielgrzym -14636
är -14637
▁Wzię -14638
▁stacjon -14639
▁następny -14640
kają -14641
▁Steve -14642
▁dopły -14643
demokra -14644
▁stację -14645
▁wędrów -14646
▁Bona -14647
▁próżno -14648
TP -14649
isa -14650
▁loj -14651
▁stypen -14652
▁wydane -14653
▁napisać -14654
▁zakocha -14655
▁Charlotte -14656
▁Are -14657
▁Decy -14658
▁wolne -14659
lizacja -14660
▁ciepła -14661
▁stawał -14662
▁wieści -14663
▁zmniejsza -14664
▁przeprowadza -14665
łód -14666
▁fala -14667
▁Mówił -14668
▁krytyków -14669
▁Cle -14670
▁barw -14671
▁zasła -14672
▁pomoże -14673
Artagnan -14674
▁narodowych -14675
6), -14676
▁hol -14677
owemu -14678
szczył -14679
▁zostają -14680
lią -14681
mieśl -14682
▁cara -14683
▁Bundes -14684
▁metodą -14685
▁przekonania -14686
▁popę -14687
▁Psycho -14688
▁ujrzał -14689
▁Ober -14690
▁kopal -14691
▁stylem -14692
▁salonie -14693
▁telewizyjnych -14694
gowe -14695
▁Ole -14696
▁brzyd -14697
▁fortu -14698
▁oknie -14699
▁strona -14700
▁dwudziesto -14701
▁4: -14702
▁bil -14703
▁neo -14704
▁używać -14705
▁American -14706
▁pomyśleć -14707
cjum -14708
▁Eng -14709
▁końców -14710
▁złożone -14711
▁odcinków -14712
87 -14713
bery -14714
nikowi -14715
▁uczyć -14716
kowanej -14717
▁przybyli -14718
SD -14719
szyli -14720
▁uhono -14721
▁siłami -14722
tnika -14723
▁Urzędu -14724
waju -14725
▁mięsa -14726
▁wasze -14727
▁zwień -14728
▁dramacie -14729
▁rosyjskim -14730
▁wystartował -14731
óstr -14732
stapo -14733
▁Srebr -14734
▁bloku -14735
órki -14736
▁wiru -14737
▁przeżyć -14738
trwał -14739
▁Sand -14740
chester -14741
▁wiosen -14742
▁stulecia -14743
atychmiast -14744
▁silniki -14745
▁równowagi -14746
▁utrzymanie -14747
OM -14748
▁Górze -14749
▁Rolni -14750
▁domach -14751
▁zamiaru -14752
▁Szczecinie -14753
mawiał -14754
▁Gusta -14755
▁odbywają -14756
▁trudniej -14757
bon -14758
▁pilot -14759
▁młodym -14760
▁nazwać -14761
▁opowiedział -14762
słą -14763
żąt -14764
▁wzboga -14765
▁kalenda -14766
▁przemówi -14767
▁słyszała -14768
▁zdecydowała -14769
▁oceny -14770
▁ustęp -14771
▁wygła -14772
▁diagno -14773
▁korona -14774
gali -14775
▁Pogo -14776
▁Wych -14777
▁kosmo -14778
▁ruchy -14779
▁tamten -14780
▁bezskute -14781
▁mających -14782
▁rozporzą -14783
▁umieszcza -14784
▁rozumu -14785
▁wyposażenie -14786
jew -14787
▁39 -14788
▁zwrócić -14789
▁dzieciom -14790
▁uśmiecha -14791
▁zdarzyło -14792
▁Bara -14793
▁szukając -14794
▁kierownika -14795
iło -14796
▁Sad -14797
▁Woli -14798
rowania -14799
▁przesa -14800
▁ważnych -14801
▁emigracji -14802
▁znajomości -14803
atach -14804
▁spro -14805
▁minutach -14806
▁zaprzyja -14807
dźmy -14808
▁uzd -14809
▁Lubo -14810
▁sprzą -14811
▁obecnych -14812
▁przypuszcza -14813
pnął -14814
▁Dwo -14815
sters -14816
niesiono -14817
▁Chrz -14818
▁Wyzna -14819
▁wściek -14820
▁znajdujący -14821
▁BR -14822
list -14823
▁Stalina -14824
▁polityka -14825
▁PKP -14826
gając -14827
▁biuro -14828
▁czarna -14829
▁najpięk -14830
▁reaktyw -14831
▁pozostałości -14832
▁dziennie -14833
▁przypomnieć -14834
gują -14835
hard -14836
▁Twarz -14837
▁Rezerw -14838
▁piasku -14839
▁prosić -14840
▁sprzyja -14841
▁tk -14842
▁Cre -14843
▁Biura -14844
▁moskie -14845
▁edukacji -14846
IT -14847
▁kluby -14848
▁ludzkości -14849
kta -14850
▁ein -14851
▁ogon -14852
▁Okazało -14853
▁wyznania -14854
▁Natychmiast -14855
New -14856
przez -14857
▁Will -14858
▁zuch -14859
▁Julian -14860
▁integra -14861
▁wojskową -14862
▁Przedsiębior -14863
km -14864
▁wyruszył -14865
▁Wzgó -14866
▁motyw -14867
▁Jamesa -14868
▁konspira -14869
okracji -14870
8) -14871
Jak -14872
nium -14873
▁kij -14874
▁wsie -14875
▁wysłu -14876
niętego -14877
▁satysfak -14878
▁polityczny -14879
▁USS -14880
▁Wola -14881
▁spis -14882
▁odtąd -14883
▁godności -14884
▁przyjaźń -14885
lecie -14886
▁chrze -14887
jały -14888
▁Des -14889
▁kilo -14890
▁Ponow -14891
▁dzierża -14892
▁koniecznie -14893
tet -14894
żen -14895
▁(4 -14896
ding -14897
▁Cat -14898
▁ukazy -14899
kręciła -14900
▁bronił -14901
▁użycia -14902
▁odwiedza -14903
▁pozwoliła -14904
swo -14905
▁Hart -14906
▁czyż -14907
▁wstą -14908
▁punktem -14909
▁asystent -14910
▁naje -14911
▁dziewiętna -14912
▁wypożyczony -14913
▁przeto -14914
▁wezwaniem -14915
▁mniejszych -14916
.... -14917
żych -14918
▁spó -14919
▁opieką -14920
▁zareag -14921
▁KP -14922
▁celi -14923
▁iden -14924
czości -14925
▁dwuna -14926
▁sprzymie -14927
▁królewskiej -14928
spodar -14929
atorium -14930
▁Ire -14931
kop -14932
▁ke -14933
▁czułem -14934
▁zielone -14935
blą -14936
▁masa -14937
▁Słońca -14938
▁spadła -14939
▁sformuł -14940
▁Zachodniej -14941
well -14942
▁ras -14943
▁Merkel -14944
▁biurku -14945
▁poprowa -14946
▁nominacje -14947
▁przybiera -14948
▁niewielkim -14949
▁dzisiejszej -14950
▁wznowi -14951
▁sposoby -14952
▁kartkę -14953
▁uwi -14954
▁majora -14955
▁rzemieśl -14956
wiska -14957
▁Island -14958
▁skutku -14959
▁włosach -14960
▁Młodzieży -14961
▁cmentarza -14962
▁uderzenia -14963
▁biblioteki -14964
puje -14965
▁wtó -14966
▁podjąć -14967
▁Austria -14968
▁klasztorze -14969
▁Ucie -14970
▁ażeby -14971
▁Gdańsk -14972
▁postawił -14973
▁klej -14974
▁wyspa -14975
▁Wszech -14976
▁szerokie -14977
▁ośrodkiem -14978
▁przeniosła -14979
▁Petersburgu -14980
vil -14981
▁All -14982
▁Soko -14983
▁ogrod -14984
domier -14985
miertel -14986
▁Elizabeth -14987
oria -14988
▁Hami -14989
▁egip -14990
▁Carlo -14991
▁Pałac -14992
▁Rudol -14993
▁uznanie -14994
▁świadczy -14995
▁zaple -14996
▁starcie -14997
▁oczywiste -14998
lista -14999
▁poty -15000
▁Reich -15001
▁Waldem -15002
▁śmiechu -15003
▁zapomniał -15004
▁indywidualnych -15005
ds -15006
▁Komi -15007
zujące -15008
▁odnaj -15009
▁powodem -15010
nizm -15011
▁Marcina -15012
▁napisem -15013
▁Portugalii -15014
▁brytyjskiego -15015
IL -15016
▁Aus -15017
▁May -15018
▁pobi -15019
▁projektów -15020
▁SP -15021
▁Syl -15022
▁brała -15023
▁Przynajmniej -15024
mak -15025
top -15026
bnie -15027
▁Widzisz -15028
rzać -15029
▁Hot -15030
▁prowo -15031
▁szkła -15032
▁opuściła -15033
chwy -15034
natyw -15035
riana -15036
▁kursu -15037
▁należących -15038
▁Maciu -15039
▁odleg -15040
▁starą -15041
▁naukowej -15042
▁publiczności -15043
▁Zadzwo -15044
▁kandyd -15045
▁przerwała -15046
▁odpowiadał -15047
ett -15048
▁1,5 -15049
▁kolorze -15050
▁pierwszo -15051
▁przypisy -15052
▁Woł -15053
▁naród -15054
▁ważny -15055
▁bułgar -15056
▁chodził -15057
▁zmarłego -15058
▁silnikiem -15059
rel -15060
▁artykuły -15061
▁dostarcza -15062
▁nauczycieli -15063
▁wiedzę -15064
▁lekkoat -15065
▁niewielka -15066
▁Rzeczywiście -15067
zak -15068
▁mito -15069
▁Swoją -15070
▁Jugosławii -15071
▁from -15072
▁psów -15073
▁ojczyzny -15074
▁sprzeciw -15075
▁Finlandii -15076
▁odwiedził -15077
▁przyznała -15078
▁telewizyjny -15079
mai -15080
▁PPS -15081
▁sprin -15082
▁zwana -15083
▁chmury -15084
▁Najstar -15085
▁armię -15086
▁rzece -15087
▁nacisk -15088
▁okolice -15089
▁obszarów -15090
▁samodzielnie -15091
▁wagi -15092
▁Genera -15093
▁miliony -15094
▁dopuszcz -15095
niałam -15096
▁gruby -15097
stępują -15098
▁wyższe -15099
▁godzina -15100
▁odkryto -15101
▁dokumentach -15102
▁Bach -15103
▁gazu -15104
▁nierów -15105
▁stoliku -15106
▁wiecznie -15107
▁Bab -15108
▁Waw -15109
▁ego -15110
nianą -15111
▁przydom -15112
▁wolnego -15113
▁ONZ -15114
▁Zgi -15115
▁Litwie -15116
▁wykonany -15117
▁stanowisk -15118
manem -15119
▁dyskre -15120
ądał -15121
▁Floty -15122
▁pytam -15123
▁chwycił -15124
▁duchowny -15125
▁pomyślałem -15126
▁gma -15127
▁Śre -15128
kowaną -15129
▁cudow -15130
▁metry -15131
▁obronił -15132
▁współczesnej -15133
5). -15134
▁weszły -15135
▁But -15136
▁fale -15137
▁upra -15138
termin -15139
▁ranka -15140
▁Gabrie -15141
▁gromad -15142
▁powstań -15143
▁komendan -15144
7). -15145
▁Fabry -15146
▁reper -15147
▁gniewu -15148
▁zaśpie -15149
rowali -15150
▁pisania -15151
▁przebojów -15152
wką -15153
miera -15154
▁that -15155
▁Wspom -15156
mira -15157
test -15158
▁rządy -15159
▁rzadziej -15160
bły -15161
▁Zawi -15162
▁Żona -15163
▁oddziała -15164
▁upamiętnia -15165
▁wychow -15166
larii -15167
▁przem -15168
▁rozpę -15169
▁sześcio -15170
▁przyjaciółmi -15171
▁Berlin -15172
▁nauczył -15173
▁łazienki -15174
mes -15175
leje -15176
▁acz -15177
▁Drzwi -15178
▁spotkała -15179
▁twierdzy -15180
An -15181
szonej -15182
▁różnymi -15183
▁such -15184
▁wiad -15185
glo -15186
czymy -15187
▁nazw -15188
▁panów -15189
▁miesiącu -15190
▁oddziela -15191
▁przepisy -15192
▁Navy -15193
▁Teatr -15194
▁zamil -15195
▁obozów -15196
▁klimaty -15197
▁królowi -15198
towi -15199
▁baj -15200
pital -15201
▁Zawa -15202
▁Green -15203
▁narzu -15204
▁litery -15205
▁muzułma -15206
Pi -15207
lki -15208
▁dawny -15209
▁pójdę -15210
▁niepowo -15211
▁wspólnoty -15212
▁plaży -15213
▁bliska -15214
▁wyszło -15215
▁wysiłku -15216
▁medycyny -15217
▁cyr -15218
▁Pierre -15219
▁piecho -15220
logiczny -15221
▁wejściu -15222
▁świątynia -15223
Fran -15224
▁dyskusji -15225
▁składają -15226
▁Przewodni -15227
ził -15228
▁Buda -15229
▁rasy -15230
dziego -15231
nianie -15232
rię -15233
gowie -15234
▁refle -15235
▁kamienie -15236
▁fer -15237
▁abym -15238
▁nabiera -15239
▁poparcia -15240
5), -15241
gają -15242
▁Dale -15243
▁Magi -15244
▁Budow -15245
▁Artyle -15246
▁kolejna -15247
▁widocznie -15248
łymi -15249
ałach -15250
riach -15251
▁tryb -15252
anda -15253
▁Gam -15254
▁utk -15255
▁Wschodniej -15256
▁finansowych -15257
▁prawdopodobie -15258
gy -15259
rią -15260
▁kło -15261
▁siero -15262
▁piśmie -15263
▁podmio -15264
▁otrzymuje -15265
▁wskazując -15266
▁Ministerstwie -15267
łk -15268
▁Haj -15269
▁Lub -15270
▁Blan -15271
▁benzy -15272
▁odpad -15273
▁łzami -15274
[...]
