<s> 0
</s> 0
<pad> 0
<unk> 0
ie -0
▁p -1
▁w -2
▁s -3
▁z -4
▁n -5
ow -6
cz -7
rz -8
ch -9
▁d -10
an -11
▁m -12
▁t -13
▁o -14
st -15
▁k -16
ał -17
ra -18
▁po -19
ro -20
▁j -21
ni -22
▁i -23
▁na -24
▁b -25
sz -26
ię -27
dz -28
go -29
li -30
nie -31
rze -32
le -33
ar -34
ci -35
on -36
▁za -37
▁do -38
sk -39
▁nie -40
▁a -41
ym -42
▁je -43
ła -44
▁się -45
re -46
ak -47
ów -48
ne -49
▁u -50
▁g -51
at -52
em -53
na -54
▁wy -55
▁– -56
am -57
ych -58
er -59
rzy -60
▁prze -61
ka -62
▁ro -63
wi -64
▁c -65
że -66
▁st -67
▁1 -68
ło -69
or -70
ją -71
ku -72
▁cz -73
en -74
ko -75
ia -76
wa -77
ki -78
dzi -79
▁od -80
ej -81
dy -82
la -83
▁by -84
ego -85
cie -86
cj -87
▁ko -88
wo -89
ry -90
po -91
ści -92
no -93
ała -94
▁l -95
▁f -96
ce -97
dzie -98
ru -99
ty -100
czy -101
da -102
mi -103
▁to -104
nia -105
cy -106
▁jak -107
▁mi -108
ny -109
je -110
▁że -111
▁( -112
▁przy -113
▁ch -114
▁kt -115
wie -116
▁sz -117
▁mo -118
cze -119
by -120
owan -121
▁któ -122
ta -123
ski -124
▁pod -125
owa -126
▁19 -127
raz -128
▁h -129
ży -130
tu -131
mie -132
▁wie -133
as -134
al -135
kie -136
skie -137
▁" -138
▁dz -139
si -140
owie -141
ły -142
ró -143
te -144
▁2 -145
ną -146
ani -147
▁jest -148
szy -149
▁ob -150
▁ni -151
ca -152
łu -153
ost -154
▁tak -155
▁ś -156
▁e -157
pi -158
ad -159
ob -160
▁roz -161
jąc -162
▁te -163
▁r -164
nych -165
bi -166
ść -167
owi -168
▁co -169
to -170
ach -171
▁sp -172
▁ma -173
ier -174
cji -175
ami -176
gi -177
▁re -178
▁li -179
nym -180
▁wo -181
▁mie -182
du -183
sze -184
sta -185
▁jed -186
zy -187
▁in -188
▁ty -189
▁wi -190
▁go -191
ało -192
▁roku -193
my -194
lu -195
▁pra -196
mu -197
ja -198
▁przez -199
anie -200
lo -201
nej -202
▁pro -203
owo -204
▁mu -205
▁lu -206
▁zost -207
nego -208
niej -209
▁le -210
▁20 -211
ek -212
wy -213
▁— -214
cho -215
ały -216
bie -217
▁ale -218
▁ze -219
in -220
do -221
ma -222
▁bo -223
pie -224
ur -225
▁ka -226
▁pa -227
▁był -228
▁ra -229
▁dzie -230
ował -231
ga -232
ół -233
il -234
▁spo -235
mo -236
de -237
▁sam -238
et -239
ania -240
sy -241
ez -242
▁jego -243
▁tym -244
ana -245
sa -246
un -247
ąc -248
sp -249
▁naj -250
dni -251
owy -252
▁lat -253
kt -254
▁zna -255
▁ju -256
fi -257
pu -258
ony -259
▁czy -260
▁kon -261
skiego -262
▁sk -263
nę -264
ona -265
sto -266
bo -267
▁pi -268
el -269
ków -270
za -271
ję -272
owej -273
▁pol -274
ąd -275
▁jej -276
bu -277
▁które -278
▁dla -279
sza -280
ent -281
▁pier -282
stę -283
ska -284
ran -285
sty -286
dział -287
▁wszy -288
). -289
▁oraz -290
sie -291
ii -292
ba -293
.. -294
▁przed -295
▁we -296
▁dzi -297
▁wła -298
pa -299
su -300
▁ci -301
▁200 -302
... -303
kiem -304
skiej -305
▁powie -306
▁ar -307
ór -308
gu -309
▁ja -310
ności -311
▁mar -312
▁wz -313
cu -314
▁wię -315
▁swo -316
kę -317
dze -318
niu -319
any -320
▁czas -321
▁miej -322
owe -323
▁ok -324
▁pe -325
owych -326
▁bi -327
os -328
czą -329
▁bar -330
lko -331
rzym -332
▁kie -333
▁pierw -334
▁pow -335
▁już -336
cza -337
▁poz -338
▁gdy -339
ście -340
cia -341
▁an -342
▁wszyst -343
▁gł -344
▁jako -345
▁tego -346
one -347
▁są -348
▁pot -349
▁ży -350
um -351
▁woj -352
▁da -353
▁de -354
rę -355
nak -356
▁miejs -357
pe -358
ali -359
▁ż -360
im -361
▁no -362
▁został -363
), -364
▁rze -365
ut -366
pra -367
szcze -368
▁sy -369
▁było -370
ką -371
▁sie -372
rod -373
▁tu -374
wał -375
▁„ -376
▁tylko -377
ono -378
rowa -379
▁sob -380
▁me -381
▁bu -382
▁mnie -383
stęp -384
śli -385
▁któr -386
▁ku -387
▁raz -388
▁bez -389
ane -390
▁który -391
kła -392
czę -393
zu -394
dzy -395
spo -396
▁war -397
ery -398
▁była -399
▁świ -400
owego -401
owym -402
ri -403
▁dru -404
▁du -405
". -406
▁jednak -407
skich -408
łem -409
▁stan -410
19 -411
bli -412
wó -413
so -414
▁al -415
▁pu -416
▁cho -417
lę -418
skim -419
wię -420
▁par -421
▁v -422
▁og -423
się -424
▁może -425
sią -426
nik -427
▁ich -428
▁pan -429
czas -430
▁nad -431
łą -432
ąz -433
▁ta -434
▁kiedy -435
▁op -436
▁bę -437
rza -438
ową -439
cznie -440
▁czę -441
nię -442
gie -443
▁gru -444
lej -445
ano -446
▁3 -447
▁kra -448
aty -449
▁ru -450
we -451
▁rów -452
▁sto -453
cki -454
sko -455
▁18 -456
ckie -457
cyj -458
cję -459
ju -460
nika -461
▁my -462
▁zap -463
▁ba -464
cja -465
wia -466
▁ost -467
ńst -468
▁sta -469
ować -470
ymi -471
rem -472
sł -473
nął -474
▁sobie -475
zna -476
▁si -477
▁tra -478
▁ten -479
lan -480
czne -481
▁ot -482
ji -483
pis -484
war -485
ność -486
", -487
rzu -488
owany -489
cha -490
▁spra -491
ców -492
▁kró -493
▁dob -494
▁fi -495
▁cie -496
erw -497
ża -498
00 -499
▁jeszcze -500
▁mog -501
di -502
▁lo -503
ówi -504
gra -505
▁os -506
▁także -507
▁gdzie -508
▁199 -509
▁hi -510
▁tam -511
▁więc -512
tk -513
▁dy -514
▁wsp -515
ałem -516
▁or -517
czu -518
▁su -519
▁odp -520
▁latach -521
szt -522
śmy -523
▁bra -524
▁też -525
róż -526
▁kom -527
sku -528
ory -529
▁praw -530
▁pó -531
▁star -532
gł -533
lem -534
czył -535
cznych -536
cią -537
▁znaj -538
dem -539
sia -540
iędzy -541
dził -542
rzą -543
▁czł -544
▁kar -545
kaz -546
▁samo -547
▁cał -548
śnie -549
▁ją -550
ec -551
▁moż -552
▁Ś -553
he -554
dow -555
▁świat -556
co -557
▁201 -558
▁ce -559
łam -560
▁sze -561
▁lub -562
kon -563
▁kil -564
ter -565
▁stro -566
owania -567
▁pre -568
▁tej -569
niem -570
▁wa -571
▁im -572
dzo -573
dę -574
se -575
▁naz -576
ge -577
wiąz -578
▁równie -579
śl -580
▁miał -581
szcz -582
tów -583
▁mówi -584
sła -585
▁wiel -586
▁on -587
▁x -588
stą -589
▁zd -590
▁mat -591
tem -592
dł -593
pad -594
▁ry -595
nu -596
▁bardzo -597
▁poli -598
▁słu -599
▁naw -600
▁pierwsz -601
ich -602
▁zam -603
▁trze -604
▁pie -605
▁być -606
owanie -607
▁194 -608
▁mia -609
▁ge -610
▁for -611
dza -612
▁ut -613
▁również -614
koń -615
▁dro -616
ól -617
dnie -618
ral -619
▁póź -620
zi -621
▁4 -622
om -623
ód -624
▁ser -625
▁rę -626
▁sł -627
owała -628
▁rodzi -629
▁ostat -630
onych -631
▁miesz -632
lą -633
▁nawet -634
▁szko -635
and -636
▁la -637
▁zn -638
▁zie -639
py -640
cznej -641
rzę -642
cą -643
▁będzie -644
▁kolej -645
▁powo -646
for -647
▁mó -648
▁pię -649
▁pew -650
▁au -651
▁zdo -652
ct -653
daw -654
cił -655
▁so -656
▁następ -657
aniu -658
▁pół -659
▁fran -660
▁nim -661
▁musi -662
rał -663
waż -664
▁między -665
leż -666
▁stra -667
▁dłu -668
enta -669
▁zm -670
▁pop -671
stu -672
▁am -673
▁mam -674
jący -675
cę -676
jem -677
ób -678
kach -679
▁ła -680
mier -681
▁każ -682
kań -683
▁Ż -684
▁nau -685
ród -686
▁5 -687
tni -688
jące -689
▁później -690
ciu -691
▁zro -692
rani -693
dziej -694
▁która -695
nymi -696
stra -697
unk -698
wan -699
▁były -700
owane -701
▁wal -702
yt -703
▁koń -704
▁ii -705
czny -706
▁podczas -707
res -708
▁chwi -709
ste -710
▁198 -711
▁głów -712
▁jedno -713
ze -714
słu -715
ber -716
▁gło -717
▁oj -718
wier -719
szych -720
tnie -721
▁wp -722
oru -723
▁mę -724
ti -725
▁żeby -726
▁związ -727
▁kat -728
zn -729
▁mło -730
▁stu -731
▁szy -732
stan -733
kich -734
mia -735
rą -736
ską -737
cje -738
łe -739
▁zło -740
tor -741
▁ho -742
stwa -743
ers -744
▁tem -745
▁począ -746
wę -747
▁nag -748
wu -749
kow -750
▁teraz -751
▁cię -752
▁wyg -753
lat -754
lni -755
gani -756
▁197 -757
wać -758
▁oko -759
▁6 -760
ck -761
szą -762
tych -763
lar -764
▁nich -765
▁bie -766
dów -767
ciw -768
jących -769
▁stanowi -770
uro -771
▁dwa -772
▁pat -773
▁warsza -774
stąpi -775
▁zwy -776
▁ga -777
▁wszystko -778
owano -779
kry -780
▁rozpo -781
ron -782
ałam -783
▁sty -784
▁powst -785
▁ak -786
kim -787
▁została -788
chodzi -789
▁nic -790
liśmy -791
rów -792
▁miejsce -793
▁krzy -794
▁wieku -795
nęła -796
▁pani -797
▁potem -798
▁coś -799
▁niego -800
▁kla -801
cznego -802
▁chci -803
fe -804
strze -805
tek -806
dą -807
▁powi -808
▁niż -809
▁wyb -810
▁pozost -811
▁działa -812
▁- -813
▁czerw -814
ok -815
▁uni -816
nił -817
▁zach -818
▁kości -819
▁jeśli -820
stawi -821
▁ad -822
▁hist -823
▁oczy -824
▁okre -825
▁two -826
oł -827
▁kobie -828
▁17 -829
▁róż -830
▁se -831
rząd -832
szedł -833
cer -834
▁ani -835
chu -836
▁znajdu -837
leg -838
dłu -839
▁tych -840
▁sw -841
▁193 -842
▁skła -843
der -844
▁gra -845
▁zw -846
▁odpowie -847
▁cze -848
▁trzy -849
szę -850
tak -851
bud -852
atu -853
▁niej -854
▁prowa -855
od -856
▁więk -857
zie -858
▁ksią -859
▁klu -860
▁kto -861
▁Ł -862
owana -863
th -864
▁peł -865
onu -866
▁wym -867
▁jakie -868
praw -869
▁gro -870
▁fa -871
▁zdoby -872
dzenia -873
▁wło -874
▁włas -875
ary -876
czyć -877
▁pom -878
▁można -879
▁aby -880
▁którym -881
▁zaw -882
▁7 -883
dzą -884
▁fil -885
▁szcze -886
▁takie -887
peł -888
wiet -889
▁lecz -890
oną -891
kład -892
▁tro -893
anych -894
▁niem -895
pre -896
▁ek -897
▁mał -898
▁15 -899
nek -900
▁przeciw -901
owia -902
▁czasie -903
▁sa -904
tego -905
gdy -906
ren -907
ner -908
▁których -909
▁zawo -910
▁mist -911
czego -912
fa -913
▁zag -914
▁ha -915
▁której -916
▁uży -917
przy -918
▁miejsc -919
▁siebie -920
▁zmie -921
▁the -922
kami -923
▁podob -924
▁ki -925
cznym -926
▁domu -927
szym -928
ot -929
owni -930
▁prac -931
▁8 -932
▁wol -933
▁współ -934
▁wyd -935
▁jedy -936
▁śmier -937
roni -938
▁niemie -939
▁czu -940
ński -941
▁pierwszy -942
ng -943
cię -944
czej -945
▁be -946
ckiego -947
vi -948
▁części -949
żył -950
gę -951
▁rzeczy -952
stępu -953
▁człowie -954
scy -955
▁polski -956
▁księ -957
iu -958
▁kilka -959
▁miała -960
logi -961
dar -962
▁euro -963
man -964
wiad -965
owarzy -966
mina -967
dzić -968
▁[ -969
▁obec -970
br -971
▁którego -972
kro -973
▁16 -974
▁196 -975
ńskiego -976
szu -977
dnia -978
wała -979
▁of -980
▁swoj -981
chy -982
▁pró -983
nku -984
działa -985
jął -986
▁tru -987
▁pomo -988
tar -989
wem -990
▁nas -991
stem -992
▁poja -993
▁powiedział -994
▁195 -995
▁spos -996
▁ofi -997
sem -998
▁ję -999
▁dzieci -1000
ństwa -1001
kł -1002
hi -1003
▁wszystkie -1004
dać -1005
szej -1006
czną -1007
▁zrobi -1008
ler -1009
wali -1010
stwo -1011
wój -1012
wór -1013
▁dom -1014
▁he -1015
▁ne -1016
▁człon -1017
▁organi -1018
▁192 -1019
▁cy -1020
▁wyso -1021
nią -1022
nii -1023
cach -1024
den -1025
dź -1026
nem -1027
▁ws -1028
▁(" -1029
▁ist -1030
cją -1031
ha -1032
eś -1033
dząc -1034
▁ona -1035
0. -1036
▁cią -1037
▁otrzym -1038
▁nigdy -1039
tku -1040
dzt -1041
▁kam -1042
▁tę -1043
▁9 -1044
▁połu -1045
▁jeden -1046
▁wrze -1047
be -1048
▁chło -1049
ing -1050
▁bry -1051
bym -1052
▁czym -1053
prowa -1054
czenia -1055
▁następnie -1056
▁jo -1057
▁drugie -1058
▁spe -1059
łości -1060
len -1061
aniem -1062
rach -1063
chni -1064
onie -1065
wą -1066
▁(19 -1067
pod -1068
ster -1069
cząc -1070
▁and -1071
▁polity -1072
▁osob -1073
▁daw -1074
▁zało -1075
laz -1076
▁niez -1077
pli -1078
▁dobrze -1079
dzieć -1080
now -1081
tedy -1082
▁półno -1083
ss -1084
miast -1085
▁należ -1086
żej -1087
▁wtedy -1088
ździe -1089
czenie -1090
szego -1091
▁sez -1092
▁uro -1093
▁em -1094
▁razem -1095
▁poło -1096
jm -1097
▁mistrz -1098
nad -1099
▁wzg -1100
▁ludzi -1101
czna -1102
czo -1103
▁książ -1104
▁sier -1105
▁aż -1106
więk -1107
▁konie -1108
cjal -1109
▁żad -1110
▁por -1111
▁albo -1112
▁czar -1113
ląd -1114
▁męż -1115
amię -1116
prze -1117
▁produ -1118
ata -1119
śmie -1120
ktu -1121
▁wcze -1122
▁środ -1123
▁aut -1124
▁wil -1125
ształ -1126
▁tele -1127
▁szyb -1128
wer -1129
▁12 -1130
zji -1131
onym -1132
zd -1133
▁wiele -1134
ać -1135
▁zawsze -1136
▁funk -1137
▁wrześ -1138
▁twa -1139
ks -1140
–19 -1141
▁para -1142
▁pły -1143
sił -1144
róci -1145
ara -1146
trz -1147
czyła -1148
▁wraz -1149
▁właśnie -1150
onej -1151
kra -1152
ckiej -1153
orów -1154
me -1155
tą -1156
▁kry -1157
▁zamie -1158
▁dnia -1159
▁sko -1160
▁mógł -1161
▁poś -1162
▁ści -1163
▁wojny -1164
nąć -1165
kiej -1166
tę -1167
▁dzię -1168
▁amery -1169
is -1170
kar -1171
▁przyja -1172
▁choć -1173
▁którzy -1174
dal -1175
onego -1176
star -1177
”. -1178
owali -1179
ve -1180
18 -1181
ój -1182
▁gór -1183
▁lip -1184
lep -1185
zo -1186
▁komi -1187
▁miasta -1188
rzył -1189
▁ł -1190
▁mają -1191
▁obie -1192
▁ponad -1193
▁zaś -1194
▁muzy -1195
▁. -1196
▁lud -1197
chi -1198
ato -1199
arł -1200
pada -1201
sce -1202
óż -1203
bar -1204
cem -1205
▁10 -1206
▁arty -1207
▁zat -1208
dia -1209
▁zespo -1210
rew -1211
▁nią -1212
ciąg -1213
▁towarzy -1214
▁uwa -1215
▁posia -1216
czął -1217
stru -1218
▁jaki -1219
▁oś -1220
śniej -1221
dli -1222
▁życia -1223
men -1224
łę -1225
▁bardziej -1226
▁14 -1227
▁języ -1228
ryw -1229
▁innych -1230
eri -1231
▁wyda -1232
▁spraw -1233
tora -1234
tro -1235
sti -1236
us -1237
▁dwó -1238
▁stycz -1239
▁świe -1240
▁sposób -1241
wal -1242
▁udział -1243
▁okrę -1244
▁histor -1245
▁dział -1246
▁sil -1247
▁tere -1248
▁robi -1249
śni -1250
▁właści -1251
▁wyk -1252
bę -1253
▁pła -1254
▁narod -1255
▁fo -1256
żu -1257
▁wojsk -1258
ort -1259
▁posta -1260
min -1261
▁jakby -1262
dno -1263
▁pomy -1264
tej -1265
▁uli -1266
▁sztu -1267
ate -1268
▁dwóch -1269
cka -1270
sław -1271
▁zgo -1272
▁podsta -1273
dał -1274
▁wszystkich -1275
szo -1276
tera -1277
tra -1278
gen -1279
▁sku -1280
dług -1281
▁czasu -1282
sów -1283
tyw -1284
rzwi -1285
▁więcej -1286
ho -1287
śród -1288
ktor -1289
ńskiej -1290
▁dwu -1291
dzia -1292
▁dow -1293
▁potrze -1294
▁nam -1295
▁wę -1296
▁północ -1297
stów -1298
▁jestem -1299
▁zakoń -1300
pnia -1301
▁swoje -1302
▁kul -1303
jącego -1304
▁13 -1305
200 -1306
zm -1307
sji -1308
gą -1309
rom -1310
dyn -1311
▁grani -1312
ciel -1313
▁długo -1314
▁często -1315
▁drzwi -1316
owanych -1317
▁umie -1318
▁woje -1319
prez -1320
rzał -1321
cież -1322
piero -1323
▁zaczę -1324
▁dziew -1325
▁zu -1326
▁poko -1327
kowi -1328
tym -1329
▁zab -1330
▁cent -1331
▁czego -1332
▁publi -1333
▁biał -1334
▁według -1335
▁kraj -1336
wości -1337
gar -1338
pro -1339
che -1340
▁tytu -1341
byt -1342
szcza -1343
zacji -1344
rócił -1345
▁stał -1346
ździer -1347
▁opu -1348
chę -1349
▁zob -1350
▁spoj -1351
kiego -1352
▁paździer -1353
rek -1354
▁spotk -1355
▁wra -1356
▁drugi -1357
▁part -1358
▁myśl -1359
▁pracy -1360
nosi -1361
▁stos -1362
cen -1363
żenie -1364
▁bli -1365
▁część -1366
▁którą -1367
▁pas -1368
▁znajduje -1369
tury -1370
lam -1371
▁południ -1372
▁kro -1373
▁odby -1374
▁listo -1375
dziła -1376
▁wielu -1377
▁mini -1378
▁mor -1379
uje -1380
▁pamię -1381
▁mężczy -1382
▁każd -1383
▁zb -1384
▁społe -1385
▁wiem -1386
śle -1387
▁kan -1388
") -1389
▁fe -1390
▁życie -1391
▁tłu -1392
▁gdyby -1393
szła -1394
▁sek -1395
ment -1396
▁uśmie -1397
nić -1398
▁sprze -1399
▁pla -1400
▁godzi -1401
wił -1402
dzę -1403
ckich -1404
szczy -1405
▁sch -1406
▁istnie -1407
▁słowa -1408
▁system -1409
▁kier -1410
qu -1411
emu -1412
dat -1413
▁wyni -1414
ścia -1415
dziel -1416
ien -1417
▁września -1418
▁polsce -1419
▁zacho -1420
wersy -1421
▁wzglę -1422
▁poprze -1423
czni -1424
nością -1425
▁jednym -1426
chał -1427
mian -1428
▁byli -1429
▁chce -1430
▁kilku -1431
▁ostatni -1432
▁służ -1433
▁pozy -1434
▁okaz -1435
rzenia -1436
▁tur -1437
▁kwiet -1438
▁reprez -1439
▁dzięki -1440
▁mon -1441
”, -1442
per -1443
▁chwili -1444
redni -1445
czyna -1446
syj -1447
▁zre -1448
▁gospo -1449
▁zg -1450
▁swoją -1451
pew -1452
wersyte -1453
czeniu -1454
▁wcześniej -1455
dniej -1456
▁gene -1457
▁przypad -1458
▁poł -1459
▁uniwersyte -1460
▁pił -1461
jąca -1462
▁ud -1463
arów -1464
▁maja -1465
▁myśli -1466
▁jan -1467
▁ponie -1468
▁gu -1469
▁około -1470
▁miejscowo -1471
▁wojewó -1472
▁duż -1473
czes -1474
▁kole -1475
gn -1476
▁król -1477
▁mieszkań -1478
przypis -1479
dzenie -1480
▁mniej -1481
▁tr -1482
ium -1483
czyn -1484
ant -1485
▁możli -1486
onal -1487
▁dwie -1488
▁mistrzost -1489
▁iż -1490
pera -1491
▁syn -1492
▁gó -1493
▁sły -1494
▁zda -1495
pom -1496
▁ucze -1497
▁pis -1498
usz -1499
▁uzy -1500
ówczas -1501
jącą -1502
got -1503
▁poza -1504
owę -1505
▁dopiero -1506
▁samym -1507
czony -1508
▁bud -1509
ans -1510
czym -1511
▁pr -1512
▁znalaz -1513
▁chłop -1514
▁początku -1515
tel -1516
▁sło -1517
▁ziemi -1518
▁di -1519
▁łą -1520
▁ozna -1521
pol -1522
ciec -1523
▁zde -1524
▁kr -1525
▁film -1526
▁świata -1527
▁obo -1528
ckim -1529
sły -1530
▁wsi -1531
▁powodu -1532
▁licz -1533
czki -1534
gól -1535
▁zosta -1536
▁wśród -1537
▁państ -1538
taj -1539
lach -1540
szło -1541
▁zak -1542
▁wro -1543
▁dziś -1544
jącym -1545
ten -1546
▁chy -1547
▁11 -1548
lił -1549
▁zwie -1550
▁chara -1551
▁wzro -1552
wszy -1553
żenia -1554
tom -1555
▁cięż -1556
▁fin -1557
▁lata -1558
▁zad -1559
ard -1560
oła -1561
▁cu -1562
▁nowo -1563
▁zoba -1564
▁śmierci -1565
▁wówczas -1566
tach -1567
anii -1568
wania -1569
wią -1570
▁położ -1571
stąpił -1572
▁y -1573
▁wszyscy -1574
▁stycznia -1575
▁szczę -1576
jmu -1577
cami -1578
▁chciał -1579
▁przecież -1580
▁czerwca -1581
▁wą -1582
▁króle -1583
leży -1584
jącej -1585
kać -1586
▁nato -1587
wach -1588
▁żoł -1589
▁skrzy -1590
bur -1591
tki -1592
▁mimo -1593
ld -1594
▁jas -1595
▁osób -1596
▁sobą -1597
▁her -1598
ósł -1599
ią -1600
▁wyko -1601
▁ele -1602
▁pog -1603
▁zwycię -1604
▁edy -1605
▁cór -1606
stytu -1607
▁wieś -1608
▁nor -1609
▁strze -1610
▁wspo -1611
▁pal -1612
podob -1613
▁francu -1614
▁plan -1615
▁rozg -1616
▁sierpnia -1617
lii -1618
▁wspól -1619
▁strony -1620
▁druży -1621
ału -1622
owu -1623
▁skład -1624
▁ab -1625
., -1626
▁produk -1627
▁gi -1628
latego -1629
▁lek -1630
ton -1631
ctwa -1632
kal -1633
tal -1634
▁wyt -1635
▁gmi -1636
ników -1637
dach -1638
▁wscho -1639
ke -1640
▁kur -1641
▁sła -1642
▁dlatego -1643
ologi -1644
▁proje -1645
▁rzu -1646
▁sza -1647
chem -1648
▁ber -1649
▁zostały -1650
▁lipca -1651
bą -1652
kle -1653
rami -1654
▁większo -1655
▁br -1656
gan -1657
▁ste -1658
ly -1659
kości -1660
▁komu -1661
▁wyp -1662
▁inte -1663
▁końcu -1664
▁trzeba -1665
▁mój -1666
▁grudnia -1667
▁swoich -1668
▁kraju -1669
amy -1670
20 -1671
▁mas -1672
entu -1673
▁usta -1674
▁kieru -1675
▁infor -1676
obec -1677
▁natomiast -1678
▁klasy -1679
źni -1680
nach -1681
▁zje -1682
▁pole -1683
▁obro -1684
fii -1685
▁występu -1686
▁pięk -1687
kowie -1688
▁ran -1689
▁km -1690
art -1691
▁swoim -1692
▁ludzie -1693
▁miejscu -1694
▁met -1695
▁puł -1696
▁pocho -1697
▁191 -1698
▁per -1699
wiście -1700
mach -1701
▁gre -1702
nienia -1703
let -1704
▁niewie -1705
▁października -1706
▁koniec -1707
str -1708
▁przedstawi -1709
▁sen -1710
▁chyba -1711
rót -1712
▁dni -1713
owski -1714
▁progra -1715
▁marca -1716
▁występ -1717
▁osie -1718
▁zau -1719
wały -1720
▁rodza -1721
▁um -1722
mii -1723
▁dalej -1724
▁nauk -1725
▁niekt -1726
mini -1727
▁ponieważ -1728
▁amerykań -1729
▁cały -1730
raż -1731
czaj -1732
▁wydaw -1733
▁mil -1734
▁okoli -1735
nd -1736
▁ojciec -1737
▁osią -1738
▁Ży -1739
▁najwięk -1740
ciem -1741
▁jedynie -1742
▁tre -1743
kali -1744
tyj -1745
▁swojej -1746
gów -1747
▁wers -1748
lim -1749
kty -1750
▁zbi -1751
▁ucie -1752
▁obraz -1753
▁stanie -1754
▁och -1755
aru -1756
▁drugiej -1757
▁rozu -1758
▁wykon -1759
▁dlaczego -1760
cent -1761
kol -1762
▁głę -1763
▁fir -1764
▁kwietnia -1765
ńskim -1766
▁województ -1767
▁szu -1768
▁zaję -1769
▁niech -1770
rzem -1771
▁listopada -1772
kazu -1773
▁pierwsze -1774
menta -1775
▁taki -1776
▁związku -1777
▁tran -1778
▁wykorzy -1779
▁żołnie -1780
▁ponow -1781
mienia -1782
▁prawo -1783
▁szybko -1784
ord -1785
▁mieszk -1786
▁wpły -1787
▁ź -1788
▁przewo -1789
▁zawie -1790
▁wsze -1791
▁obecnie -1792
tua -1793
les -1794
▁najlep -1795
świad -1796
piej -1797
▁wia -1798
prac -1799
rzenie -1800
aną -1801
▁wszystkim -1802
io -1803
cześnie -1804
▁warszawie -1805
▁chi -1806
▁potra -1807
aka -1808
stro -1809
raź -1810
▁inne -1811
owały -1812
▁zamk -1813
stanowi -1814
▁najwy -1815
▁komp -1816
▁prawie -1817
żyć -1818
ver -1819
▁poje -1820
-1 -1821
▁rzecz -1822
▁moj -1823
▁zaraz -1824
giel -1825
▁rozm -1826
▁dło -1827
spół -1828
▁moc -1829
wanie -1830
▁utwo -1831
▁trochę -1832
▁jednost -1833
▁2007 -1834
▁zabi -1835
▁świad -1836
ul -1837
czka -1838
gh -1839
dne -1840
▁ktoś -1841
▁ukoń -1842
▁rok -1843
prawdę -1844
▁tyle -1845
wskiego -1846
▁dzień -1847
nios -1848
▁kad -1849
▁tar -1850
▁mal -1851
▁(1 -1852
▁wprowa -1853
ser -1854
▁charakt -1855
▁nazy -1856
▁kor -1857
tery -1858
ścią -1859
▁sytua -1860
▁prezy -1861
▁prob -1862
▁nap -1863
lin -1864
▁pierwszym -1865
szcie -1866
▁vi -1867
▁odw -1868
dopodob -1869
▁wska -1870
▁suk -1871
▁har -1872
▁ul -1873
land -1874
es -1875
▁młod -1876
czności -1877
▁albu -1878
▁nikt -1879
▁obok -1880
rać -1881
nicy -1882
▁rozpoczę -1883
anego -1884
▁zapew -1885
▁należy -1886
▁polskiego -1887
▁inter -1888
▁powin -1889
cko -1890
▁siedzi -1891
▁ple -1892
▁okresie -1893
▁naprawdę -1894
▁temu -1895
▁pok -1896
▁xi -1897
zj -1898
▁mogła -1899
pier -1900
▁studi -1901
▁ps -1902
zmu -1903
▁kościoła -1904
owaniu -1905
niósł -1906
▁otwar -1907
▁klub -1908
▁obu -1909
▁iz -1910
▁działal -1911
▁swój -1912
trze -1913
rzyć -1914
▁2006 -1915
▁światowej -1916
▁2008 -1917
▁lutego -1918
▁św -1919
▁waż -1920
▁gospodar -1921
ńskich -1922
▁ciem -1923
▁oto -1924
kół -1925
lik -1926
▁napis -1927
mal -1928
ff -1929
▁miasto -1930
▁eksp -1931
▁oba -1932
▁pios -1933
ces -1934
bardziej -1935
▁dra -1936
▁świę -1937
czych -1938
▁wyja -1939
▁znale -1940
▁grupy -1941
▁prz -1942
▁wiedział -1943
wiek -1944
▁chwilę -1945
▁hu -1946
▁zostało -1947
gnie -1948
▁koch -1949
▁zespół -1950
▁at -1951
▁kol -1952
▁mogą -1953
▁dowód -1954
anym -1955
oli -1956
▁wido -1957
▁decy -1958
▁uzysk -1959
▁poch -1960
▁ban -1961
dak -1962
▁bro -1963
▁admini -1964
▁dem -1965
▁głos -1966
▁dowo -1967
▁pyt -1968
▁up -1969
ląda -1970
-19 -1971
▁krót -1972
anej -1973
dent -1974
▁swojego -1975
▁celu -1976
stał -1977
▁samolo -1978
rab -1979
▁podej -1980
▁najbardziej -1981
▁lotni -1982
▁zapro -1983
▁ponownie -1984
▁bru -1985
nętrz -1986
▁doty -1987
▁zdobył -1988
▁uważ -1989
kom -1990
▁zaczął -1991
▁otrzymał -1992
▁teat -1993
▁grze -1994
▁chodzi -1995
▁terenie -1996
▁obej -1997
sięcy -1998
▁pozosta -1999
▁dok -2000
ństwo -2001
▁dodat -2002
dań -2003
cić -2004
▁san -2005
torem -2006
kolwiek -2007
wor -2008
czone -2009
▁ostate -2010
▁rosyj -2011
▁sym -2012
▁przeprowa -2013
▁ciebie -2014
▁25 -2015
▁rzym -2016
▁pierwszej -2017
▁rodziny -2018
▁administra -2019
▁historii -2020
szał -2021
▁30 -2022
▁nagle -2023
▁litera -2024
▁prób -2025
tr -2026
wski -2027
▁poczu -2028
▁jednego -2029
▁pana -2030
rat -2031
▁edytor -2032
▁sama -2033
▁powierz -2034
▁zas -2035
▁ode -2036
▁tutaj -2037
▁brze -2038
▁drze -2039
żli -2040
▁mili -2041
▁zapyt -2042
▁rzekł -2043
▁nr -2044
▁mieszkańców -2045
niesi -2046
▁szkoły -2047
▁archi -2048
▁sal -2049
pełnie -2050
▁niepo -2051
▁hen -2052
▁przek -2053
▁głową -2054
owymi -2055
▁informa -2056
▁zbyt -2057
fika -2058
▁stop -2059
▁uczest -2060
pej -2061
▁szczegól -2062
▁joh -2063
▁każdy -2064
▁edytorski -2065
▁jedną -2066
▁połą -2067
▁przemy -2068
▁rady -2069
fia -2070
▁mary -2071
▁tytuł -2072
▁zni -2073
▁trzym -2074
czonych -2075
0, -2076
tkowo -2077
ator -2078
▁powiedziała -2079
▁was -2080
▁ol -2081
mię -2082
▁car -2083
▁bad -2084
▁190 -2085
łość -2086
▁armii -2087
miał -2088
▁bisku -2089
ed -2090
▁oby -2091
▁formu -2092
▁uzn -2093
▁pomiędzy -2094
koj -2095
cła -2096
▁xx -2097
▁el -2098
▁ciąg -2099
▁one -2100
▁panie -2101
zw -2102
▁zespołu -2103
▁ter -2104
▁sezonie -2105
giem -2106
▁trzech -2107
▁oddział -2108
▁czyli -2109
pozy -2110
owskiego -2111
pat -2112
bieg -2113
▁siost -2114
▁przygot -2115
żyła -2116
▁pięć -2117
▁wier -2118
▁wiado -2119
▁gar -2120
▁mogę -2121
▁masz -2122
▁moje -2123
szył -2124
▁dr -2125
reszcie -2126
▁stru -2127
▁widział -2128
▁przyby -2129
lny -2130
▁miejsca -2131
▁opie -2132
wając -2133
▁regi -2134
▁kamie -2135
▁znowu -2136
▁ust -2137
ciąż -2138
▁człowiek -2139
▁osiąg -2140
▁ukra -2141
▁kościół -2142
▁przeg -2143
lenia -2144
▁takich -2145
▁jakiś -2146
▁2009 -2147
czek -2148
wnętrz -2149
▁Że -2150
▁coraz -2151
▁broni -2152
▁elekt -2153
▁będą -2154
▁pozna -2155
▁py -2156
▁bla -2157
gii -2158
ang -2159
▁budow -2160
▁pozn -2161
son -2162
▁prawa -2163
▁pary -2164
▁stwo -2165
▁2005 -2166
▁ca -2167
racji -2168
lom -2169
▁stało -2170
owanym -2171
▁zy -2172
▁głównie -2173
wany -2174
▁polskiej -2175
▁twarz -2176
dował -2177
▁ros -2178
▁ojca -2179
▁leż -2180
▁zatrzym -2181
▁nieu -2182
▁wypo -2183
sława -2184
▁stani -2185
rzyła -2186
▁profe -2187
wić -2188
▁wiadomo -2189
▁zale -2190
▁kapi -2191
▁instytu -2192
▁utrzym -2193
▁iii -2194
▁samocho -2195
cin -2196
sh -2197
▁posiada -2198
ciła -2199
▁państw -2200
▁fak -2201
szko -2202
serw -2203
▁rozma -2204
▁świecie -2205
▁gry -2206
pia -2207
▁brytyj -2208
▁opi -2209
stwie -2210
▁die -2211
▁Świ -2212
▁pokoju -2213
▁zim -2214
tan -2215
▁pomyśl -2216
▁fun -2217
▁uśmiech -2218
▁gdyż -2219
szczę -2220
owanego -2221
▁dwo -2222
▁history -2223
raj -2224
ion -2225
▁znów -2226
▁przyję -2227
▁th -2228
▁ręce -2229
▁obsz -2230
▁zamiesz -2231
śla -2232
cieli -2233
sch -2234
▁piosen -2235
▁nimi -2236
cenia -2237
▁dal -2238
▁razy -2239
▁pozostał -2240
wane -2241
ńskie -2242
▁wciąż -2243
narod -2244
▁innymi -2245
▁warto -2246
▁powa -2247
▁stronę -2248
▁rzą -2249
▁kształ -2250
▁specjal -2251
aki -2252
biut -2253
▁natu -2254
tow -2255
▁powro -2256
▁jesteś -2257
▁robo -2258
▁budy -2259
▁konku -2260
anu -2261
▁wzią -2262
▁popu -2263
▁xv -2264
żeli -2265
▁wybu -2266
▁śmie -2267
aków -2268
▁piot -2269
▁końca -2270
▁wobec -2271
▁zjedno -2272
▁atak -2273
▁powiedzieć -2274
▁dzien -2275
▁człowieka -2276
log -2277
▁syna -2278
▁aka -2279
▁telewi -2280
▁opowia -2281
▁szero -2282
▁wyż -2283
rum -2284
▁potrafi -2285
▁zmieni -2286
▁wypad -2287
cyjny -2288
tna -2289
owanej -2290
▁cztery -2291
chać -2292
ater -2293
▁rząd -2294
ger -2295
ciaż -2296
▁mieć -2297
▁tygo -2298
oni -2299
wiać -2300
▁prawdzi -2301
▁jó -2302
ol -2303
▁doku -2304
▁czasem -2305
▁jednej -2306
wość -2307
▁pl -2308
▁isto -2309
dła -2310
żd -2311
krotnie -2312
▁zrozu -2313
▁temat -2314
▁wyj -2315
ących -2316
▁pozwo -2317
▁wej -2318
rój -2319
▁dziedzi -2320
▁rozumie -2321
lne -2322
▁tor -2323
rzeć -2324
▁gat -2325
koła -2326
▁grup -2327
onów -2328
▁stwier -2329
lenie -2330
▁dość -2331
aku -2332
▁mieli -2333
▁proszę -2334
lek -2335
▁wywo -2336
▁zupełnie -2337
▁jaką -2338
▁chociaż -2339
del -2340
ezpie -2341
▁win -2342
▁bó -2343
▁mię -2344
▁opera -2345
▁rej -2346
▁2004 -2347
iii -2348
▁podstaw -2349
▁min -2350
cep -2351
▁prawdopodob -2352
it -2353
▁czte -2354
▁ocz -2355
▁wk -2356
▁wróci -2357
sek -2358
▁obowi -2359
▁staro -2360
cał -2361
▁eg -2362
.) -2363
▁wielo -2364
▁międzynarod -2365
knął -2366
▁nowy -2367
dzieli -2368
szenia -2369
▁otwo -2370
▁musiał -2371
▁autor -2372
▁głowę -2373
▁papie -2374
▁bit -2375
mio -2376
▁oczywiście -2377
▁prostu -2378
▁zbud -2379
któw -2380
▁koncer -2381
▁większość -2382
▁wysp -2383
▁dziw -2384
▁zwo -2385
▁nadzie -2386
▁przej -2387
▁przer -2388
"). -2389
niał -2390
gna -2391
▁odkry -2392
▁akadem -2393
tur -2394
▁wreszcie -2395
fek -2396
▁zauwa -2397
▁zmarł -2398
▁urzę -2399
▁poru -2400
▁ludz -2401
por -2402
wało -2403
▁21 -2404
cenie -2405
▁duch -2406
▁pracował -2407
▁tłuma -2408
owało -2409
szech -2410
▁cel -2411
▁ło -2412
▁oni -2413
kre -2414
cjach -2415
ama -2416
ńska -2417
nami -2418
▁tek -2419
▁noc -2420
▁ile -2421
▁samego -2422
▁wystar -2423
▁józe -2424
▁bur -2425
▁zani -2426
▁przewodni -2427
▁króla -2428
▁zakła -2429
2, -2430
▁wspom -2431
ph -2432
struk -2433
▁wygląd -2434
▁drogi -2435
▁zdecy -2436
dziesią -2437
▁are -2438
▁europej -2439
▁moja -2440
czona -2441
▁dale -2442
▁nowe -2443
wym -2444
cyjnych -2445
stos -2446
▁wielko -2447
▁1945 -2448
▁poro -2449
▁24 -2450
▁zain -2451
▁spę -2452
owiem -2453
łał -2454
▁partii -2455
chód -2456
▁zmi -2457
▁szpi -2458
▁zja -2459
waj -2460
▁postanowi -2461
tne -2462
▁szczy -2463
▁względu -2464
▁ang -2465
▁całą -2466
fik -2467
wicz -2468
liz -2469
▁jedna -2470
możli -2471
▁bezpie -2472
▁stronie -2473
ist -2474
wiał -2475
▁wojen -2476
▁zajmu -2477
▁gwia -2478
▁boh -2479
▁sprawie -2480
unku -2481
▁znak -2482
roż -2483
ąż -2484
▁czyn -2485
ycho -2486
▁ide -2487
▁ude -2488
▁węg -2489
▁trafi -2490
soby -2491
▁nowego -2492
net -2493
biera -2494
ctwo -2495
2. -2496
wają -2497
▁wszel -2498
▁lepiej -2499
▁pun -2500
rabi -2501
▁zajm -2502
▁roze -2503
niesie -2504
▁awan -2505
▁jednocześnie -2506
▁rado -2507
▁ukrai -2508
▁polskich -2509
ściu -2510
szka -2511
▁głu -2512
▁twier -2513
mar -2514
000 -2515
▁jana -2516
wiła -2517
wej -2518
cyjne -2519
▁rozwi -2520
mę -2521
▁początkowo -2522
ńca -2523
kazy -2524
▁drew -2525
jęcia -2526
▁rozpoczął -2527
▁spad -2528
nes -2529
▁głębo -2530
▁przeciwko -2531
▁matka -2532
▁dywi -2533
▁nauczy -2534
▁miały -2535
▁redak -2536
rótce -2537
kazał -2538
▁prawda -2539
▁Świę -2540
▁dobre -2541
lia -2542
▁niewiel -2543
▁filo -2544
▁hisz -2545
▁swego -2546
▁mało -2547
▁wojska -2548
szenie -2549
▁mag -2550
ura -2551
▁całkowi -2552
szli -2553
tać -2554
▁wody -2555
▁pę -2556
▁wyje -2557
▁wkrótce -2558
▁uz -2559
dzono -2560
▁189 -2561
▁nadal -2562
dny -2563
▁karo -2564
▁państwa -2565
▁zbro -2566
▁bibli -2567
▁młodzie -2568
▁miało -2569
cjon -2570
kcie -2571
bro -2572
▁kobiety -2573
▁elem -2574
▁nocy -2575
▁skoń -2576
▁regu -2577
▁niemal -2578
▁scho -2579
▁spyt -2580
▁przykład -2581
lnej -2582
▁miejscowości -2583
▁będę -2584
▁niektó -2585
cjali -2586
▁wojnie -2587
łów -2588
▁spi -2589
tyk -2590
▁chcę -2591
▁23 -2592
▁lon -2593
ciela -2594
nienie -2595
ścił -2596
dali -2597
bry -2598
▁reprezenta -2599
▁konty -2600
▁widzi -2601
nale -2602
▁nazwi -2603
▁en -2604
▁twór -2605
▁natych -2606
▁natychmiast -2607
▁zawodni -2608
▁mną -2609
▁razie -2610
▁różnych -2611
▁henry -2612
lacji -2613
▁usły -2614
fie -2615
zja -2616
rody -2617
▁oku -2618
rzej -2619
rzała -2620
▁ostatecznie -2621
▁formula -2622
▁udało -2623
zyj -2624
▁krzyż -2625
▁ogól -2626
▁pomoc -2627
▁ukry -2628
▁zbli -2629
▁wyma -2630
▁kierunku -2631
▁skar -2632
▁typu -2633
▁chciała -2634
▁num -2635
sząc -2636
▁pos -2637
▁stat -2638
▁rękę -2639
▁wymie -2640
▁katoli -2641
ir -2642
▁głowy -2643
ciół -2644
nów -2645
lina -2646
▁każdym -2647
the -2648
▁mamy -2649
▁jezi -2650
▁fra -2651
▁przede -2652
▁przypo -2653
▁cier -2654
▁wiesz -2655
▁najwyż -2656
▁dziesię -2657
kowo -2658
▁wyraz -2659
▁poświę -2660
▁przyna -2661
▁wyłą -2662
skiem -2663
▁xix -2664
▁mak -2665
▁puch -2666
▁jeżeli -2667
żony -2668
▁najm -2669
▁22 -2670
wen -2671
▁dar -2672
▁bat -2673
▁trady -2674
wną -2675
▁wyniku -2676
▁twarzy -2677
owaną -2678
▁poważ -2679
▁zarzą -2680
▁dź -2681
▁zdr -2682
▁ag -2683
▁bal -2684
▁pomi -2685
▁nieco -2686
ade -2687
wana -2688
▁sh -2689
▁nazwa -2690
tami -2691
▁reli -2692
▁pobli -2693
▁studia -2694
sługi -2695
▁ed -2696
▁turniej -2697
▁af -2698
▁prę -2699
dwie -2700
dzony -2701
tny -2702
▁znaleź -2703
▁man -2704
▁ri -2705
▁try -2706
▁got -2707
ora -2708
▁krę -2709
▁potrzeb -2710
▁uczestni -2711
▁łat -2712
▁pł -2713
▁ur -2714
▁maszy -2715
bert -2716
▁linii -2717
form -2718
▁zrobić -2719
goś -2720
▁28 -2721
▁mecz -2722
▁pała -2723
▁mówił -2724
▁gor -2725
▁album -2726
raca -2727
▁chor -2728
kowa -2729
▁ów -2730
▁dia -2731
▁funkcję -2732
▁doświad -2733
▁centrum -2734
▁przestrze -2735
▁matki -2736
anów -2737
wych -2738
lnych -2739
unki -2740
▁krze -2741
dle -2742
▁kolo -2743
▁cmenta -2744
▁wyob -2745
▁kwi -2746
arówno -2747
▁aleks -2748
▁rek -2749
▁wzię -2750
pon -2751
karz -2752
rany -2753
bra -2754
czono -2755
lnym -2756
▁spokoj -2757
▁śpie -2758
▁problem -2759
▁2003 -2760
bior -2761
lnego -2762
ya -2763
▁wokół -2764
▁życiu -2765
▁nieza -2766
▁książę -2767
▁korzy -2768
▁rami -2769
▁gminy -2770
▁przyjaciół -2771
▁ulicy -2772
▁powstał -2773
▁nazwę -2774
▁hand -2775
▁bram -2776
▁jakieś -2777
▁bel -2778
▁podobnie -2779
stać -2780
▁lubi -2781
▁francji -2782
▁tzw -2783
niejsze -2784
czyło -2785
▁siły -2786
▁pochodzi -2787
▁zarówno -2788
▁kiedyś -2789
▁dużo -2790
▁wyzna -2791
▁radi -2792
▁jakim -2793
mon -2794
▁choro -2795
▁2011 -2796
▁mów -2797
▁sport -2798
kowe -2799
dzię -2800
nar -2801
anta -2802
▁odz -2803
tował -2804
▁takiego -2805
▁26 -2806
▁wst -2807
niami -2808
▁rozwo -2809
▁zor -2810
atów -2811
▁2010 -2812
iast -2813
▁szkole -2814
▁zajął -2815
tąd -2816
▁kre -2817
kał -2818
▁2001 -2819
▁27 -2820
▁np -2821
▁postaci -2822
▁wielkiej -2823
▁oficjal -2824
ńczy -2825
▁wielki -2826
▁średni -2827
▁1939 -2828
▁sej -2829
▁eli -2830
cale -2831
▁pierwszego -2832
unków -2833
▁ramach -2834
▁ciągu -2835
lić -2836
▁mieście -2837
▁dokon -2838
▁uczu -2839
▁drodze -2840
▁punk -2841
tał -2842
niła -2843
▁rośli -2844
▁aleksand -2845
▁wyro -2846
▁doro -2847
▁stoli -2848
czkę -2849
legł -2850
▁pisa -2851
▁raczej -2852
▁rz -2853
▁dowie -2854
▁techni -2855
jów -2856
kier -2857
▁stała -2858
▁zgi -2859
▁prakty -2860
pierw -2861
▁nowym -2862
ład -2863
choty -2864
rała -2865
▁pło -2866
wala -2867
▁zi -2868
▁wych -2869
daje -2870
▁góry -2871
rech -2872
jemy -2873
▁osoby -2874
wano -2875
▁członkiem -2876
sztą -2877
▁radzie -2878
szek -2879
▁zanim -2880
ściej -2881
▁wiecz -2882
tz -2883
▁2000 -2884
▁przedsta -2885
▁połowie -2886
▁koście -2887
▁prez -2888
▁boga -2889
▁dotar -2890
owaniem -2891
▁rodzin -2892
▁pru -2893
grafi -2894
▁całe -2895
jmniej -2896
▁tymczas -2897
▁smu -2898
▁przedsię -2899
kwi -2900
▁przyczy -2901
▁walki -2902
▁kap -2903
dyj -2904
▁188 -2905
kowej -2906
▁wyją -2907
▁koło -2908
▁von -2909
"), -2910
▁przyj -2911
▁pracę -2912
▁is -2913
▁telef -2914
▁popular -2915
onem -2916
▁opowie -2917
▁kontro -2918
▁bog -2919
▁doprowa -2920
▁porząd -2921
lub -2922
▁miejscowość -2923
▁niemiec -2924
va -2925
pły -2926
zać -2927
▁zaczyna -2928
ciej -2929
▁odpowia -2930
▁wrocła -2931
▁brz -2932
▁projekt -2933
▁muszę -2934
nęło -2935
▁ziel -2936
▁europy -2937
▁char -2938
stana -2939
▁2002 -2940
▁general -2941
▁skąd -2942
▁rozgryw -2943
▁utw -2944
▁ciała -2945
▁prawdopodobnie -2946
pij -2947
▁kobieta -2948
▁stanu -2949
iad -2950
wego -2951
▁przysz -2952
▁przekon -2953
niki -2954
bia -2955
▁powsta -2956
▁posiad -2957
dzili -2958
▁materi -2959
▁ogó -2960
▁zł -2961
łaszcza -2962
▁innego -2963
wyczaj -2964
ując -2965
stw -2966
▁potę -2967
▁rodzaju -2968
dniu -2969
▁uzna -2970
▁rez -2971
▁żołnierzy -2972
▁cóż -2973
▁wynosi -2974
▁ina -2975
▁wcale -2976
wskiej -2977
▁meto -2978
▁olim -2979
▁charaktery -2980
▁angiel -2981
▁typ -2982
▁rzeczywi -2983
▁zaczęła -2984
zuje -2985
iem -2986
▁proce -2987
▁dziecko -2988
▁kop -2989
▁takim -2990
nio -2991
▁zade -2992
▁sił -2993
▁klubu -2994
▁mart -2995
▁meczu -2996
▁ką -2997
▁powiecie -2998
lega -2999
▁kana -3000
▁karie -3001
▁pewnie -3002
▁sre -3003
▁rolę -3004
fer -3005
anem -3006
▁gran -3007
stości -3008
▁parlam -3009
▁organiza -3010
car -3011
▁łóż -3012
▁kultury -3013
▁znalazł -3014
▁filozo -3015
6, -3016
▁ogrom -3017
▁franci -3018
▁ponadto -3019
jąć -3020
éj -3021
czeństwa -3022
▁uczy -3023
▁oficer -3024
arła -3025
▁współpra -3026
▁zwykle -3027
zg -3028
roma -3029
bezpie -3030
201 -3031
▁zmu -3032
▁tajem -3033
▁minister -3034
▁pozycji -3035
▁ukończył -3036
win -3037
▁wyraź -3038
▁seria -3039
▁kolejne -3040
▁sekre -3041
▁zapo -3042
▁ostatnie -3043
▁ochro -3044
▁29 -3045
▁przeby -3046
nikiem -3047
▁przypadku -3048
▁pierwsza -3049
▁japo -3050
niku -3051
ądź -3052
▁kaz -3053
▁er -3054
▁zasa -3055
–199 -3056
owiec -3057
▁reali -3058
▁taka -3059
cyjnej -3060
▁kim -3061
czał -3062
▁więzie -3063
onymi -3064
▁gnie -3065
sen -3066
▁kontra -3067
▁muze -3068
▁całej -3069
▁grupa -3070
▁ograni -3071
▁następu -3072
▁wyposa -3073
▁podpis -3074
▁razu -3075
▁poprzez -3076
▁program -3077
▁lep -3078
3, -3079
▁kolei -3080
spek -3081
dzone -3082
▁jad -3083
▁1999 -3084
▁ogóle -3085
cielem -3086
ham -3087
niach -3088
▁organizacji -3089
teres -3090
4, -3091
▁moim -3092
▁stanowisko -3093
▁ruchu -3094
czność -3095
▁scen -3096
▁przyje -3097
▁czwar -3098
▁(200 -3099
▁spowo -3100
▁bowiem -3101
▁stre -3102
▁najpierw -3103
▁odd -3104
▁los -3105
wolu -3106
au -3107
rób -3108
▁świą -3109
▁zresztą -3110
niejszych -3111
▁wewnętrz -3112
▁anty -3113
▁uważa -3114
rząc -3115
spi -3116
▁obowiąz -3117
▁znajdują -3118
▁pewno -3119
siąc -3120
▁ośrod -3121
enty -3122
▁wąt -3123
lie -3124
▁włą -3125
▁momen -3126
▁położona -3127
czem -3128
▁ruch -3129
nica -3130
dna -3131
▁działalność -3132
▁zapom -3133
tarz -3134
▁con -3135
alnie -3136
▁spa -3137
szem -3138
▁1975 -3139
poś -3140
1, -3141
▁czek -3142
▁wios -3143
▁mojej -3144
▁organiz -3145
mien -3146
▁pet -3147
▁podstawie -3148
▁iv -3149
▁zwłaszcza -3150
tt -3151
siaj -3152
▁powinie -3153
▁panu -3154
cyjnego -3155
▁Ślą -3156
rie -3157
omo -3158
▁ogło -3159
▁cieka -3160
rócz -3161
▁cza -3162
▁nar -3163
▁urzą -3164
skar -3165
chała -3166
chani -3167
alne -3168
▁tysięcy -3169
end -3170
dając -3171
▁lw -3172
▁komite -3173
pię -3174
▁szere -3175
▁dosk -3176
publi -3177
bor -3178
▁sąd -3179
▁wybo -3180
▁konkur -3181
ote -3182
rzeń -3183
▁flo -3184
▁natural -3185
▁fizy -3186
▁spot -3187
▁tury -3188
▁wysokości -3189
1. -3190
nen -3191
▁sztuki -3192
▁znajdow -3193
▁zawar -3194
▁kontak -3195
styczne -3196
▁186 -3197
wienia -3198
▁przezna -3199
kowy -3200
▁błę -3201
▁szwe -3202
zdy -3203
▁niko -3204
▁dzisiaj -3205
▁nowej -3206
▁powszech -3207
▁hon -3208
▁działania -3209
zwo -3210
▁uniwersytecie -3211
cio -3212
ell -3213
▁przeło -3214
wła -3215
▁ow -3216
▁posłu -3217
▁zainteres -3218
▁kas -3219
▁zamknię -3220
spoli -3221
▁reprezent -3222
▁dziewczy -3223
dąc -3224
ina -3225
usza -3226
▁stara -3227
czyli -3228
▁umy -3229
▁uj -3230
▁słucha -3231
rucho -3232
▁odwie -3233
entów -3234
▁wyciąg -3235
▁bezpoś -3236
ft -3237
gach -3238
▁opar -3239
sor -3240
▁ener -3241
▁inaczej -3242
moc -3243
▁zawiera -3244
▁znacznie -3245
▁maj -3246
▁wystąpił -3247
▁pogo -3248
dają -3249
▁gen -3250
▁poż -3251
▁efek -3252
▁spół -3253
▁pokon -3254
▁uniwersytetu -3255
op -3256
▁uwagę -3257
▁drugim -3258
▁chrze -3259
▁przynajmniej -3260
▁trakcie -3261
▁pierwszą -3262
▁małże -3263
▁100 -3264
▁pokry -3265
▁polska -3266
ward -3267
▁1998 -3268
▁potwier -3269
▁konstruk -3270
▁oprócz -3271
▁śla -3272
▁cer -3273
wien -3274
▁czoł -3275
▁usa -3276
▁pryw -3277
óz -3278
czyły -3279
▁list -3280
denta -3281
ganiz -3282
50 -3283
nęły -3284
▁wziął -3285
▁bły -3286
▁czemu -3287
rr -3288
lot -3289
▁obserw -3290
działy -3291
dnich -3292
▁kali -3293
▁pomocy -3294
▁województwa -3295
kuje -3296
▁poma -3297
ll -3298
rii -3299
lum -3300
▁aktor -3301
▁187 -3302
▁ukła -3303
wnątrz -3304
▁pierwo -3305
▁port -3306
łó -3307
▁czer -3308
▁doli -3309
dnych -3310
▁central -3311
▁ana -3312
▁oznacza -3313
▁oprac -3314
▁uzyskał -3315
▁kultu -3316
▁ciało -3317
nic -3318
▁rozwiąz -3319
▁dzielni -3320
owników -3321
▁województwie -3322
▁chę -3323
gij -3324
zów -3325
ścić -3326
▁jaka -3327
▁zła -3328
▁okres -3329
niała -3330
▁west -3331
▁imię -3332
▁kło -3333
▁lokal -3334
▁cen -3335
▁sześć -3336
szyć -3337
▁jeste -3338
▁uwie -3339
▁żydow -3340
▁kobiet -3341
▁serce -3342
prawi -3343
owicz -3344
▁ig -3345
▁wyco -3346
▁podło -3347
▁określ -3348
5, -3349
▁przeszedł -3350
kowych -3351
▁sukce -3352
▁kryty -3353
▁as -3354
▁pełnił -3355
ległości -3356
▁zjednoczonych -3357
▁pią -3358
▁znaczy -3359
▁piechoty -3360
▁zadebiut -3361
▁pia -3362
▁śmierć -3363
▁austr -3364
dziale -3365
▁sprawy -3366
▁opis -3367
▁krew -3368
▁mm -3369
stej -3370
żą -3371
ley -3372
▁brak -3373
▁łu -3374
skach -3375
ić -3376
▁fron -3377
▁parafii -3378
dłuż -3379
▁zgodnie -3380
lnie -3381
▁qu -3382
4. -3383
▁wygląda -3384
rad -3385
▁bądź -3386
par -3387
▁prywat -3388
bił -3389
stycznych -3390
▁osa -3391
stym -3392
▁wielkiego -3393
cony -3394
▁zo -3395
suje -3396
▁zar -3397
▁mogli -3398
▁zaba -3399
▁(18 -3400
▁zamiast -3401
▁całym -3402
owców -3403
▁blo -3404
▁pierwszych -3405
▁kontynu -3406
ownik -3407
▁powoł -3408
▁prowadzi -3409
▁piotr -3410
▁nu -3411
▁boże -3412
▁far -3413
▁rozeg -3414
▁czeka -3415
▁kata -3416
▁zakon -3417
▁skoro -3418
▁innym -3419
▁zostać -3420
ierę -3421
com -3422
emi -3423
mieniu -3424
▁samej -3425
▁trakt -3426
▁ligi -3427
▁dyrek -3428
pt -3429
poli -3430
źnie -3431
▁zapytał -3432
▁mian -3433
▁trzeci -3434
▁najważ -3435
wienie -3436
▁biskup -3437
▁odzy -3438
▁pomocą -3439
▁jam -3440
▁stali -3441
▁tys -3442
sznie -3443
▁sytuacji -3444
▁john -3445
▁myś -3446
omi -3447
▁anto -3448
▁stary -3449
▁minut -3450
▁pój -3451
▁gwał -3452
stych -3453
▁równo -3454
pla -3455
fikacji -3456
7, -3457
▁wrócił -3458
▁stąd -3459
mat -3460
▁zasad -3461
▁swej -3462
dale -3463
onę -3464
▁sur -3465
fy -3466
▁drewni -3467
cal -3468
▁ziem -3469
szty -3470
▁gę -3471
kość -3472
▁awans -3473
lerii -3474
deł -3475
▁znik -3476
▁izra -3477
▁przyg -3478
▁grun -3479
▁niczym -3480
▁miłości -3481
żone -3482
▁mężczyzna -3483
encji -3484
tkiem -3485
▁duże -3486
▁wybud -3487
▁obyw -3488
ął -3489
▁rzad -3490
zny -3491
▁poszu -3492
▁śle -3493
szyła -3494
siej -3495
▁długi -3496
▁podróż -3497
▁muzeum -3498
▁występuje -3499
▁umieszcz -3500
ałości -3501
sach -3502
▁poe -3503
letni -3504
biega -3505
▁utworz -3506
▁widać -3507
puszcz -3508
▁pracu -3509
kował -3510
▁wam -3511
wiając -3512
▁zali -3513
▁medy -3514
▁upad -3515
▁krą -3516
pił -3517
▁foto -3518
▁ska -3519
▁psych -3520
atyw -3521
cznymi -3522
wskim -3523
▁2012 -3524
▁wiat -3525
▁wrażenie -3526
6. -3527
▁kos -3528
▁trój -3529
▁czterech -3530
3. -3531
nki -3532
sj -3533
▁siedem -3534
▁zami -3535
▁źród -3536
▁krakowie -3537
▁kazi -3538
▁ilo -3539
zję -3540
▁teren -3541
▁wielkie -3542
▁dostrze -3543
▁czasów -3544
szony -3545
jesz -3546
▁dobra -3547
pan -3548
▁świet -3549
▁gości -3550
naj -3551
▁sprawę -3552
▁31 -3553
mer -3554
▁trudno -3555
▁niebie -3556
asa -3557
ńcu -3558
ałę -3559
▁fre -3560
▁naro -3561
▁karierę -3562
pełni -3563
▁stef -3564
▁powstała -3565
▁osiem -3566
▁batali -3567
lera -3568
alo -3569
▁najmniej -3570
cisk -3571
sunię -3572
▁tri -3573
▁cała -3574
dnim -3575
niosła -3576
▁służby -3577
▁symbo -3578
▁byłem -3579
▁zawod -3580
▁republi -3581
▁należała -3582
▁chcesz -3583
ela -3584
▁taką -3585
stycznej -3586
żek -3587
▁pocz -3588
▁szczególnie -3589
▁tuż -3590
▁nacze -3591
▁zastana -3592
▁nosi -3593
▁egz -3594
nowa -3595
▁roman -3596
▁areszt -3597
▁ben -3598
▁przedsiębior -3599
▁mówić -3600
▁doj -3601
▁właściwie -3602
kowski -3603
▁ciep -3604
die -3605
▁dost -3606
szki -3607
▁serca -3608
▁szpita -3609
▁eu -3610
kazuje -3611
▁trans -3612
▁wyróż -3613
cąc -3614
czące -3615
▁badania -3616
▁pad -3617
▁ks -3618
lna -3619
▁krwi -3620
▁reak -3621
▁drogę -3622
▁poto -3623
▁nowych -3624
ps -3625
dzeniu -3626
chodząc -3627
▁wchodzi -3628
▁bieg -3629
▁der -3630
▁cywi -3631
landii -3632
▁kory -3633
czeń -3634
▁han -3635
dniego -3636
▁pojawi -3637
5. -3638
▁miałem -3639
ciąga -3640
▁zako -3641
▁it -3642
▁domy -3643
▁dostęp -3644
era -3645
▁mocy -3646
▁pola -3647
▁mistrzostw -3648
cyjnie -3649
▁wysta -3650
▁bóg -3651
▁wydaje -3652
▁sę -3653
▁metrów -3654
▁fili -3655
▁Ło -3656
▁fer -3657
▁zdję -3658
▁wpad -3659
ian -3660
sam -3661
▁powrócił -3662
▁zastęp -3663
▁tą -3664
▁1997 -3665
▁olimpij -3666
onomi -3667
▁przyzna -3668
▁gdzieś -3669
▁imp -3670
▁zmian -3671
▁odpowiedział -3672
▁kolejnych -3673
▁należą -3674
▁kandy -3675
▁pobliżu -3676
▁oka -3677
–1 -3678
▁odg -3679
▁inny -3680
▁maria -3681
▁gmina -3682
▁powierzchni -3683
chodzą -3684
wód -3685
pę -3686
maty -3687
▁obejmu -3688
dzien -3689
▁dach -3690
działu -3691
▁stad -3692
▁lekko -3693
▁oce -3694
▁niezależ -3695
▁szef -3696
▁pienią -3697
raty -3698
▁festi -3699
ciele -3700
▁zastos -3701
▁wyłącznie -3702
▁run -3703
dom -3704
▁londy -3705
▁kolejny -3706
▁mikoła -3707
▁zagrani -3708
▁nieprzy -3709
▁transp -3710
▁sali -3711
mienie -3712
▁wraca -3713
ńców -3714
▁prace -3715
▁zorganiz -3716
▁prowi -3717
▁jezu -3718
▁szta -3719
▁powt -3720
▁dą -3721
▁ofiar -3722
▁kru -3723
panii -3724
▁sami -3725
▁powoli -3726
▁idzie -3727
▁reży -3728
▁powstania -3729
miała -3730
30 -3731
▁przypomina -3732
▁blisko -3733
▁zdzi -3734
kli -3735
▁niewo -3736
▁ir -3737
▁świąty -3738
ńską -3739
▁postać -3740
▁produkcji -3741
▁ke -3742
ariu -3743
-2 -3744
▁współczes -3745
▁kwa -3746
▁ti -3747
owani -3748
▁1944 -3749
las -3750
lak -3751
▁przypom -3752
kan -3753
▁zależ -3754
▁bom -3755
▁prosto -3756
ble -3757
tnych -3758
▁fry -3759
▁wieczo -3760
▁charakter -3761
▁moją -3762
▁pozwala -3763
▁preze -3764
▁przym -3765
▁parafia -3766
nicj -3767
▁ć -3768
▁pułku -3769
▁urodził -3770
▁gim -3771
▁odzna -3772
▁mocno -3773
▁rolni -3774
▁nasz -3775
▁księcia -3776
▁oskar -3777
▁budyn -3778
woj -3779
▁ocho -3780
▁adam -3781
zach -3782
▁przesz -3783
▁prag -3784
liła -3785
▁cesa -3786
▁chrześci -3787
▁byd -3788
▁pręd -3789
▁wład -3790
sar -3791
▁sezonu -3792
▁szkoła -3793
tacji -3794
▁reprezentacji -3795
▁przycho -3796
▁doszło -3797
cyjnym -3798
▁sm -3799
▁słowo -3800
▁dziewię -3801
▁niektór -3802
west -3803
▁wpływ -3804
tali -3805
▁ham -3806
duk -3807
▁ali -3808
tychczas -3809
▁odparł -3810
▁komuni -3811
▁zdra -3812
▁znaleźć -3813
▁całkowicie -3814
▁zatru -3815
▁zatem -3816
szczenia -3817
▁miłość -3818
syw -3819
tam -3820
▁szczęśli -3821
▁chri -3822
▁zs -3823
lle -3824
▁tymczasem -3825
▁cha -3826
szto -3827
▁nami -3828
▁włady -3829
▁pewien -3830
▁wersji -3831
▁zgroma -3832
widu -3833
▁grał -3834
▁pory -3835
▁katego -3836
▁powiet -3837
▁wysł -3838
▁towarzystwa -3839
sło -3840
▁śnie -3841
czący -3842
jaw -3843
▁członków -3844
▁zadebiutował -3845
▁prote -3846
gami -3847
▁fabry -3848
▁szar -3849
pić -3850
▁dotychczas -3851
▁szep -3852
▁niewy -3853
▁pozba -3854
▁wierz -3855
▁kierowni -3856
▁bas -3857
stego -3858
▁musiała -3859
▁dał -3860
▁premie -3861
▁komisji -3862
cką -3863
▁kazimie -3864
lon -3865
▁żadnych -3866
▁akademii -3867
ództ -3868
raża -3869
▁tom -3870
▁wyborach -3871
▁znie -3872
owca -3873
▁wszedł -3874
▁brat -3875
▁wartości -3876
▁niebezpie -3877
czer -3878
kładnie -3879
▁niezwy -3880
zdu -3881
mieni -3882
▁tery -3883
▁parę -3884
dro -3885
▁głowie -3886
▁przyzn -3887
▁« -3888
▁struktu -3889
▁składa -3890
▁zwierzę -3891
▁nasze -3892
▁sing -3893
▁spotkania -3894
▁(199 -3895
▁istnieje -3896
▁dniu -3897
▁mówiąc -3898
▁nastąpi -3899
▁słów -3900
▁ocze -3901
▁książki -3902
▁zakre -3903
▁teor -3904
bel -3905
▁boj -3906
▁gimna -3907
▁inni -3908
▁terytor -3909
▁new -3910
▁rzeki -3911
▁speł -3912
▁spojrzał -3913
▁hal -3914
▁kompu -3915
▁podzie -3916
pienia -3917
▁szczęście -3918
rzuc -3919
▁niektóre -3920
▁powinna -3921
▁przyjem -3922
▁nieo -3923
▁2013 -3924
▁ster -3925
dr -3926
▁szlach -3927
▁prowadził -3928
▁pora -3929
owskiej -3930
rodę -3931
▁finans -3932
wiają -3933
skę -3934
ath -3935
▁wymi -3936
▁aktyw -3937
gro -3938
▁skier -3939
▁rad -3940
▁najczę -3941
▁północnej -3942
▁mąż -3943
▁drob -3944
▁myśle -3945
▁trzydzie -3946
▁listy -3947
▁stanisław -3948
▁herb -3949
▁drugą -3950
▁wez -3951
▁ucz -3952
▁nadz -3953
▁liczba -3954
▁droga -3955
▁gminie -3956
▁mechani -3957
▁maz -3958
tarza -3959
▁włosy -3960
▁mieszka -3961
▁strzel -3962
▁dzieje -3963
▁1989 -3964
▁wykony -3965
▁Ła -3966
▁dobr -3967
▁stron -3968
dnio -3969
▁różne -3970
▁odci -3971
▁sposob -3972
▁władzy -3973
▁Łu -3974
lij -3975
nawi -3976
,5 -3977
▁długie -3978
▁frag -3979
▁dowództ -3980
▁serii -3981
▁odez -3982
▁kated -3983
▁zwięk -3984
▁emi -3985
▁dokładnie -3986
▁bibliote -3987
▁środowi -3988
▁0 -3989
▁bezpośredni -3990
▁zamy -3991
▁mojego -3992
▁bło -3993
▁narodowej -3994
dzwo -3995
emy -3996
▁jos -3997
▁objął -3998
▁możesz -3999
▁pełni -4000
cjonal -4001
▁zostali -4002
owań -4003
ven -4004
▁niczego -4005
▁związek -4006
bran -4007
▁1990 -4008
▁hum -4009
▁magi -4010
▁srebr -4011
▁forma -4012
bili -4013
▁poni -4014
▁macie -4015
nera -4016
feren -4017
▁oczach -4018
▁głównym -4019
stety -4020
▁niedo -4021
▁zdecyd -4022
łeś -4023
▁brał -4024
▁leży -4025
▁ramion -4026
▁wice -4027
żer -4028
kin -4029
▁możliwości -4030
▁maga -4031
▁prezydenta -4032
jak -4033
dzeniem -4034
tuje -4035
logii -4036
▁budynku -4037
▁rosji -4038
▁pomie -4039
▁skó -4040
eł -4041
▁pale -4042
▁wycof -4043
▁ziemię -4044
▁spod -4045
▁mistrzostwach -4046
▁stowarzy -4047
▁dobry -4048
▁kawa -4049
tności -4050
▁bab -4051
▁niespo -4052
zan -4053
▁et -4054
▁klaszt -4055
▁funkcjon -4056
ałów -4057
nictwa -4058
▁stoi -4059
pisy -4060
jąco -4061
▁ogro -4062
▁mama -4063
nęli -4064
żona -4065
▁mosk -4066
▁miesięcy -4067
▁chwy -4068
▁miesią -4069
▁miło -4070
sić -4071
▁rą -4072
▁całkiem -4073
▁indy -4074
▁willi -4075
▁współprac -4076
knęła -4077
▁dwudzie -4078
▁rozwoju -4079
miu -4080
▁bohater -4081
▁pri -4082
▁porów -4083
styczny -4084
rali -4085
▁dołą -4086
gaż -4087
▁piersi -4088
▁mogło -4089
bier -4090
zer -4091
▁modli -4092
▁woli -4093
▁powierzch -4094
8, -4095
don -4096
▁niektórych -4097
▁względem -4098
▁jakiej -4099
lli -4100
▁rzę -4101
▁wnę -4102
▁tech -4103
lt -4104
ologii -4105
dam -4106
▁ludwi -4107
alnych -4108
▁wybuch -4109
▁demok -4110
▁uroczy -4111
▁uwagi -4112
▁numer -4113
▁południowej -4114
▁postęp -4115
▁2014 -4116
bów -4117
mun -4118
▁pociąg -4119
▁ówczes -4120
▁mur -4121
obi -4122
▁wizy -4123
stka -4124
▁dek -4125
▁kapli -4126
▁nazwy -4127
ństwie -4128
czno -4129
▁hrab -4130
nice -4131
▁zamku -4132
7. -4133
▁komór -4134
▁nadzieję -4135
leń -4136
kacji -4137
mówi -4138
▁warszawy -4139
jan -4140
▁autob -4141
▁1996 -4142
▁mode -4143
wanych -4144
▁geor -4145
▁dziewczyna -4146
▁drugiego -4147
▁wyści -4148
dności -4149
▁maks -4150
kowego -4151
▁taj -4152
▁będąc -4153
▁powieści -4154
▁umożli -4155
stwem -4156
▁50 -4157
nąc -4158
▁każdego -4159
▁gr -4160
▁1994 -4161
▁zsrr -4162
▁punkt -4163
▁uzbro -4164
spie -4165
chali -4166
▁rezerw -4167
czeniem -4168
▁krakow -4169
czyk -4170
▁danych -4171
▁turnieju -4172
nat -4173
▁ap -4174
▁sprzeda -4175
lony -4176
▁konf -4177
dziesiąt -4178
▁nieszczę -4179
▁zer -4180
▁dzisiej -4181
▁zrobił -4182
▁lit -4183
gni -4184
dami -4185
▁józef -4186
▁napo -4187
▁najczęściej -4188
zę -4189
▁wolno -4190
▁skle -4191
▁zaku -4192
▁zmiany -4193
▁próbował -4194
▁obję -4195
rzut -4196
▁oł -4197
▁pasa -4198
▁budynek -4199
▁zwyczaj -4200
▁1992 -4201
▁patrzy -4202
nowi -4203
▁języka -4204
▁koszt -4205
▁pyta -4206
▁głoś -4207
▁obli -4208
▁artyku -4209
▁pil -4210
▁władze -4211
▁obszar -4212
▁nogi -4213
▁pieniądze -4214
▁spodzie -4215
▁widzę -4216
▁rzeź -4217
▁obrony -4218
▁dyp -4219
fin -4220
▁com -4221
▁koro -4222
▁cicho -4223
▁bryt -4224
▁miast -4225
dzona -4226
czar -4227
onać -4228
▁stacji -4229
▁zę -4230
▁takiej -4231
▁zjawi -4232
▁tade -4233
▁tat -4234
lną -4235
ine -4236
▁plu -4237
ance -4238
żeniu -4239
▁większości -4240
▁religij -4241
▁lidze -4242
cznik -4243
▁szk -4244
▁wor -4245
▁nową -4246
▁wielkim -4247
▁sezon -4248
▁godziny -4249
▁wzrok -4250
▁roli -4251
▁prowin -4252
▁wielką -4253
tyka -4254
owości -4255
▁powinien -4256
gli -4257
▁pomimo -4258
▁jesteśmy -4259
▁austra -4260
▁żadnego -4261
dziło -4262
▁możliwe -4263
▁czter -4264
▁robić -4265
▁pytanie -4266
nięcia -4267
ret -4268
▁kawał -4269
▁przedmio -4270
▁zakończeniu -4271
graf -4272
▁zbior -4273
▁dosta -4274
▁zawi -4275
▁moich -4276
ght -4277
▁zaledwie -4278
ńce -4279
▁rano -4280
▁gabi -4281
▁184 -4282
▁andrzej -4283
vo -4284
▁1. -4285
▁nied -4286
lor -4287
▁kot -4288
▁bri -4289
▁rodzina -4290
▁polskie -4291
▁doktor -4292
▁ludności -4293
▁zostaje -4294
/200 -4295
▁momencie -4296
▁drużyny -4297
▁najstar -4298
▁augu -4299
▁prezydent -4300
▁mru -4301
▁filmu -4302
▁korpu -4303
▁abso -4304
▁pt -4305
cyjną -4306
▁brąz -4307
wicza -4308
dla -4309
▁postawi -4310
▁język -4311
▁myślę -4312
ont -4313
▁męża -4314
▁widok -4315
tyczne -4316
▁wykorzysty -4317
▁pienię -4318
▁ró -4319
▁okręgu -4320
▁proces -4321
▁lam -4322
▁bran -4323
alny -4324
stki -4325
▁face -4326
▁wzgó -4327
rywa -4328
▁mro -4329
▁piłkar -4330
▁powtó -4331
gru -4332
▁igrzy -4333
jo -4334
▁inicj -4335
▁próbu -4336
▁kl -4337
dziły -4338
▁polskim -4339
▁opubli -4340
▁działalności -4341
▁wiedzieć -4342
menty -4343
▁ciągle -4344
▁1991 -4345
▁telewizyj -4346
geli -4347
▁jor -4348
▁dłoń -4349
▁żół -4350
hu -4351
▁niepod -4352
▁nazwą -4353
▁straż -4354
fo -4355
▁micha -4356
▁czegoś -4357
▁rewolu -4358
▁zadzwo -4359
▁mężczyzn -4360
8. -4361
▁1995 -4362
chów -4363
prawy -4364
▁davi -4365
gał -4366
tnym -4367
▁budowy -4368
▁architek -4369
ill -4370
anka -4371
▁zbo -4372
dała -4373
▁magazy -4374
▁fal -4375
▁zato -4376
▁akcji -4377
▁słysz -4378
▁odpowiedzi -4379
▁wzdłuż -4380
▁drzew -4381
▁marcu -4382
▁podję -4383
▁kogoś -4384
▁pojedyn -4385
▁gwałtow -4386
tnej -4387
kój -4388
▁mały -4389
▁bor -4390
▁mer -4391
pień -4392
żę -4393
▁jesie -4394
▁swe -4395
ille -4396
zwyczaj -4397
▁epi -4398
żynie -4399
▁dwor -4400
▁liczne -4401
▁indywidu -4402
▁dziennika -4403
▁medal -4404
▁znany -4405
atem -4406
▁daleko -4407
▁firmy -4408
róciła -4409
▁członek -4410
▁bydgo -4411
▁Świata -4412
▁europie -4413
rost -4414
▁możemy -4415
nka -4416
gina -4417
▁seku -4418
▁stylu -4419
▁uda -4420
▁owo -4421
▁pomó -4422
gre -4423
▁wiedziała -4424
▁ptak -4425
10 -4426
▁1993 -4427
▁hit -4428
▁elektry -4429
▁wrę -4430
▁popro -4431
▁krótko -4432
▁smo -4433
▁sub -4434
▁40 -4435
▁długości -4436
▁roślin -4437
wki -4438
▁będziesz -4439
▁poszuki -4440
onali -4441
dor -4442
▁rezy -4443
▁uprze -4444
▁jednostki -4445
dłem -4446
▁ścian -4447
▁ręką -4448
▁rzeczywiście -4449
▁mad -4450
▁zakład -4451
▁każdej -4452
aliz -4453
▁założy -4454
▁kore -4455
▁pancer -4456
▁celem -4457
▁tygodni -4458
▁księż -4459
▁nauki -4460
ena -4461
tion -4462
▁odpowiedzia -4463
▁swych -4464
▁przeniesi -4465
pią -4466
▁druga -4467
stry -4468
▁spytał -4469
▁całego -4470
▁liście -4471
pó -4472
▁toma -4473
▁zapa -4474
▁dziewczyn -4475
mów -4476
▁małe -4477
nij -4478
mem -4479
▁pen -4480
▁własne -4481
▁żona -4482
tka -4483
tymi -4484
▁grz -4485
▁rozp -4486
łon -4487
▁występował -4488
▁jakoś -4489
▁pewnego -4490
ros -4491
▁stały -4492
▁rządu -4493
łach -4494
▁przewodnicząc -4495
▁informacji -4496
und -4497
niec -4498
▁kli -4499
żdża -4500
▁fol -4501
owskim -4502
▁mand -4503
▁swą -4504
▁park -4505
two -4506
dol -4507
berta -4508
tną -4509
▁codzien -4510
▁wydał -4511
▁rozbi -4512
śnię -4513
▁odno -4514
▁górę -4515
▁wio -4516
▁afry -4517
▁rozkaz -4518
▁zbroj -4519
▁doktora -4520
▁odbi -4521
▁kompozy -4522
głę -4523
dra -4524
▁wyraźnie -4525
gać -4526
▁cm -4527
▁tobą -4528
skimi -4529
▁wybor -4530
▁skon -4531
owem -4532
▁gal -4533
▁gdań -4534
▁okazało -4535
▁patri -4536
▁przewi -4537
mieniem -4538
gor -4539
▁super -4540
▁honor -4541
▁odro -4542
▁zapewne -4543
▁szczeg -4544
▁oddziały -4545
dzał -4546
tura -4547
▁pojawił -4548
▁zyg -4549
cjami -4550
▁jednakże -4551
▁napisał -4552
▁ukaz -4553
pospoli -4554
▁stopniu -4555
▁okazji -4556
▁ewan -4557
▁pozio -4558
▁mówię -4559
dek -4560
▁języku -4561
▁naszej -4562
▁ss -4563
ują -4564
▁auto -4565
▁chry -4566
▁xviii -4567
rzeniem -4568
ił -4569
▁systemu -4570
▁niemcy -4571
▁upo -4572
▁przeży -4573
▁zakończył -4574
▁ostatnich -4575
▁głosem -4576
9, -4577
waniu -4578
▁handl -4579
▁pięciu -4580
ln -4581
▁przyszło -4582
rząt -4583
▁oli -4584
▁zagro -4585
▁czasach -4586
▁zmienia -4587
▁królew -4588
▁pau -4589
razy -4590
▁sied -4591
▁byłoby -4592
▁robotni -4593
▁naszych -4594
np -4595
▁trzyma -4596
nąłem -4597
▁osad -4598
▁córki -4599
▁zajmował -4600
▁teo -4601
▁bym -4602
anki -4603
▁gimnazj -4604
jącymi -4605
▁mach -4606
▁dziesięć -4607
▁zostanie -4608
▁dostar -4609
▁nos -4610
▁stanął -4611
snął -4612
▁miałam -4613
▁proble -4614
▁blu -4615
▁wystąpi -4616
▁wzru -4617
▁zdą -4618
▁usia -4619
linie -4620
▁pamięci -4621
▁budowę -4622
▁godzin -4623
▁intere -4624
▁osobi -4625
▁aku -4626
▁przeję -4627
dną -4628
kowym -4629
entem -4630
niejszy -4631
▁badań -4632
szeni -4633
▁samochód -4634
▁leka -4635
▁nowa -4636
▁wspani -4637
▁ach -4638
▁arcy -4639
▁normal -4640
▁zanie -4641
▁księży -4642
▁przywi -4643
▁żony -4644
▁okresu -4645
▁apo -4646
▁rozpa -4647
des -4648
▁wschód -4649
▁dum -4650
▁sieci -4651
▁portu -4652
▁układ -4653
lami -4654
▁wer -4655
▁narodowego -4656
▁ory -4657
dera -4658
▁stanów -4659
daj -4660
▁poży -4661
▁utwór -4662
▁bezpieczeństwa -4663
pr -4664
▁2015 -4665
▁czele -4666
duje -4667
dzonych -4668
▁powrotem -4669
ryj -4670
▁dre -4671
▁bole -4672
▁jezio -4673
▁piosenki -4674
▁chu -4675
sami -4676
szczegól -4677
hr -4678
roz -4679
▁nauczyciel -4680
▁profeso -4681
ban -4682
▁karabi -4683
dnym -4684
set -4685
▁(2 -4686
▁odbył -4687
▁jaku -4688
▁reżyser -4689
▁młody -4690
▁muzyki -4691
!... -4692
▁inżynie -4693
▁byłam -4694
oty -4695
▁sąsie -4696
▁rodzaj -4697
▁wybrany -4698
mana -4699
grafii -4700
▁twój -4701
▁uspo -4702
▁wynik -4703
▁stanowią -4704
▁przekaz -4705
▁projektu -4706
▁stanisława -4707
▁przepra -4708
▁lite -4709
▁dotk -4710
trzym -4711
▁gaz -4712
▁znaczenie -4713
▁dep -4714
czących -4715
▁asy -4716
zajem -4717
▁wyna -4718
▁rich -4719
▁programu -4720
leb -4721
▁komitetu -4722
▁mogły -4723
▁kwest -4724
▁bryga -4725
▁brata -4726
kała -4727
▁wrześniu -4728
▁utra -4729
iom -4730
▁morder -4731
gła -4732
asad -4733
▁tow -4734
▁westch -4735
▁specjali -4736
ęła -4737
dzkiego -4738
byś -4739
▁porządku -4740
siła -4741
▁potrzebu -4742
▁zdu -4743
▁oświad -4744
▁wczes -4745
owice -4746
berg -4747
▁soli -4748
▁kal -4749
▁wyszedł -4750
▁zaj -4751
▁sierp -4752
▁czasami -4753
▁dotąd -4754
▁geo -4755
▁uch -4756
▁edu -4757
rzeniu -4758
▁zachód -4759
▁zao -4760
▁zadowo -4761
▁plat -4762
▁cor -4763
cier -4764
▁pochodzą -4765
▁185 -4766
owałem -4767
▁lę -4768
▁zagrał -4769
▁wspar -4770
ple -4771
▁ostrze -4772
kato -4773
▁1918 -4774
czoraj -4775
▁ski -4776
▁józefa -4777
kształ -4778
▁środku -4779
▁ex -4780
▁bun -4781
▁możliwość -4782
▁des -4783
▁us -4784
ącego -4785
▁kuchni -4786
▁zobaczyć -4787
▁paryżu -4788
▁styczniu -4789
▁Żydów -4790
▁000 -4791
▁dziad -4792
▁siedzibą -4793
▁not -4794
lubi -4795
▁same -4796
▁bre -4797
▁należał -4798
▁pali -4799
ws -4800
▁parku -4801
kla -4802
▁wykła -4803
▁władz -4804
▁183 -4805
▁zmy -4806
mos -4807
sion -4808
▁inten -4809
▁toru -4810
▁robert -4811
▁dywizji -4812
gal -4813
▁und -4814
▁gali -4815
▁czuł -4816
rzony -4817
▁spokojnie -4818
▁statu -4819
▁kadencji -4820
▁wynika -4821
▁córka -4822
czką -4823
kien -4824
▁przemysł -4825
▁cam -4826
▁mel -4827
wałem -4828
▁wieczorem -4829
▁yo -4830
ęp -4831
▁sem -4832
▁sar -4833
sja -4834
cone -4835
▁popat -4836
▁skute -4837
▁hol -4838
▁zasko -4839
hel -4840
▁siedział -4841
rzuca -4842
▁swobo -4843
dzieścia -4844
▁warszawa -4845
▁den -4846
tnego -4847
▁kościele -4848
▁tobie -4849
▁domi -4850
▁bogu -4851
żdż -4852
▁xvi -4853
ownika -4854
▁sprawiedli -4855
▁order -4856
łami -4857
▁zapis -4858
▁porozu -4859
▁jasne -4860
▁wychodzi -4861
gło -4862
▁delik -4863
▁dan -4864
atel -4865
▁brytanii -4866
▁wypro -4867
▁maju -4868
▁oczu -4869
–200 -4870
▁dać -4871
▁niestety -4872
▁eta -4873
40 -4874
▁sprowa -4875
twa -4876
▁dniach -4877
piec -4878
▁zobaczy -4879
▁stopni -4880
cyjna -4881
▁fakt -4882
ag -4883
▁wybrze -4884
▁klę -4885
▁zrezy -4886
weł -4887
▁polega -4888
▁ekonomi -4889
▁łago -4890
▁dwadzieścia -4891
▁drogą -4892
▁zał -4893
▁czyż -4894
rzyło -4895
ctwem -4896
▁znalazła -4897
▁powstrzym -4898
atora -4899
▁przekształ -4900
?! -4901
▁trafił -4902
▁niezn -4903
lności -4904
żeniem -4905
▁nagrodę -4906
wiała -4907
▁minu -4908
▁sukces -4909
dii -4910
▁strasz -4911
▁dobro -4912
▁powy -4913
▁kolum -4914
–1998 -4915
▁jerzy -4916
nione -4917
kuję -4918
ranym -4919
▁sprzę -4920
▁tempera -4921
cina -4922
cili -4923
60 -4924
▁własnej -4925
▁południe -4926
▁zdaw -4927
▁napę -4928
▁ręka -4929
▁niby -4930
▁pojęcia -4931
▁krzyszto -4932
rator -4933
▁debiut -4934
nieść -4935
▁wygrał -4936
her -4937
dzień -4938
int -4939
▁model -4940
▁obsza -4941
mą -4942
▁konsek -4943
▁maszyn -4944
▁jutro -4945
▁trzecie -4946
▁boi -4947
▁bła -4948
bri -4949
cej -4950
▁diece -4951
▁przedstawia -4952
skać -4953
gon -4954
▁anglii -4955
▁bał -4956
▁wdzię -4957
▁kłopo -4958
▁austria -4959
▁emo -4960
▁2. -4961
▁2016 -4962
▁del -4963
nastu -4964
▁pewnością -4965
▁obja -4966
▁zamek -4967
▁szach -4968
▁kontrakt -4969
▁pomysł -4970
▁gimnazjum -4971
▁rozmowy -4972
▁studiował -4973
▁ew -4974
szam -4975
▁kup -4976
▁interes -4977
▁ły -4978
▁podjął -4979
▁północy -4980
▁nieba -4981
▁nienawi -4982
dnej -4983
▁unik -4984
▁najbli -4985
jcie -4986
▁daje -4987
▁wczoraj -4988
▁mc -4989
▁potęż -4990
kana -4991
nó -4992
▁węgier -4993
▁sprawa -4994
▁fla -4995
80 -4996
▁zapła -4997
▁orze -4998
▁chrześcija -4999
▁zasłu -5000
▁poziom -5001
▁punktów -5002
▁dziecka -5003
▁iść -5004
▁cmentarzu -5005
chodził -5006
doby -5007
▁ochrony -5008
▁delikat -5009
▁ofer -5010
▁profesor -5011
▁ono -5012
imi -5013
▁jakich -5014
larów -5015
tować -5016
onale -5017
nin -5018
▁− -5019
▁okrą -5020
lepiej -5021
▁czo -5022
▁spotkanie -5023
ącą -5024
▁hiszpa -5025
▁domów -5026
▁mówiła -5027
▁zle -5028
▁pochy -5029
▁sowie -5030
owska -5031
brze -5032
▁oczeki -5033
▁czerwcu -5034
dacji -5035
rop -5036
▁ver -5037
▁rzeczywistości -5038
▁spu -5039
▁białoru -5040
▁częścią -5041
nięcie -5042
▁nikogo -5043
▁zazwyczaj -5044
▁grudniu -5045
▁proto -5046
▁wście -5047
9. -5048
▁posł -5049
mist -5050
▁dam -5051
▁bior -5052
har -5053
▁pułk -5054
▁synem -5055
▁standar -5056
bin -5057
▁zewnętrz -5058
▁związane -5059
▁* -5060
bach -5061
▁rozumiem -5062
▁rynku -5063
▁odcin -5064
▁1940 -5065
▁morza -5066
▁1919 -5067
▁gener -5068
gorz -5069
▁ląd -5070
eli -5071
sunął -5072
▁dę -5073
▁179 -5074
▁bob -5075
zację -5076
lw -5077
biegł -5078
▁ostatnim -5079
▁niemieckiej -5080
▁nur -5081
kimi -5082
▁komunika -5083
ts -5084
▁1941 -5085
▁zaro -5086
▁sięg -5087
▁arab -5088
▁brzegu -5089
▁dyplom -5090
▁stanowiska -5091
gia -5092
▁cesar -5093
stycznego -5094
▁1943 -5095
szczenie -5096
pp -5097
▁ryce -5098
▁stopnia -5099
▁eksper -5100
▁latem -5101
nęłam -5102
▁rzucił -5103
▁żadnej -5104
▁postanowił -5105
▁będziemy -5106
brał -5107
▁un -5108
lomet -5109
▁warszawskiego -5110
▁cyk -5111
▁skaz -5112
ącym -5113
hy -5114
▁wydawni -5115
▁wymaga -5116
▁reje -5117
▁własną -5118
▁zapropon -5119
terze -5120
tli -5121
▁generał -5122
telu -5123
▁wito -5124
▁zabud -5125
▁łatwo -5126
niony -5127
▁filmie -5128
▁puchar -5129
▁tabli -5130
▁zrezygn -5131
▁niewiele -5132
▁bol -5133
▁jakąś -5134
▁wspólnie -5135
padzie -5136
▁uwo -5137
shi -5138
▁otwie -5139
ściła -5140
▁duchow -5141
▁mąd -5142
▁odwo -5143
leni -5144
▁bet -5145
▁leś -5146
▁wybi -5147
▁egi -5148
▁1946 -5149
▁tajemni -5150
derni -5151
▁wojcie -5152
▁ministra -5153
▁wiej -5154
▁wskaz -5155
▁kształt -5156
▁poję -5157
rzucił -5158
▁wydziale -5159
▁180 -5160
▁1942 -5161
ręb -5162
▁samą -5163
try -5164
stanie -5165
▁naszego -5166
met -5167
spra -5168
katoli -5169
▁groma -5170
▁koncert -5171
▁warun -5172
dzać -5173
dzkiej -5174
czech -5175
▁wolności -5176
▁poszczegól -5177
▁najlepiej -5178
▁boku -5179
▁poka -5180
▁występują -5181
▁kocha -5182
▁czymś -5183
▁działań -5184
▁samodziel -5185
▁szwaj -5186
szły -5187
▁obwo -5188
▁pucharu -5189
▁powiedz -5190
70 -5191
brzym -5192
id -5193
▁ogni -5194
▁żoną -5195
▁wielka -5196
▁koszu -5197
▁hy -5198
gr -5199
▁składzie -5200
:1 -5201
▁Łodzi -5202
▁sygn -5203
pospolitej -5204
▁przeniósł -5205
▁zniszcz -5206
lność -5207
▁chroni -5208
▁starego -5209
▁obozu -5210
mentów -5211
▁tworzy -5212
▁prof -5213
▁uleg -5214
▁zachodniej -5215
▁ryzy -5216
nikami -5217
▁niemczech -5218
▁światło -5219
▁wymy -5220
rócić -5221
▁biegu -5222
▁rozwój -5223
ation -5224
▁krzyża -5225
bal -5226
▁sąsia -5227
▁broń -5228
▁wątpli -5229
arę -5230
▁znajdował -5231
▁rąk -5232
▁historia -5233
▁ger -5234
▁gatunków -5235
▁zdaniem -5236
▁pewnym -5237
▁szuka -5238
▁rodzinie -5239
atę -5240
▁jakiegoś -5241
▁głównego -5242
▁wywiad -5243
tuł -5244
dnego -5245
ąg -5246
▁now -5247
▁instru -5248
▁kamien -5249
▁wystawi -5250
iego -5251
▁pałacu -5252
spon -5253
▁ubr -5254
sać -5255
▁lipcu -5256
▁pewne -5257
▁gabine -5258
bek -5259
atych -5260
▁medi -5261
▁październiku -5262
▁zmę -5263
ałość -5264
leci -5265
▁zapach -5266
▁twoje -5267
▁chłopak -5268
▁pozwoli -5269
▁ota -5270
▁zaan -5271
wam -5272
szymi -5273
▁uczni -5274
▁maksym -5275
ning -5276
dnią -5277
▁reszt -5278
que -5279
▁niebo -5280
▁dzw -5281
▁powiatu -5282
▁światła -5283
▁wyjaśni -5284
▁żyje -5285
▁dół -5286
▁koni -5287
atunek -5288
▁policji -5289
▁staje -5290
alnej -5291
▁zdaje -5292
▁182 -5293
denty -5294
▁ostroż -5295
▁mistrza -5296
▁bazy -5297
▁pojawia -5298
▁pieniędzy -5299
▁przykła -5300
▁choćby -5301
▁pomyślał -5302
▁psychi -5303
▁szereg -5304
▁zawołał -5305
▁dłuż -5306
▁granicy -5307
▁zasię -5308
niejsza -5309
▁odej -5310
▁wypowie -5311
▁zagad -5312
▁1980 -5313
stycznym -5314
▁zasia -5315
▁podró -5316
▁wszech -5317
pl -5318
▁meta -5319
▁popra -5320
dan -5321
▁rozegrał -5322
▁socjali -5323
▁niemiecki -5324
▁1975–1998 -5325
wiu -5326
pał -5327
▁śre -5328
▁ataku -5329
cel -5330
dnik -5331
▁mówią -5332
▁mała -5333
▁dostał -5334
▁pacj -5335
strzem -5336
▁użytk -5337
▁lin -5338
mur -5339
▁miesiąc -5340
▁jaz -5341
dzeń -5342
▁następnego -5343
▁juli -5344
czała -5345
▁kapitan -5346
▁wywal -5347
▁grzy -5348
▁dzielnicy -5349
dzki -5350
▁każda -5351
▁pokój -5352
▁nagrody -5353
▁odpowiada -5354
▁biur -5355
▁wszystkiego -5356
▁słońca -5357
▁dowódcy -5358
▁buł -5359
▁liczby -5360
▁koł -5361
▁ewangeli -5362
▁duszy -5363
▁źle -5364
zacja -5365
▁wytwór -5366
▁weso -5367
kować -5368
▁opan -5369
▁listopadzie -5370
▁obywatel -5371
noty -5372
nemu -5373
▁trwa -5374
▁sak -5375
▁odde -5376
▁lewi -5377
▁pozbawi -5378
niego -5379
▁stać -5380
▁serialu -5381
▁sce -5382
dery -5383
▁raj -5384
ls -5385
▁dużą -5386
▁dolarów -5387
▁niektórzy -5388
ownie -5389
wid -5390
▁parlament -5391
▁swym -5392
▁konfli -5393
▁student -5394
liwie -5395
▁nazwisko -5396
▁dodał -5397
▁okręt -5398
▁rozpoczęła -5399
chen -5400
▁dwukrotnie -5401
żono -5402
▁nowoczes -5403
▁amerykański -5404
pów -5405
rego -5406
▁sierpniu -5407
▁telefon -5408
alu -5409
ematy -5410
ale -5411
tości -5412
▁wzmian -5413
powie -5414
▁kogo -5415
▁uśmiechnął -5416
▁son -5417
▁rejonie -5418
tkę -5419
▁tamtej -5420
▁braci -5421
▁marii -5422
▁klubie -5423
▁marynar -5424
▁test -5425
styczną -5426
szono -5427
▁1988 -5428
▁włó -5429
▁powietrze -5430
▁przyw -5431
ling -5432
▁polu -5433
▁spojrzała -5434
▁kosz -5435
ącej -5436
ień -5437
sę -5438
▁sztuk -5439
▁1920 -5440
▁przesta -5441
rzec -5442
▁legen -5443
▁policj -5444
▁wyzn -5445
▁głównej -5446
▁królestwa -5447
▁córkę -5448
▁anna -5449
▁lau -5450
▁zmar -5451
45 -5452
▁jose -5453
▁juni -5454
▁dziesią -5455
▁współpracy -5456
▁zygmun -5457
ściem -5458
▁okolicy -5459
▁wyszła -5460
▁zaangaż -5461
rotnie -5462
▁kilomet -5463
▁oznaj -5464
▁żar -5465
pina -5466
▁szkołę -5467
▁moment -5468
ben -5469
▁olbrzym -5470
▁rodzice -5471
▁dw -5472
▁szan -5473
łym -5474
▁pochodzenia -5475
ako -5476
▁dysk -5477
▁kle -5478
▁hor -5479
▁okna -5480
▁wzrokiem -5481
▁szwajcar -5482
▁kara -5483
kły -5484
▁podat -5485
▁zrozumie -5486
▁dochodzi -5487
▁niemieckich -5488
kło -5489
▁formie -5490
▁sprzed -5491
szone -5492
▁festiwa -5493
▁karol -5494
rac -5495
fr -5496
▁zastąpi -5497
▁piłkarz -5498
▁2017 -5499
▁techno -5500
▁wypadku -5501
▁tysią -5502
▁rodziców -5503
łała -5504
gosła -5505
▁poznaniu -5506
-18 -5507
▁musie -5508
▁przyjął -5509
▁ręki -5510
▁wydziału -5511
▁klasyfikacji -5512
▁brzu -5513
▁guber -5514
▁którymi -5515
▁twórczo -5516
▁george -5517
▁dodatkowo -5518
▁wielkopol -5519
anda -5520
▁zauważył -5521
▁has -5522
▁wnio -5523
▁gatunek -5524
▁przestrzeni -5525
▁party -5526
▁połowy -5527
pii -5528
▁ustawi -5529
▁wydawało -5530
tes -5531
▁kwietniu -5532
▁powrocie -5533
ortu -5534
▁uko -5535
▁urząd -5536
▁epo -5537
▁twoj -5538
▁las -5539
▁ratu -5540
▁środka -5541
▁drzewa -5542
▁zajmuje -5543
letnie -5544
▁oddziału -5545
zma -5546
▁czaso -5547
▁najbliż -5548
▁mając -5549
15 -5550
▁regular -5551
▁gwiazd -5552
▁(198 -5553
▁ryb -5554
antów -5555
-3 -5556
alnym -5557
żeń -5558
▁doskonale -5559
▁kariery -5560
▁ve -5561
▁Świat -5562
▁usłysz -5563
▁rezu -5564
▁dawno -5565
▁fu -5566
▁wersja -5567
▁duży -5568
▁jakimś -5569
burg -5570
▁koncep -5571
rus -5572
wiej -5573
▁potrzeby -5574
▁zakresie -5575
łat -5576
▁mógłby -5577
▁seksu -5578
dowała -5579
▁rp -5580
▁gli -5581
▁rock -5582
▁słońce -5583
▁lubel -5584
▁człowiekiem -5585
▁obc -5586
▁mun -5587
usa -5588
▁wsty -5589
▁młodych -5590
ycha -5591
▁słabo -5592
kiewicz -5593
▁widziałem -5594
▁spotkaniu -5595
▁ogólno -5596
▁kategorii -5597
▁mark -5598
▁gaze -5599
▁umieję -5600
▁klien -5601
▁ds -5602
▁miaste -5603
▁kolor -5604
▁otrzymała -5605
▁sejm -5606
▁skom -5607
75 -5608
▁przywód -5609
anna -5610
▁bezpośrednio -5611
12 -5612
▁komend -5613
▁ange -5614
▁karierze -5615
dzin -5616
▁mala -5617
▁fał -5618
▁pers -5619
wojen -5620
▁stole -5621
wzg -5622
▁spośród -5623
▁tymi -5624
▁przech -5625
▁1981 -5626
▁cześć -5627
▁określe -5628
rez -5629
▁indi -5630
▁krzyżem -5631
▁lor -5632
▁legi -5633
▁odwa -5634
▁napię -5635
▁żaden -5636
▁pułkow -5637
▁nerw -5638
cono -5639
kam -5640
zię -5641
pienie -5642
▁kardyn -5643
▁samochodu -5644
sel -5645
▁lutym -5646
▁dłoni -5647
▁zamord -5648
▁tekst -5649
kową -5650
burgu -5651
▁gorą -5652
▁henryk -5653
atorem -5654
▁ton -5655
ałe -5656
rona -5657
▁podwo -5658
rektor -5659
▁pogrze -5660
▁wschodniej -5661
gno -5662
▁państwo -5663
rzone -5664
▁wyjechał -5665
bić -5666
▁xvii -5667
▁lice -5668
tała -5669
▁uszko -5670
▁musimy -5671
▁komputer -5672
▁pomóc -5673
.: -5674
turze -5675
▁uczestniczył -5676
kiedy -5677
▁zabyt -5678
puszcza -5679
▁dowódca -5680
▁zysk -5681
▁zamach -5682
▁gmin -5683
▁wszę -5684
▁cieszy -5685
nis -5686
dziela -5687
▁wykształ -5688
▁polsko -5689
dziesię -5690
cku -5691
▁rozpozna -5692
tana -5693
/19 -5694
▁1973 -5695
▁cech -5696
▁michał -5697
▁odczu -5698
▁anali -5699
▁nomina -5700
lla -5701
▁ziemia -5702
kowane -5703
▁radio -5704
▁południowo -5705
▁niemców -5706
zje -5707
▁pewna -5708
▁norwe -5709
▁mieszkańcy -5710
▁hel -5711
▁wyspy -5712
▁stanach -5713
▁poże -5714
▁ciężko -5715
tycznie -5716
tycznych -5717
▁jakaś -5718
▁panią -5719
▁zabój -5720
▁konsu -5721
▁1, -5722
▁opuścił -5723
▁stosunku -5724
▁nagro -5725
▁gdybym -5726
▁konstytu -5727
▁przyszedł -5728
▁mek -5729
▁okupa -5730
▁polityk -5731
▁pałac -5732
▁teatral -5733
▁któremu -5734
▁mono -5735
▁płyty -5736
▁północno -5737
▁kola -5738
▁włoch -5739
▁masy -5740
▁odległości -5741
piera -5742
pem -5743
koju -5744
▁wzniesi -5745
▁pamiętam -5746
dziesiątych -5747
▁amb -5748
alnego -5749
▁dawna -5750
▁podniósł -5751
▁cla -5752
nięty -5753
▁informacje -5754
▁pode -5755
▁dzwo -5756
▁wewnątrz -5757
con -5758
▁śmi -5759
▁zga -5760
▁jedynym -5761
▁rozpoczęto -5762
żyli -5763
bię -5764
▁założył -5765
▁dziękuję -5766
▁zewnątrz -5767
mił -5768
▁van -5769
▁skrę -5770
▁danie -5771
▁słod -5772
▁wysy -5773
▁grzbie -5774
▁unie -5775
▁ojczy -5776
▁jorku -5777
▁utrzymy -5778
▁stwierdził -5779
▁tle -5780
szczu -5781
owskich -5782
▁uzbroje -5783
▁rzadko -5784
cjonu -5785
▁studiów -5786
▁polską -5787
▁londynie -5788
▁funkcji -5789
▁podpisał -5790
szta -5791
▁2018 -5792
▁kła -5793
▁żyć -5794
▁most -5795
▁głosów -5796
▁czterdzie -5797
▁1984 -5798
▁bitwie -5799
▁artylerii -5800
cle -5801
▁prawosław -5802
▁dźwię -5803
zon -5804
▁szkół -5805
stość -5806
▁rację -5807
bina -5808
▁własnych -5809
strzy -5810
▁chciałem -5811
▁dż -5812
artam -5813
wzglę -5814
▁1986 -5815
▁świadomo -5816
▁aktu -5817
▁właściciel -5818
▁dzieła -5819
▁powstały -5820
ime -5821
ckiem -5822
▁musisz -5823
▁szó -5824
fu -5825
▁wydoby -5826
niejszym -5827
▁wyru -5828
▁zaczęły -5829
cznika -5830
▁nawią -5831
▁pochowany -5832
▁wt -5833
arium -5834
▁wprost -5835
serwa -5836
▁mater -5837
rano -5838
▁pisał -5839
▁pracowni -5840
▁terytorium -5841
▁premiera -5842
▁patrząc -5843
▁poszedł -5844
czce -5845
▁zdrowia -5846
lektu -5847
tytuł -5848
▁ręko -5849
dzając -5850
czeństwo -5851
lec -5852
jach -5853
empla -5854
▁psycho -5855
nięte -5856
▁główny -5857
▁1985 -5858
▁(... -5859
▁obiekt -5860
▁metal -5861
▁młodzież -5862
▁muszą -5863
▁tram -5864
▁wzbu -5865
▁czarno -5866
▁wir -5867
▁dopó -5868
▁gwiaz -5869
▁przeszłości -5870
szona -5871
iach -5872
▁tysiąc -5873
▁dziewczyny -5874
▁naszym -5875
▁uło -5876
▁ducha -5877
▁czuła -5878
▁wzięła -5879
cząć -5880
▁1983 -5881
szak -5882
▁wnęt -5883
bs -5884
łuma -5885
▁konferen -5886
skiemu -5887
▁walce -5888
▁1982 -5889
▁przewa -5890
78 -5891
▁60 -5892
▁nazywa -5893
▁książek -5894
ower -5895
▁zmienił -5896
▁konkuren -5897
can -5898
▁ostatniej -5899
▁egip -5900
▁historię -5901
▁klim -5902
dri -5903
▁orygina -5904
▁jeziora -5905
▁przetr -5906
▁odszedł -5907
▁należało -5908
cona -5909
▁wielkich -5910
▁bio -5911
▁instytutu -5912
▁powiedziałem -5913
▁rozko -5914
▁1987 -5915
fel -5916
▁sos -5917
▁czuję -5918
▁wysoko -5919
▁mistrzostwo -5920
▁stolicy -5921
▁tyłu -5922
▁wojna -5923
▁podróży -5924
▁wina -5925
:0 -5926
▁brazy -5927
▁zaprze -5928
▁uśmiechem -5929
▁sięga -5930
▁biskupa -5931
gue -5932
myśl -5933
dziemy -5934
▁mły -5935
▁wszędzie -5936
▁egzempla -5937
▁tv -5938
▁inteli -5939
▁gwar -5940
▁stopień -5941
▁pocie -5942
▁rumu -5943
▁jeź -5944
▁zwolni -5945
jekt -5946
świę -5947
▁przew -5948
▁mln -5949
▁przeczy -5950
▁es -5951
▁napi -5952
▁przechodzi -5953
pełnia -5954
▁kg -5955
ateli -5956
nosząc -5957
▁wiary -5958
▁andrze -5959
fini -5960
▁marszał -5961
▁różni -5962
są -5963
▁ubo -5964
▁napa -5965
▁choroby -5966
kowskiego -5967
▁premier -5968
▁samolot -5969
kanie -5970
▁ostro -5971
▁podwój -5972
▁prawdę -5973
▁popar -5974
▁czarne -5975
▁zwierząt -5976
▁eksplo -5977
▁bil -5978
▁podobne -5979
▁pragnie -5980
▁ojcem -5981
▁wstąpił -5982
▁przo -5983
▁niemieckiego -5984
▁piotra -5985
▁rundzie -5986
nieć -5987
ówki -5988
▁ściany -5989
bat -5990
▁żywo -5991
▁władzę -5992
bisku -5993
▁soju -5994
▁but -5995
port -5996
żonych -5997
▁dysku -5998
▁czyni -5999
▁okru -6000
▁wilhel -6001
obraz -6002
▁matematy -6003
▁polaków -6004
▁klucz -6005
▁przebud -6006
▁podkre -6007
kr -6008
▁rela -6009
▁okoliczności -6010
▁3. -6011
▁koleg -6012
▁fanta -6013
tość -6014
▁oczami -6015
▁decyzję -6016
▁ślu -6017
▁frydery -6018
mis -6019
▁Łą -6020
▁chcąc -6021
urę -6022
▁fc -6023
▁rywali -6024
hol -6025
turę -6026
▁autom -6027
▁paweł -6028
osob -6029
▁wyr -6030
▁dawniej -6031
▁ramionami -6032
▁punktu -6033
zmem -6034
▁stare -6035
▁pokaz -6036
ung -6037
▁wieczór -6038
▁agen -6039
dl -6040
▁znam -6041
▁przyłą -6042
▁zarazem -6043
▁zwan -6044
▁ból -6045
krę -6046
▁prowadząc -6047
▁probo -6048
▁zarządu -6049
▁whi -6050
uri -6051
▁konstan -6052
▁wymieni -6053
stała -6054
▁proś -6055
▁koncent -6056
▁pasażer -6057
▁fede -6058
▁men -6059
▁uzu -6060
▁oficjalnie -6061
▁wiadomości -6062
rywając -6063
alną -6064
▁zem -6065
▁kandydat -6066
▁przebiega -6067
▁finale -6068
czonej -6069
▁mle -6070
▁atmos -6071
▁otworzył -6072
▁twoja -6073
▁dziewięć -6074
▁pisto -6075
sm -6076
▁pawła -6077
fre -6078
▁80. -6079
tory -6080
▁spokój -6081
val -6082
▁ogar -6083
kcji -6084
▁odzysk -6085
▁zapad -6086
76 -6087
▁ub -6088
▁własnego -6089
▁imi -6090
▁esk -6091
dowi -6092
owałam -6093
▁akademi -6094
udo -6095
▁uf -6096
▁dym -6097
rzego -6098
▁spotyk -6099
▁górze -6100
▁służył -6101
▁tadeusz -6102
▁apa -6103
arda -6104
atry -6105
▁ważne -6106
fra -6107
▁dwoma -6108
▁pozycję -6109
▁propozy -6110
nny -6111
▁wieży -6112
▁dłużej -6113
▁odnale -6114
▁niedaw -6115
▁william -6116
lądać -6117
▁gospoda -6118
▁średniowie -6119
▁hiszpanii -6120
biego -6121
▁remon -6122
ziono -6123
▁zapytała -6124
▁częściowo -6125
▁poez -6126
▁siostry -6127
▁szczyt -6128
▁podziel -6129
▁1947 -6130
▁sytuacja -6131
▁wu -6132
▁konkre -6133
▁polo -6134
▁resta -6135
▁mogłem -6136
ted -6137
▁ramię -6138
▁operacji -6139
▁walk -6140
▁wytrzym -6141
▁zaczęli -6142
▁odpowiedź -6143
▁ksiądz -6144
▁skutek -6145
▁drużyna -6146
▁dane -6147
▁telewizji -6148
▁głośno -6149
owicach -6150
fię -6151
lecia -6152
▁wpis -6153
▁wielokrotnie -6154
▁dźwięk -6155
▁dużej -6156
▁dopóki -6157
▁skrzydła -6158
tyki -6159
▁1948 -6160
▁prowincji -6161
▁nagr -6162
▁form -6163
▁poniżej -6164
25 -6165
owcy -6166
▁konserw -6167
dge -6168
▁inicjaty -6169
▁dokład -6170
czoną -6171
▁nadaw -6172
▁1938 -6173
▁więźni -6174
▁własnym -6175
▁linia -6176
▁zatrudni -6177
–18 -6178
▁firma -6179
▁zwi -6180
ciera -6181
▁moral -6182
▁odmówi -6183
▁prawi -6184
ys -6185
rasta -6186
▁młodo -6187
bet -6188
ychać -6189
▁okrętów -6190
wscho -6191
atak -6192
▁przeci -6193
▁asyst -6194
▁prowadzą -6195
▁chcieli -6196
are -6197
tru -6198
▁załat -6199
czonym -6200
rzód -6201
▁dłonie -6202
alna -6203
▁odezwał -6204
▁przyszłości -6205
▁przepraszam -6206
▁aleksandra -6207
dziłem -6208
▁nieprze -6209
pać -6210
nień -6211
▁niep -6212
▁teatru -6213
czeni -6214
bru -6215
ięk -6216
onaw -6217
prawdopodob -6218
▁cof -6219
▁ukazał -6220
rzyli -6221
▁lubli -6222
▁dyna -6223
▁żonę -6224
▁szefa -6225
▁wysił -6226
▁dyrektor -6227
▁młodzieży -6228
▁krwa -6229
▁głęboko -6230
▁innej -6231
▁szeroko -6232
▁znane -6233
▁wpraw -6234
▁pokła -6235
▁demokraty -6236
▁pozostałych -6237
dzania -6238
▁pamięta -6239
▁zachwy -6240
▁moty -6241
▁pełne -6242
arem -6243
▁unii -6244
mień -6245
▁karola -6246
ns -6247
▁widząc -6248
▁rozmawi -6249
▁większą -6250
▁zamo -6251
pen -6252
▁obszarze -6253
▁tereny -6254
styki -6255
▁większe -6256
▁izrael -6257
▁90. -6258
▁akt -6259
▁1976 -6260
wska -6261
▁spie -6262
▁brzmi -6263
▁pusty -6264
▁próż -6265
▁dusz -6266
▁obaj -6267
▁niewi -6268
72 -6269
kani -6270
▁spędził -6271
▁barwach -6272
▁"" -6273
▁nę -6274
▁charak -6275
▁łóżka -6276
▁zwraca -6277
iada -6278
▁siostra -6279
▁ilu -6280
ństwem -6281
▁urucho -6282
▁wybuchu -6283
▁podzi -6284
▁próby -6285
▁akurat -6286
▁zwycięstwo -6287
ąb -6288
▁set -6289
▁thom -6290
▁twar -6291
▁praca -6292
▁zajęła -6293
sil -6294
żnej -6295
mor -6296
▁ilości -6297
▁, -6298
▁pach -6299
znę -6300
▁kw -6301
▁1979 -6302
▁chrystu -6303
▁wręcz -6304
▁oficerów -6305
▁przestęp -6306
▁wielkości -6307
▁weszła -6308
▁niedłu -6309
▁początek -6310
szać -6311
staw -6312
ierał -6313
▁lar -6314
▁lig -6315
▁mikro -6316
▁rakie -6317
▁stam -6318
gl -6319
▁śli -6320
▁festiwalu -6321
▁generała -6322
4) -6323
▁placu -6324
▁niechę -6325
dzkim -6326
▁zegar -6327
79 -6328
▁opa -6329
muni -6330
▁pozostałe -6331
▁oz -6332
▁gard -6333
▁wiatr -6334
▁obowią -6335
danie -6336
▁spytała -6337
▁jedena -6338
stii -6339
▁trz -6340
▁grupie -6341
▁mieszkania -6342
gat -6343
wyż -6344
▁178 -6345
▁alko -6346
▁spog -6347
obój -6348
▁patrzył -6349
▁dotarł -6350
▁widzenia -6351
techni -6352
▁jedyny -6353
▁daj -6354
bami -6355
▁ozd -6356
komo -6357
▁źró -6358
▁(...) -6359
▁zaczyn -6360
▁cudow -6361
mir -6362
ome -6363
▁groź -6364
ńcy -6365
dźmi -6366
▁atra -6367
▁chemi -6368
▁pojawiła -6369
▁nierucho -6370
▁jerzego -6371
▁chcą -6372
▁wydany -6373
▁jednostek -6374
dło -6375
▁owa -6376
▁placów -6377
▁odbud -6378
▁arcybisku -6379
11 -6380
▁odda -6381
▁mianowany -6382
▁zaatak -6383
▁zdobyła -6384
sję -6385
▁producent -6386
▁formal -6387
▁autorem -6388
▁pośredni -6389
óp -6390
▁tłum -6391
▁cal -6392
▁wicem -6393
żem -6394
gram -6395
▁wypra -6396
▁meksy -6397
▁wątpliwości -6398
▁łóżku -6399
▁istnienia -6400
▁milionów -6401
tków -6402
▁1978 -6403
▁okno -6404
▁ścież -6405
▁drużyn -6406
▁minist -6407
▁spojrzenie -6408
▁skór -6409
▁stal -6410
▁opozy -6411
▁rys -6412
▁soł -6413
▁przekro -6414
▁ogień -6415
▁powiat -6416
▁Świętego -6417
▁rodu -6418
39 -6419
▁liceum -6420
▁reklam -6421
▁organ -6422
▁Środ -6423
krzy -6424
▁głowa -6425
▁republiki -6426
▁wyniki -6427
▁przystan -6428
▁wykorzyst -6429
▁porówn -6430
▁zrobiła -6431
▁kolejnym -6432
▁żebym -6433
▁przybył -6434
genty -6435
toni -6436
▁zginął -6437
▁widziała -6438
▁cas -6439
▁znajdowała -6440
▁gl -6441
▁przebieg -6442
▁koron -6443
▁głównych -6444
▁biel -6445
anymi -6446
nosił -6447
▁metro -6448
▁bułgar -6449
dować -6450
▁mieści -6451
▁wojskowej -6452
▁lekarz -6453
▁bok -6454
▁złoty -6455
▁piętna -6456
▁wodę -6457
▁nazwie -6458
▁braku -6459
▁główną -6460
▁alex -6461
▁olimpijskich -6462
▁umi -6463
65 -6464
▁późno -6465
▁ary -6466
▁staroży -6467
ram -6468
szczał -6469
▁skry -6470
czonego -6471
▁pak -6472
▁0, -6473
owość -6474
▁myśleć -6475
▁ruszył -6476
▁odzie -6477
▁powiem -6478
▁wyzwo -6479
▁redakcyjny -6480
▁chętnie -6481
▁działał -6482
wskich -6483
▁południu -6484
chaj -6485
▁zasługi -6486
▁proku -6487
▁liczbę -6488
▁bohate -6489
kat -6490
▁musieli -6491
hl -6492
▁1972 -6493
▁patro -6494
▁świątyni -6495
▁wyba -6496
▁katarzy -6497
▁więzienia -6498
▁czasopis -6499
versi -6500
niesienia -6501
zor -6502
erium -6503
▁zespole -6504
▁internet -6505
▁zdjęcia -6506
dników -6507
▁politycznych -6508
ący -6509
▁zobaczył -6510
▁ludźmi -6511
▁1970 -6512
▁sprawi -6513
▁pocią -6514
▁strzelił -6515
▁jaro -6516
▁bierze -6517
▁armia -6518
▁samych -6519
▁mecze -6520
ćmi -6521
▁marek -6522
▁przygo -6523
soli -6524
van -6525
▁lekar -6526
pki -6527
▁bank -6528
▁mistrzostwa -6529
▁rzuca -6530
▁literatury -6531
▁sin -6532
▁vo -6533
▁nieś -6534
▁doskon -6535
▁zaci -6536
▁rozbud -6537
▁piłka -6538
▁docho -6539
▁silnik -6540
▁polityki -6541
▁głębi -6542
▁nasza -6543
▁1968 -6544
▁lasu -6545
wami -6546
▁dosy -6547
▁wojskowych -6548
▁znaczenia -6549
▁zaprojekt -6550
▁lan -6551
▁aposto -6552
▁nabo -6553
przeciw -6554
seł -6555
brała -6556
hn -6557
▁intensyw -6558
▁70. -6559
▁Żad -6560
▁2019 -6561
▁mani -6562
▁członkowie -6563
▁nazwiska -6564
▁mari -6565
gier -6566
raźniej -6567
▁formy -6568
▁porozma -6569
▁cia -6570
typ -6571
▁problemy -6572
▁wró -6573
▁uczę -6574
▁dwór -6575
szewi -6576
▁każde -6577
▁rada -6578
▁szal -6579
▁wziąć -6580
ctwie -6581
▁zgło -6582
óg -6583
▁va -6584
tanie -6585
▁związany -6586
▁kieszeni -6587
▁ujaw -6588
▁nadzwyczaj -6589
▁przebywał -6590
▁chodź -6591
▁bliżej -6592
▁1921 -6593
pliwie -6594
szczeniu -6595
▁stracił -6596
▁tęsk -6597
▁odparła -6598
▁szans -6599
▁wszelkie -6600
▁urzędu -6601
▁cheł -6602
▁dokumenta -6603
▁wrocławiu -6604
▁folwar -6605
▁zwolen -6606
▁regional -6607
tha -6608
▁argenty -6609
▁naci -6610
▁strate -6611
▁bitwy -6612
▁papier -6613
kaj -6614
▁malar -6615
▁utworów -6616
▁woda -6617
gór -6618
▁zwrócił -6619
ari -6620
▁zabezpie -6621
▁uznał -6622
żbie -6623
lądał -6624
▁ramiona -6625
▁niekiedy -6626
mann -6627
▁usłu -6628
cyfi -6629
szeć -6630
▁szpitala -6631
▁tryb -6632
▁pilo -6633
▁zapi -6634
▁okazał -6635
▁mazowie -6636
▁mit -6637
▁rzekła -6638
▁obserwa -6639
▁biały -6640
▁tematy -6641
▁cztero -6642
13 -6643
waniem -6644
▁szla -6645
▁wsta -6646
▁krajach -6647
▁przypomin -6648
zją -6649
▁skra -6650
▁przyjmu -6651
▁pse -6652
czając -6653
▁wyjaś -6654
▁książkę -6655
▁meczach -6656
nerem -6657
▁ledwie -6658
dyna -6659
▁1950 -6660
▁katastro -6661
▁niemożli -6662
▁niepodległości -6663
▁poraż -6664
▁sklep -6665
▁prędkości -6666
▁opad -6667
▁władysław -6668
gieł -6669
▁rozsze -6670
żyły -6671
▁wskazu -6672
▁bada -6673
▁sądu -6674
▁powietrz -6675
▁wrócić -6676
.). -6677
sąd -6678
▁krajowej -6679
▁określa -6680
▁autobus -6681
iny -6682
łania -6683
brać -6684
▁wspólnego -6685
▁brygady -6686
▁symboli -6687
▁prezent -6688
▁tydzień -6689
kiew -6690
▁wykorzystu -6691
rzały -6692
▁przepły -6693
▁wydarzenia -6694
▁wspomina -6695
▁absolu -6696
rot -6697
gdzie -6698
▁poby -6699
▁sześciu -6700
▁obejmuje -6701
▁osiągnął -6702
▁krzysztof -6703
łego -6704
▁oboje -6705
▁rękach -6706
▁uczelni -6707
▁lewej -6708
▁opowiada -6709
▁wprawdzie -6710
▁obrę -6711
▁kazał -6712
tycznej -6713
▁szczegół -6714
▁skupi -6715
▁położone -6716
▁przyjaciel -6717
▁przyjm -6718
▁nieprzyja -6719
▁nowi -6720
▁wygo -6721
▁słuch -6722
▁łącznie -6723
▁szo -6724
▁refor -6725
▁papiero -6726
▁myślał -6727
▁uświad -6728
▁następnym -6729
▁przyro -6730
▁snu -6731
▁semin -6732
stor -6733
ńsko -6734
▁niemieckie -6735
arch -6736
czało -6737
▁poważnie -6738
row -6739
▁mięk -6740
▁narzę -6741
▁elżbie -6742
▁niegdy -6743
▁upraw -6744
▁zapas -6745
hen -6746
▁krajobraz -6747
gran -6748
▁hitler -6749
▁spotkań -6750
dowało -6751
▁administracji -6752
!" -6753
▁kij -6754
▁zależy -6755
▁grand -6756
rowi -6757
rzona -6758
▁osoba -6759
▁odznaczony -6760
▁zasadni -6761
nt -6762
adę -6763
▁dosyć -6764
▁krok -6765
▁wzajem -6766
▁wóz -6767
▁wystarcza -6768
▁grupę -6769
▁parlamentar -6770
); -6771
▁wód -6772
▁dużym -6773
▁zdecydował -6774
osła -6775
▁niepew -6776
▁can -6777
▁fur -6778
▁niszczy -6779
vie -6780
▁oże -6781
▁orderu -6782
▁synów -6783
▁bł -6784
▁przełomie -6785
▁moderni -6786
use -6787
▁wokali -6788
▁szac -6789
▁arche -6790
▁czuje -6791
▁spoczy -6792
nne -6793
świet -6794
▁podd -6795
▁poin -6796
ssi -6797
▁sekun -6798
▁konstrukcji -6799
▁alb -6800
▁udziału -6801
ciar -6802
▁don -6803
▁zazd -6804
14 -6805
san -6806
▁doliny -6807
▁trener -6808
rzyły -6809
▁logi -6810
mentu -6811
▁niedługo -6812
owanymi -6813
▁powinni -6814
▁80 -6815
▁partia -6816
sona -6817
ległość -6818
▁pracowników -6819
▁niedale -6820
▁owszem -6821
▁wali -6822
▁1974 -6823
aniach -6824
niały -6825
▁siód -6826
▁sędzi -6827
stanowie -6828
?... -6829
▁zagranicznych -6830
▁znał -6831
łod -6832
lona -6833
▁1956 -6834
▁odbyła -6835
▁1954 -6836
▁kłam -6837
▁mikołaj -6838
▁samolotu -6839
▁wartość -6840
▁stóp -6841
▁ślub -6842
▁pomyślała -6843
▁zby -6844
▁obron -6845
wałam -6846
atki -6847
▁tour -6848
▁wpływem -6849
▁umysł -6850
▁albumu -6851
▁otacza -6852
▁przeszło -6853
bła -6854
dztwo -6855
▁układu -6856
▁1977 -6857
kowany -6858
▁śmiercią -6859
fon -6860
towany -6861
▁licznych -6862
▁podział -6863
▁wystarczy -6864
▁floty -6865
▁utwory -6866
▁opieku -6867
▁skrom -6868
▁łaci -6869
▁trzeciej -6870
sun -6871
eryj -6872
noszą -6873
▁holen -6874
źć -6875
▁finału -6876
▁żyw -6877
szedłem -6878
▁białe -6879
czania -6880
▁godzinę -6881
35 -6882
styczna -6883
▁mikołaja -6884
▁zawodnikiem -6885
liny -6886
▁tytułem -6887
▁poety -6888
▁stanowisku -6889
▁koła -6890
▁wiadomość -6891
guje -6892
▁propa -6893
orem -6894
▁eri -6895
▁przeja -6896
16 -6897
encie -6898
kowało -6899
▁wyższej -6900
▁cyt -6901
▁jane -6902
king -6903
▁sim -6904
▁chciałam -6905
▁istnieją -6906
▁piw -6907
▁1937 -6908
▁krajów -6909
gent -6910
▁niezna -6911
▁ćwi -6912
▁łzy -6913
▁kapł -6914
▁mężczyźni -6915
▁spostrze -6916
▁stowarzyszenia -6917
▁wyrzu -6918
▁wah -6919
▁cham -6920
-200 -6921
▁konia -6922
ostęp -6923
▁kost -6924
▁rozum -6925
▁charakterze -6926
▁przemian -6927
▁samolotów -6928
▁teorii -6929
gam -6930
▁przyrody -6931
czyków -6932
lone -6933
▁zba -6934
▁henryka -6935
▁imperium -6936
▁sypia -6937
ące -6938
▁kape -6939
▁tan -6940
▁berlinie -6941
▁colle -6942
▁obsługi -6943
▁1969 -6944
▁lou -6945
gły -6946
▁35 -6947
▁miejscach -6948
▁kupi -6949
▁potom -6950
▁hali -6951
▁wyglądał -6952
▁kryzy -6953
▁jakiejś -6954
sse -6955
▁ram -6956
bla -6957
▁get -6958
▁osi -6959
▁powietrza -6960
▁pisarz -6961
▁zatytuł -6962
wiony -6963
▁mandat -6964
▁matką -6965
tos -6966
▁zrealiz -6967
▁ramienia -6968
▁pierwotnie -6969
▁gita -6970
▁wodą -6971
▁czech -6972
▁pocał -6973
▁warunki -6974
▁naprzeciw -6975
▁max -6976
akiem -6977
▁wycie -6978
▁znajom -6979
▁kończy -6980
48 -6981
wością -6982
▁poczucie -6983
▁mnó -6984
rzeni -6985
▁czekał -6986
▁szym -6987
▁tworzą -6988
▁przysię -6989
▁bene -6990
▁kampanii -6991
▁herbu -6992
rar -6993
▁zech -6994
▁odwrócił -6995
▁eksperym -6996
▁równocześnie -6997
?" -6998
▁powstanie -6999
▁punkty -7000
wiat -7001
▁móz -7002
kowana -7003
▁wojnę -7004
stal -7005
▁element -7006
▁dokąd -7007
▁kazimierz -7008
vy -7009
▁usunię -7010
▁całości -7011
▁niezwykle -7012
▁okrop -7013
łac -7014
▁dzwon -7015
▁europejskiej -7016
▁zasady -7017
▁biura -7018
▁zabytków -7019
▁parlamentu -7020
▁służbę -7021
▁zadanie -7022
▁gniew -7023
▁stacja -7024
▁działacz -7025
." -7026
▁emery -7027
▁wiąz -7028
▁niegdyś -7029
▁narze -7030
▁wykonaw -7031
▁luk -7032
▁universi -7033
▁kel -7034
bem -7035
illa -7036
połu -7037
▁poeta -7038
▁towarzystwo -7039
▁mni -7040
▁pytania -7041
▁krąż -7042
owami -7043
▁morze -7044
gur -7045
▁kasz -7046
▁1936 -7047
▁decyzji -7048
▁diecezji -7049
nieniu -7050
snęła -7051
towych -7052
▁wykrzy -7053
▁hie -7054
▁gwiazdy -7055
▁kę -7056
słowa -7057
▁rzymie -7058
▁potrafił -7059
▁kochan -7060
▁zbrodni -7061
ém -7062
▁wierzy -7063
czycy -7064
▁hipo -7065
naście -7066
▁pisma -7067
pres -7068
▁mont -7069
▁jakże -7070
gogi -7071
ville -7072
▁mich -7073
▁przyszła -7074
▁energii -7075
▁transport -7076
▁sir -7077
▁kierun -7078
▁zespołem -7079
▁prawej -7080
▁ameryki -7081
▁oddech -7082
dziesięciu -7083
▁słone -7084
▁cesarza -7085
▁jack -7086
owicza -7087
stoj -7088
▁zmo -7089
▁upra -7090
sis -7091
▁dyrektora -7092
▁wiedziałem -7093
▁/ -7094
▁identy -7095
▁okolicach -7096
gry -7097
▁wiek -7098
▁widzisz -7099
▁mieszkał -7100
nieniem -7101
▁filmów -7102
miej -7103
▁zwło -7104
▁dzieło -7105
▁pocisk -7106
▁posiadał -7107
▁rozwią -7108
▁długość -7109
gres -7110
ślił -7111
rej -7112
▁koz -7113
arka -7114
eter -7115
lety -7116
▁inspek -7117
▁dało -7118
▁adama -7119
▁marian -7120
▁1967 -7121
▁walczył -7122
▁sel -7123
dziesz -7124
tona -7125
▁likwi -7126
▁okręg -7127
▁das -7128
▁małych -7129
▁imienia -7130
gię -7131
gera -7132
▁warunkach -7133
wiedli -7134
▁odróż -7135
skutek -7136
arta -7137
▁styl -7138
▁małą -7139
▁przemysłu -7140
73 -7141
▁komisa -7142
▁urat -7143
▁klat -7144
▁dziecię -7145
▁kultural -7146
▁andrzeja -7147
▁oboję -7148
▁tata -7149
▁ruszy -7150
▁zmniej -7151
▁wspomni -7152
miot -7153
▁lwowie -7154
spira -7155
▁siłą -7156
▁jagiel -7157
samo -7158
ae -7159
▁papieża -7160
▁królowej -7161
▁pojawiły -7162
▁zdołał -7163
▁1971 -7164
▁główne -7165
▁wiedzy -7166
▁ostatnio -7167
▁inną -7168
▁małej -7169
▁największych -7170
68 -7171
▁1952 -7172
▁węd -7173
▁hrabia -7174
▁ręku -7175
▁zwycięz -7176
▁powięk -7177
logia -7178
leniu -7179
▁kami -7180
▁starszy -7181
▁muzyka -7182
▁2, -7183
arki -7184
▁wyobra -7185
▁klasztor -7186
▁kopal -7187
▁sol -7188
▁natury -7189
▁metody -7190
▁xiv -7191
▁wymag -7192
▁gatunku -7193
▁śmiertel -7194
▁wskutek -7195
żyłem -7196
▁kilometrów -7197
▁czoło -7198
▁liczyła -7199
▁położony -7200
obie -7201
▁zauf -7202
▁wynikiem -7203
▁najlepszych -7204
▁opo -7205
▁chro -7206
▁wróciła -7207
dzisz -7208
▁powstało -7209
▁pami -7210
▁dziennik -7211
▁najlepszy -7212
▁majątku -7213
▁poznać -7214
▁zwykł -7215
▁dor -7216
▁hrabi -7217
▁dziwne -7218
lad -7219
oba -7220
▁sum -7221
▁opat -7222
niejszą -7223
sc -7224
▁cerkiew -7225
▁osł -7226
▁największe -7227
69 -7228
▁deszcz -7229
leks -7230
▁wd -7231
▁zawa -7232
tarzem -7233
▁powietrzu -7234
towe -7235
▁zabaw -7236
▁frank -7237
▁zatrzymał -7238
▁dywizj -7239
dio -7240
▁1949 -7241
▁elementy -7242
▁spek -7243
▁udał -7244
nięta -7245
▁podejrz -7246
kw -7247
▁kontr -7248
▁rozej -7249
▁zachę -7250
lg -7251
▁paw -7252
▁astro -7253
lda -7254
wiam -7255
jając -7256
▁otwiera -7257
▁jakiego -7258
iła -7259
▁rejon -7260
▁niewoli -7261
▁tomasz -7262
▁zapra -7263
▁medali -7264
▁zabie -7265
beli -7266
▁150 -7267
▁biz -7268
▁sercu -7269
jać -7270
▁peters -7271
▁500 -7272
spozy -7273
64 -7274
▁sara -7275
▁odcinku -7276
–198 -7277
▁zobowi -7278
▁uśmiechnęła -7279
lno -7280
▁posa -7281
▁środków -7282
▁zachodu -7283
▁zakaz -7284
▁jac -7285
▁żą -7286
▁potrzeba -7287
▁odbywa -7288
▁dała -7289
▁upły -7290
▁przemie -7291
▁podszedł -7292
▁bak -7293
dzają -7294
▁pojem -7295
▁przywo -7296
towała -7297
▁powinno -7298
▁płu -7299
▁osiedla -7300
▁japonii -7301
ódź -7302
▁wyboru -7303
2) -7304
▁jedyną -7305
▁budynków -7306
lary -7307
▁sztabu -7308
fen -7309
▁konsekwen -7310
▁60. -7311
▁wyjątkiem -7312
▁szczęścia -7313
▁majątek -7314
owce -7315
▁kazimierza -7316
▁zdanie -7317
▁batalion -7318
rzałem -7319
lis -7320
vel -7321
▁głosu -7322
▁cesarz -7323
▁zwal -7324
▁media -7325
▁izby -7326
▁naby -7327
gin -7328
▁wiktor -7329
▁finał -7330
▁ślady -7331
▁1934 -7332
spekty -7333
▁ognia -7334
fil -7335
▁edward -7336
▁łańcu -7337
1) -7338
aniami -7339
▁radia -7340
▁szukać -7341
▁wyżej -7342
▁odczy -7343
ür -7344
▁zbliża -7345
▁uważał -7346
▁szczeci -7347
▁dotyczące -7348
▁dowiedział -7349
czku -7350
zną -7351
▁mistrzem -7352
óbr -7353
▁toż -7354
▁następujące -7355
▁ustanowi -7356
▁wolne -7357
▁wnu -7358
▁uści -7359
▁dorosł -7360
ud -7361
▁oszu -7362
▁czarny -7363
▁wiedzą -7364
eje -7365
maga -7366
▁jasno -7367
▁widzieć -7368
▁paul -7369
▁imieniu -7370
▁1957 -7371
bij -7372
▁naczy -7373
▁butel -7374
▁val -7375
tyczny -7376
▁statek -7377
▁podobno -7378
▁cmentarz -7379
▁rozpozn -7380
▁słyszał -7381
ury -7382
▁zabu -7383
▁departam -7384
▁listę -7385
skami -7386
▁modlit -7387
▁czyt -7388
bl -7389
▁1960 -7390
▁kano -7391
ire -7392
▁adres -7393
zem -7394
▁matkę -7395
▁profesora -7396
▁hm -7397
▁panny -7398
▁igrzyskach -7399
▁równowa -7400
▁talen -7401
▁zarząd -7402
▁piękna -7403
▁ciemności -7404
▁zależności -7405
▁kin -7406
▁poten -7407
▁białym -7408
ther -7409
▁pełno -7410
▁pomor -7411
ślić -7412
▁zasł -7413
▁błęki -7414
▁antoni -7415
▁wstrzą -7416
grup -7417
▁właścicielem -7418
▁przesłu -7419
▁wyspie -7420
▁miesiące -7421
▁dyrektorem -7422
▁korzysta -7423
▁stołu -7424
▁nasi -7425
▁piosenka -7426
▁zrozumieć -7427
▁swoimi -7428
byśmy -7429
▁statku -7430
▁korpusu -7431
▁tradycji -7432
▁podejrze -7433
▁niedaleko -7434
17 -7435
▁złam -7436
▁terro -7437
▁pozostaje -7438
▁pamią -7439
▁żołnierze -7440
▁ostatniego -7441
gs -7442
▁szklan -7443
▁70 -7444
▁wago -7445
▁spotyka -7446
▁dnie -7447
dzonej -7448
▁pisze -7449
▁... -7450
▁pry -7451
▁poznał -7452
cząca -7453
▁szale -7454
▁prawdy -7455
▁wstęp -7456
▁pw -7457
derem -7458
▁poczuł -7459
pel -7460
arni -7461
▁ofice -7462
▁zaczęło -7463
▁żołnierz -7464
rezent -7465
▁znajdowały -7466
andar -7467
▁nale -7468
umf -7469
stein -7470
▁gła -7471
▁world -7472
iusz -7473
▁300 -7474
▁czą -7475
▁płyt -7476
▁regionu -7477
▁nume -7478
▁wyczu -7479
▁pozytyw -7480
▁umiejętności -7481
▁cisza -7482
▁zęby -7483
▁stefan -7484
▁własny -7485
▁zamieszki -7486
▁zlo -7487
ciach -7488
zą -7489
▁wywie -7490
kul -7491
mit -7492
▁inwe -7493
▁przodu -7494
▁gubern -7495
▁usłyszał -7496
▁ken -7497
▁krakowa -7498
▁pogar -7499
▁1966 -7500
▁osła -7501
atorów -7502
▁jab -7503
▁ly -7504
wers -7505
▁jon -7506
▁post -7507
ford -7508
ruch -7509
▁ustal -7510
▁: -7511
▁przeje -7512
▁niewin -7513
▁pseudo -7514
▁ogród -7515
kor -7516
▁(201 -7517
▁żelaz -7518
▁rozgrywek -7519
bit -7520
▁przeciwie -7521
▁spotkać -7522
▁wypadek -7523
▁umożliwia -7524
▁córką -7525
▁dużych -7526
▁zasadzie -7527
żon -7528
▁peda -7529
▁spó -7530
▁1965 -7531
▁drzwiach -7532
▁fragment -7533
▁usi -7534
▁jednostka -7535
▁władysława -7536
▁termi -7537
czać -7538
▁powiedziałam -7539
▁cierpi -7540
▁powieść -7541
▁garni -7542
▁przedłu -7543
▁pokrę -7544
▁spotkał -7545
▁chwila -7546
▁strach -7547
▁weź -7548
▁kierował -7549
▁automaty -7550
▁społecznej -7551
▁miarę -7552
▁wojewo -7553
▁baj -7554
▁radę -7555
▁miejscem -7556
▁baro -7557
▁złota -7558
üh -7559
▁zaprezent -7560
▁elimina -7561
▁znanych -7562
▁4. -7563
▁byłby -7564
▁wysokie -7565
▁roześ -7566
▁strzał -7567
▁powrót -7568
dzących -7569
▁zaa -7570
▁ogłosił -7571
▁kieli -7572
ston -7573
▁austrii -7574
▁źródła -7575
▁opiera -7576
▁szpitalu -7577
▁ćwier -7578
▁obecność -7579
▁przeszko -7580
▁jazdy -7581
▁czerwonej -7582
▁gwałtownie -7583
▁uwolni -7584
czko -7585
▁podoba -7586
▁argu -7587
unkowo -7588
▁kadłu -7589
▁poinform -7590
ciło -7591
▁palce -7592
74 -7593
▁tytułu -7594
▁australii -7595
▁obecności -7596
▁wschodu -7597
▁przewodniczącym -7598
▁szl -7599
▁dobrym -7600
▁kapitu -7601
▁moskwie -7602
▁odrzu -7603
▁obrębie -7604
▁ludność -7605
▁ślą -7606
▁tera -7607
▁słab -7608
▁ó -7609
wkę -7610
szeniu -7611
▁status -7612
▁6: -7613
▁tonem -7614
▁niepoko -7615
▁myślisz -7616
wcze -7617
▁poczuła -7618
▁wywalczył -7619
▁książka -7620
▁zdawało -7621
▁doświadczenia -7622
▁dworze -7623
rin -7624
54 -7625
niać -7626
sche -7627
▁dniem -7628
▁panna -7629
3) -7630
▁wyklu -7631
nom -7632
▁palesty -7633
▁yor -7634
▁1922 -7635
▁1964 -7636
▁plane -7637
▁sprawą -7638
▁kół -7639
czerp -7640
▁wene -7641
▁rzędu -7642
▁wstrzym -7643
▁bon -7644
dowych -7645
ction -7646
dnika -7647
▁podziem -7648
▁związanych -7649
▁cio -7650
▁aleksander -7651
▁spis -7652
▁mogłam -7653
▁wb -7654
biał -7655
▁naszą -7656
▁przeszła -7657
sin -7658
▁usił -7659
skry -7660
▁królowa -7661
▁ludziom -7662
▁znana -7663
▁nieod -7664
▁wyprowa -7665
▁zbie -7666
▁fut -7667
▁wiemy -7668
▁materiał -7669
▁napole -7670
▁gil -7671
▁dawnych -7672
▁tysiące -7673
▁przyjaciela -7674
▁szczu -7675
▁pomnik -7676
▁bydgoszczy -7677
szów -7678
▁chodziło -7679
▁zbudowano -7680
rane -7681
▁zlik -7682
▁arysto -7683
▁idź -7684
▁nieli -7685
tus -7686
▁znaleźli -7687
▁1924 -7688
▁1930 -7689
▁gałę -7690
▁najgor -7691
rozo -7692
▁homo -7693
▁koszy -7694
▁robił -7695
▁gda -7696
▁żał -7697
62 -7698
órek -7699
▁zastrze -7700
▁zbudowany -7701
▁impre -7702
▁stosu -7703
rzyja -7704
▁francuskiej -7705
▁wzmoc -7706
▁najlepszym -7707
tację -7708
▁inna -7709
tycznego -7710
▁kontynen -7711
▁największym -7712
▁szlak -7713
▁naukowych -7714
▁kate -7715
▁młodego -7716
▁filozofii -7717
▁zaopat -7718
▁wyjść -7719
▁kwali -7720
▁okiem -7721
▁rosyjskiej -7722
▁gad -7723
▁ośrodek -7724
▁obejm -7725
▁drużynie -7726
▁faj -7727
▁przykro -7728
▁odpo -7729
▁studen -7730
niało -7731
▁najwyraźniej -7732
▁leon -7733
▁rozpoczyna -7734
▁chmu -7735
▁poziomie -7736
▁melo -7737
▁straty -7738
▁powyżej -7739
▁największą -7740
▁rozmowę -7741
▁oszczę -7742
▁utworu -7743
wca -7744
▁pomaga -7745
▁zbu -7746
▁poran -7747
▁wszak -7748
▁dowódcą -7749
▁1935 -7750
▁wyjścia -7751
▁trzydzieści -7752
▁1951 -7753
▁wypełni -7754
▁obsłu -7755
▁przet -7756
▁skrzyż -7757
▁michael -7758
zel -7759
▁1917 -7760
dae -7761
▁rozmi -7762
▁utworzono -7763
▁sro -7764
unkiem -7765
▁ein -7766
▁bywa -7767
▁dóbr -7768
▁pożar -7769
▁szedł -7770
▁hotelu -7771
▁wstał -7772
▁mnóstwo -7773
▁francuski -7774
▁gier -7775
▁sław -7776
▁wyprze -7777
niło -7778
▁wyproduk -7779
▁wyło -7780
▁johna -7781
90 -7782
▁twoim -7783
lać -7784
▁zbliż -7785
up -7786
▁pucha -7787
38 -7788
▁lie -7789
▁pozwal -7790
▁linie -7791
łać -7792
▁zazna -7793
sco -7794
ise -7795
▁suger -7796
▁chłopiec -7797
fal -7798
▁zapy -7799
▁siedziba -7800
wów -7801
burga -7802
▁złe -7803
rer -7804
rować -7805
dowe -7806
▁słychać -7807
▁tworząc -7808
▁jesienią -7809
▁generalnego -7810
gel -7811
mad -7812
pach -7813
▁każdą -7814
łych -7815
▁szer -7816
kanaście -7817
niły -7818
▁góra -7819
▁kocham -7820
▁kolejną -7821
▁znajomo -7822
▁odrze -7823
▁roboty -7824
▁warszawskim -7825
▁płci -7826
towej -7827
▁trudem -7828
▁cele -7829
▁dobrego -7830
▁pokonał -7831
atą -7832
28 -7833
▁interpre -7834
▁obowiązki -7835
lekt -7836
▁lesie -7837
▁handlu -7838
▁dystry -7839
lądając -7840
▁panowie -7841
▁nastąpiło -7842
▁najlepsze -7843
▁pracuje -7844
▁głupi -7845
▁rzeszy -7846
▁1958 -7847
▁prezyden -7848
▁air -7849
tność -7850
▁duża -7851
▁barba -7852
▁sądzę -7853
▁przełę -7854
▁spły -7855
▁narodów -7856
▁upadku -7857
▁uczucia -7858
▁rozgrywkach -7859
▁fel -7860
sprawiedli -7861
sków -7862
▁ture -7863
▁warszawskiej -7864
▁kontroli -7865
▁małżeństwa -7866
▁zrozumiał -7867
▁papież -7868
▁komen -7869
▁termin -7870
▁szwa -7871
▁mózgu -7872
▁tal -7873
▁oświet -7874
▁źródeł -7875
▁spali -7876
▁wojną -7877
▁seminarium -7878
▁rzymsko -7879
▁walkę -7880
▁vii -7881
remo -7882
▁wydział -7883
▁inicjatywy -7884
▁hra -7885
▁usiadł -7886
▁wiosną -7887
ik -7888
▁ren -7889
▁granicach -7890
▁gie -7891
▁kwad -7892
▁kwiat -7893
6) -7894
▁sprób -7895
▁błyska -7896
▁przejął -7897
▁mundu -7898
▁oddziałów -7899
styn -7900
janie -7901
dziłam -7902
▁jar -7903
▁odpowiedziała -7904
obecnie -7905
cek -7906
▁małym -7907
▁zdobywając -7908
▁1933 -7909
▁humani -7910
▁wschodzie -7911
▁społecznych -7912
▁dostać -7913
▁poszczególnych -7914
▁sprawiedliwości -7915
▁amerykańskich -7916
▁naukę -7917
▁dokonał -7918
jemu -7919
▁miejskiej -7920
▁klasztoru -7921
▁problemów -7922
▁modelu -7923
▁stopniowo -7924
▁kowa -7925
▁kolegi -7926
▁skarb -7927
▁kuzy -7928
mp -7929
▁postrze -7930
▁większych -7931
▁stałe -7932
▁meczów -7933
języ -7934
dzonego -7935
▁pieśni -7936
▁złego -7937
wców -7938
▁działo -7939
▁rozmai -7940
deo -7941
vin -7942
▁ostr -7943
lka -7944
▁kontakt -7945
▁kilkanaście -7946
ander -7947
▁ogół -7948
▁przyczyną -7949
jmy -7950
▁1914 -7951
dium -7952
▁przyznał -7953
▁christi -7954
cs -7955
lly -7956
▁plany -7957
▁rozmów -7958
▁nakła -7959
▁tj -7960
▁ilość -7961
▁bólu -7962
▁mora -7963
▁szczerze -7964
▁małżeństwo -7965
▁aresztowany -7966
▁spokoju -7967
▁podnie -7968
▁tune -7969
róg -7970
wieniem -7971
▁opuszcz -7972
▁wicepre -7973
▁przypuszcz -7974
▁biu -7975
▁żąd -7976
▁1962 -7977
▁kolan -7978
▁małego -7979
▁młodzi -7980
▁brwi -7981
▁towarzyszy -7982
▁gorz -7983
▁przerwał -7984
▁ada -7985
▁hin -7986
▁autora -7987
▁awansował -7988
▁chan -7989
▁mego -7990
▁oczywi -7991
▁interesu -7992
wii -7993
biu -7994
▁kongre -7995
▁proboszcz -7996
▁obni -7997
▁zagra -7998
ołów -7999
▁vol -8000
▁starym -8001
ye -8002
▁podał -8003
▁posła -8004
antem -8005
stek -8006
▁posił -8007
▁james -8008
hon -8009
▁prl -8010
▁podobny -8011
▁1925 -8012
▁pojedy -8013
dzka -8014
▁zabić -8015
▁tygodnie -8016
czają -8017
▁bratem -8018
7) -8019
zami -8020
▁przeszka -8021
▁krzyw -8022
kłe -8023
▁wytwa -8024
▁elementów -8025
▁siłę -8026
▁śnia -8027
▁specjalnie -8028
▁reszta -8029
▁pierście -8030
▁1928 -8031
▁ludowej -8032
▁richard -8033
▁kapelu -8034
▁rewolucji -8035
▁wspomnienia -8036
▁pamięć -8037
▁obozie -8038
▁gotów -8039
▁zacze -8040
▁zapomni -8041
pin -8042
▁staty -8043
▁uczniów -8044
▁trzymał -8045
▁klubem -8046
▁che -8047
▁eki -8048
▁wzrostu -8049
24 -8050
owuje -8051
▁powołany -8052
▁tacy -8053
▁okręty -8054
▁zakonu -8055
zali -8056
-4 -8057
▁wywoł -8058
▁złotych -8059
▁osiąga -8060
▁okien -8061
▁jagiello -8062
ństw -8063
▁miłos -8064
▁podejm -8065
pas -8066
ciły -8067
annie -8068
▁przyjdzie -8069
▁ref -8070
▁umarł -8071
▁naprzód -8072
▁rozmowa -8073
▁filozofi -8074
▁połączenie -8075
▁wzor -8076
▁bracia -8077
▁elektroni -8078
nnych -8079
▁uwiel -8080
bas -8081
▁spowod -8082
▁wysoki -8083
▁poszła -8084
▁towarzystwie -8085
ras -8086
▁obrazy -8087
▁city -8088
▁straży -8089
▁rach -8090
paty -8091
▁such -8092
▁sceny -8093
▁spoży -8094
▁oddziel -8095
▁ruchem -8096
▁starych -8097
▁myślałem -8098
ślą -8099
▁kamień -8100
dziem -8101
porząd -8102
nati -8103
▁odniósł -8104
▁znakomi -8105
▁olszty -8106
▁jezioro -8107
▁przegrał -8108
▁wieczoru -8109
▁prix -8110
▁odpad -8111
▁wydarzeń -8112
▁nadziei -8113
▁sejmu -8114
▁chwilą -8115
▁okrętu -8116
▁teatrze -8117
▁publicznej -8118
▁' -8119
ker -8120
nau -8121
▁ekstra -8122
▁codziennie -8123
żonego -8124
▁porusza -8125
▁zajmując -8126
mag -8127
▁bitwa -8128
▁odręb -8129
▁następnych -8130
▁połączenia -8131
dnicy -8132
▁księżni -8133
▁jakub -8134
▁wypoży -8135
▁wolność -8136
▁żon -8137
▁wybudowano -8138
▁poci -8139
▁nikomu -8140
▁uspoko -8141
▁wojciech -8142
ranych -8143
los -8144
▁spor -8145
▁dzier -8146
▁stamtąd -8147
▁płyta -8148
▁życiem -8149
▁university -8150
fry -8151
▁gam -8152
▁usu -8153
▁kary -8154
▁chciałbym -8155
▁panem -8156
▁częściej -8157
▁pielę -8158
mistrz -8159
▁scena -8160
▁samobój -8161
▁chwil -8162
▁żebyś -8163
▁społeczeństwa -8164
lał -8165
ziony -8166
▁dwaj -8167
▁gan -8168
▁sprzeci -8169
▁zachodzie -8170
nięciem -8171
▁ai -8172
czyłem -8173
▁misji -8174
cjonali -8175
▁xiii -8176
▁rękami -8177
▁pospoli -8178
▁sprzedaży -8179
▁kodek -8180
scypli -8181
▁zmienić -8182
▁tań -8183
▁linię -8184
▁zawodach -8185
▁azji -8186
▁rozległ -8187
▁zaby -8188
chosłowa -8189
▁słowem -8190
▁samoloty -8191
trzeb -8192
▁obchodzi -8193
dwo -8194
▁szlachet -8195
▁wyciągnął -8196
▁rosyjskiego -8197
wory -8198
▁plam -8199
łos -8200
▁wysokość -8201
▁ochotę -8202
▁wizer -8203
▁nawiąz -8204
▁otwarte -8205
▁odpowiednio -8206
rich -8207
▁david -8208
▁okupacji -8209
pła -8210
▁łó -8211
▁zdobyć -8212
▁ciemno -8213
▁rzymskokatoli -8214
▁ryt -8215
▁przedstawiciel -8216
nal -8217
anin -8218
▁rodzinę -8219
▁ukończeniu -8220
▁kosmi -8221
▁marynarki -8222
▁szam -8223
▁księstwa -8224
▁wojskowego -8225
▁kościo -8226
▁osobiście -8227
▁orien -8228
▁końc -8229
▁(„ -8230
▁stę -8231
▁opła -8232
▁chrz -8233
niają -8234
▁fundu -8235
▁wykaz -8236
▁udziałem -8237
▁igna -8238
▁samorząd -8239
gle -8240
ologiczne -8241
jad -8242
▁rozsąd -8243
▁zakończyła -8244
▁wojennych -8245
kając -8246
▁wałę -8247
▁osiedle -8248
▁politechni -8249
▁ogo -8250
▁1929 -8251
▁1961 -8252
więcej -8253
▁byle -8254
▁rodziną -8255
▁cokolwiek -8256
▁dziesięciu -8257
▁ojcu -8258
ón -8259
unt -8260
▁1963 -8261
▁eleg -8262
▁marcin -8263
aniec -8264
▁największy -8265
▁brow -8266
55 -8267
▁moi -8268
▁bomb -8269
▁miastem -8270
▁pracowała -8271
▁czasy -8272
▁kobietę -8273
▁mieliśmy -8274
▁pracować -8275
▁pocze -8276
▁konkursie -8277
▁siat -8278
): -8279
źli -8280
▁twojej -8281
▁zgu -8282
▁mody -8283
▁resztę -8284
▁wyglądała -8285
way -8286
ymina -8287
▁zadaniem -8288
cher -8289
▁czekać -8290
ati -8291
ownicy -8292
▁narciar -8293
stre -8294
▁grę -8295
święt -8296
▁jaski -8297
▁środowiska -8298
▁letni -8299
▁zwar -8300
▁gabinetu -8301
▁fałszy -8302
▁zbignie -8303
dzej -8304
▁osobą -8305
▁ulubi -8306
nowie -8307
ciłem -8308
▁saty -8309
▁trwał -8310
▁studentów -8311
▁muzykę -8312
▁stanow -8313
▁wiedziałam -8314
▁wypu -8315
▁powierzchnię -8316
▁wnętrza -8317
▁starał -8318
▁nade -8319
▁scenariu -8320
▁żywi -8321
▁promo -8322
▁szwecji -8323
▁holender -8324
▁funkcje -8325
▁przekra -8326
▁okazuje -8327
▁nieje -8328
▁1955 -8329
▁sumie -8330
▁materia -8331
▁zwycięstwa -8332
owskie -8333
▁ostrożnie -8334
▁wprowadzono -8335
▁stworzył -8336
▁angeles -8337
łej -8338
▁królem -8339
▁ćwierć -8340
kaliz -8341
▁koper -8342
▁procent -8343
▁ae -8344
▁pobytu -8345
▁autorstwa -8346
▁biała -8347
▁krawę -8348
niona -8349
han -8350
▁pz -8351
pion -8352
▁uję -8353
▁znalazły -8354
▁gnia -8355
przewo -8356
▁organizacja -8357
▁marki -8358
▁amerykańskiej -8359
anina -8360
▁Świe -8361
▁celów -8362
▁książce -8363
▁zadania -8364
!". -8365
▁strzelców -8366
▁trudności -8367
▁dymi -8368
▁scenie -8369
nerw -8370
▁iza -8371
▁samochodów -8372
▁słusz -8373
zwy -8374
▁alkoho -8375
▁kiedykolwiek -8376
jał -8377
gene -8378
zdów -8379
▁ocen -8380
32 -8381
▁opisy -8382
▁32 -8383
▁grozi -8384
▁granicę -8385
stami -8386
58 -8387
▁silnie -8388
▁rezult -8389
cord -8390
▁poseł -8391
▁smi -8392
▁1959 -8393
▁ucho -8394
▁lubię -8395
▁momentu -8396
▁wojennej -8397
▁zostawi -8398
▁południa -8399
seksu -8400
▁ofiary -8401
». -8402
niając -8403
▁krótki -8404
▁całość -8405
▁wydała -8406
▁najważniejsze -8407
▁labo -8408
▁poczę -8409
▁90 -8410
sten -8411
czen -8412
▁siedmiu -8413
▁ira -8414
▁spać -8415
bienia -8416
ważnie -8417
▁wydana -8418
▁wchodzą -8419
koło -8420
cro -8421
▁badaw -8422
▁niewolni -8423
nuje -8424
▁korzyst -8425
pali -8426
▁dowództwo -8427
▁widziałam -8428
▁rzeką -8429
▁franciszek -8430
▁ściąg -8431
▁zano -8432
▁duchu -8433
▁średniej -8434
ris -8435
▁skóry -8436
▁drzwiami -8437
lip -8438
pet -8439
▁lot -8440
▁smak -8441
czak -8442
▁podo -8443
▁piękne -8444
▁ludwika -8445
▁ależ -8446
▁niedawno -8447
▁jerozo -8448
▁rozmawiać -8449
▁jąd -8450
▁młoda -8451
▁kontynuował -8452
▁sporo -8453
▁użytku -8454
czącym -8455
▁wybór -8456
fak -8457
▁ulica -8458
▁przytu -8459
niesienie -8460
▁1: -8461
▁black -8462
▁wino -8463
wieniu -8464
▁saint -8465
▁początk -8466
-8 -8467
telni -8468
▁figu -8469
▁jean -8470
wanego -8471
▁międzynarodowej -8472
zań -8473
▁dawnej -8474
▁wojsko -8475
▁urodziła -8476
▁sia -8477
owaliśmy -8478
▁obszaru -8479
łek -8480
towy -8481
▁życi -8482
▁ładu -8483
▁1953 -8484
▁warszt -8485
▁zza -8486
▁realiz -8487
▁batalionu -8488
▁michała -8489
▁strachu -8490
▁dzieckiem -8491
▁open -8492
▁paryża -8493
▁spacer -8494
"; -8495
▁partyzan -8496
▁czechosłowa -8497
wce -8498
lacja -8499
▁zapowie -8500
▁ścianie -8501
rzysta -8502
▁patrz -8503
▁kobietą -8504
▁wyku -8505
▁leżał -8506
▁kultur -8507
▁ostatnią -8508
▁art -8509
56 -8510
▁promieni -8511
▁zlikwid -8512
31 -8513
▁gmach -8514
▁gatunki -8515
▁przyszłość -8516
oz -8517
▁roczni -8518
▁załogi -8519
line -8520
▁trasy -8521
▁ukoch -8522
▁przebo -8523
▁zamian -8524
▁ochotni -8525
▁az -8526
czącą -8527
niowej -8528
▁zbiór -8529
ranie -8530
nikach -8531
▁wewnętrznych -8532
▁sześci -8533
▁odcinek -8534
uth -8535
▁pomocni -8536
▁szpital -8537
cyk -8538
dowy -8539
łuje -8540
▁godzinie -8541
▁ugrup -8542
▁medycy -8543
▁dworu -8544
▁wbrew -8545
34 -8546
▁działanie -8547
▁pobo -8548
lery -8549
▁szyi -8550
▁dozn -8551
▁emigra -8552
▁fas -8553
▁pośpie -8554
▁myślą -8555
▁funkcjonu -8556
▁perspekty -8557
ziem -8558
▁procesu -8559
stką -8560
dzała -8561
▁anny -8562
▁dobrą -8563
▁brązowy -8564
żyło -8565
▁chle -8566
▁cich -8567
▁facet -8568
▁mówisz -8569
kowania -8570
nor -8571
▁cyklu -8572
▁nieustan -8573
▁400 -8574
▁you -8575
▁prosi -8576
▁politycznej -8577
▁przeniesiony -8578
▁strasznie -8579
▁wią -8580
▁mistrzów -8581
jut -8582
▁łam -8583
aliśmy -8584
sud -8585
▁sytuację -8586
▁wejść -8587
▁niezbę -8588
▁college -8589
▁instytucie -8590
lus -8591
▁gład -8592
▁Żeby -8593
▁podlega -8594
▁niespodzie -8595
▁Świad -8596
▁trzecim -8597
▁agnie -8598
▁wykry -8599
▁obiektów -8600
▁tłumacza -8601
▁zachowania -8602
▁wzrost -8603
▁sco -8604
dzonym -8605
dzów -8606
dziny -8607
▁ludu -8608
▁niesko -8609
▁zazdro -8610
▁wyścigu -8611
rady -8612
▁opowieści -8613
▁dziedzinie -8614
lane -8615
▁wspomin -8616
▁reprezentu -8617
▁defini -8618
nur -8619
▁wilgot -8620
▁stosunkowo -8621
▁pies -8622
▁izraela -8623
.), -8624
▁rekord -8625
▁1926 -8626
▁neuro -8627
rzch -8628
▁brzeg -8629
▁przedstawicieli -8630
▁zbiera -8631
▁ulega -8632
▁neg -8633
▁zorien -8634
36 -8635
▁hodow -8636
rur -8637
ella -8638
dzkich -8639
▁kształcie -8640
▁niemieckim -8641
▁stanę -8642
▁wyjątkowo -8643
▁sad -8644
hal -8645
▁mą -8646
▁atrak -8647
▁kolek -8648
nce -8649
waną -8650
czały -8651
▁kadry -8652
▁większej -8653
▁kolejno -8654
▁odnosi -8655
lta -8656
▁węz -8657
▁glob -8658
▁skło -8659
▁dzieli -8660
▁fundacji -8661
▁osobist -8662
▁podporząd -8663
▁powszechnie -8664
▁żadne -8665
/201 -8666
▁złożył -8667
▁cień -8668
▁licen -8669
▁1931 -8670
czli -8671
▁zwa -8672
▁chrystusa -8673
cego -8674
▁sens -8675
▁dzieł -8676
▁forte -8677
▁usz -8678
▁serwi -8679
ralnej -8680
▁mężem -8681
ota -8682
prawdopodobniej -8683
▁demon -8684
▁maggie -8685
29 -8686
▁franciszka -8687
szyb -8688
▁gdańsku -8689
▁egzami -8690
▁śmiechem -8691
▁wodzie -8692
▁świetle -8693
▁powtarza -8694
▁milczeniu -8695
▁wystąpiła -8696
ies -8697
▁sha -8698
▁grafi -8699
gla -8700
miany -8701
▁roy -8702
▁relacji -8703
▁spektak -8704
▁fl -8705
▁istocie -8706
▁twórczości -8707
67 -8708
yer -8709
▁skłon -8710
dowania -8711
▁dwudziestu -8712
fery -8713
▁dodała -8714
▁inwesty -8715
▁zdecydowanie -8716
▁adwo -8717
▁podstawowym -8718
rywał -8719
▁cerkwi -8720
▁katedry -8721
▁zachowy -8722
macji -8723
▁trwała -8724
▁radości -8725
▁ameryce -8726
▁stefana -8727
▁wsia -8728
▁łączy -8729
▁uczucie -8730
ake -8731
fera -8732
wiga -8733
▁1927 -8734
▁konkursu -8735
▁włoszech -8736
jen -8737
ria -8738
▁uwię -8739
▁ułat -8740
▁skali -8741
▁dawnego -8742
kąd -8743
księ -8744
▁kłó -8745
▁miecz -8746
▁znać -8747
▁najwięcej -8748
▁posz -8749
▁winy -8750
▁rzuciła -8751
▁ceremo -8752
nim -8753
pow -8754
▁siedziała -8755
▁1932 -8756
▁zdoła -8757
▁niewielkie -8758
wka -8759
▁ate -8760
▁ciężkie -8761
▁leo -8762
▁nieraz -8763
▁bir -8764
▁wypły -8765
dzeni -8766
▁grać -8767
▁uczył -8768
▁frontu -8769
▁śwież -8770
▁starej -8771
▁buty -8772
▁eskad -8773
▁liczy -8774
▁napast -8775
▁ostatnia -8776
lei -8777
▁siła -8778
▁dystan -8779
▁janusz -8780
▁wynosiła -8781
▁45 -8782
unek -8783
▁pogrzeb -8784
▁ery -8785
▁wyle -8786
▁wybiera -8787
uch -8788
▁orkie -8789
▁krzyknął -8790
▁powoduje -8791
etę -8792
owicie -8793
▁bazie -8794
gory -8795
▁udaje -8796
▁zareje -8797
▁białych -8798
wanej -8799
▁kontu -8800
▁przekonać -8801
]. -8802
▁wytłuma -8803
▁opowiad -8804
stolat -8805
▁kras -8806
maz -8807
▁europejskich -8808
ąt -8809
▁zwany -8810
▁otworzyła -8811
▁johan -8812
▁dokument -8813
▁tim -8814
logię -8815
sus -8816
▁bolszewi -8817
▁gał -8818
▁zebr -8819
▁viii -8820
▁teore -8821
bki -8822
▁atlan -8823
▁rezer -8824
▁dramaty -8825
▁mężczyzny -8826
▁żył -8827
▁wybrał -8828
▁społeczności -8829
▁klasie -8830
▁elegan -8831
▁opuści -8832
▁błyskawi -8833
▁absolw -8834
wymi -8835
▁więźniów -8836
ов -8837
▁kurs -8838
▁prezbi -8839
▁białego -8840
▁międzywojen -8841
▁mem -8842
▁karę -8843
▁pokoj -8844
▁ukazała -8845
▁używa -8846
▁porozmawiać -8847
▁zachowanie -8848
anom -8849
21 -8850
▁akcja -8851
▁wisi -8852
▁przera -8853
▁kompanii -8854
▁gospodarki -8855
▁hele -8856
▁przeraż -8857
▁skal -8858
tta -8859
▁póki -8860
ori -8861
▁frie -8862
któ -8863
▁zapamię -8864
▁cechy -8865
▁nada -8866
dowały -8867
▁krzyk -8868
▁niedź -8869
▁prezesem -8870
ksy -8871
ruje -8872
▁pokazy -8873
▁zlokaliz -8874
anę -8875
zia -8876
▁plac -8877
▁zmiana -8878
▁oper -8879
zuł -8880
▁domem -8881
▁częstoch -8882
▁oporu -8883
▁przeka -8884
▁przestrzeń -8885
kel -8886
▁koali -8887
▁wydawał -8888
▁umiera -8889
▁mieszkal -8890
dność -8891
torów -8892
kując -8893
▁banku -8894
▁odmien -8895
▁popraw -8896
tkami -8897
▁wrac -8898
▁rycer -8899
▁małżon -8900
▁śpi -8901
▁radzi -8902
▁spal -8903
▁chorych -8904
▁załam -8905
▁małgorz -8906
▁orbi -8907
▁wyobraz -8908
jazd -8909
▁raf -8910
▁woł -8911
macie -8912
szewski -8913
▁substan -8914
żne -8915
▁poznania -8916
ky -8917
niak -8918
▁grupą -8919
▁przesu -8920
▁pp -8921
▁ogląd -8922
▁opisu -8923
▁uruchomi -8924
▁straszli -8925
▁zajęcia -8926
▁chłopca -8927
niono -8928
▁Łuka -8929
▁wyjaśnie -8930
▁dróg -8931
▁puła -8932
▁bożej -8933
racja -8934
▁przejść -8935
torze -8936
▁sprawach -8937
▁nati -8938
▁prócz -8939
▁reform -8940
▁monte -8941
▁brakowało -8942
26 -8943
▁ix -8944
▁dog -8945
▁socjal -8946
▁sprawował -8947
anci -8948
▁oży -8949
▁sprawdzić -8950
33 -8951
49 -8952
siu -8953
▁itp -8954
▁1923 -8955
▁zastąpił -8956
▁wyz -8957
▁podaje -8958
▁błogosła -8959
▁szt -8960
▁namię -8961
▁5. -8962
▁uświadomi -8963
▁kimś -8964
▁wygranym -8965
▁zwierzęta -8966
dry -8967
▁konfe -8968
mią -8969
▁przepis -8970
▁językiem -8971
▁wyra -8972
▁wedle -8973
inę -8974
▁dod -8975
▁zdania -8976
urne -8977
▁baz -8978
kingu -8979
▁patrzyła -8980
ałaś -8981
▁obrazu -8982
szkę -8983
▁zrze -8984
▁morzu -8985
▁biorąc -8986
▁istniała -8987
▁pośród -8988
▁podp -8989
?". -8990
▁ulic -8991
▁przeciwieństwie -8992
fran -8993
ałach -8994
▁budowa -8995
▁narodu -8996
▁dowodził -8997
żyłam -8998
▁uniwersytet -8999
rup -9000
▁kraków -9001
▁znajdzie -9002
▁niezależnie -9003
▁rynek -9004
▁podłodze -9005
▁pucharze -9006
szając -9007
▁proro -9008
▁powtórzył -9009
▁pij -9010
▁popołu -9011
▁macierzy -9012
▁piłsud -9013
asi -9014
▁następne -9015
▁płaszcz -9016
▁tramwaj -9017
▁skró -9018
▁zdjęcie -9019
▁intelektu -9020
▁rokiem -9021
▁hała -9022
▁sprzedaw -9023
▁niezbyt -9024
▁najświęt -9025
▁harry -9026
▁kalifor -9027
▁kawałek -9028
wiec -9029
▁brzy -9030
▁serde -9031
▁budynki -9032
▁sprawia -9033
▁hrabiego -9034
▁wykładow -9035
▁zatwier -9036
▁teatr -9037
▁artystów -9038
▁dziewią -9039
▁znu -9040
▁drż -9041
▁ambasad -9042
▁obsa -9043
▁patrzeć -9044
▁przygotowy -9045
▁wniosku -9046
tyn -9047
▁dołączył -9048
▁wykład -9049
▁kamieni -9050
łka -9051
▁loka -9052
▁więzieniu -9053
stri -9054
▁rob -9055
rabia -9056
▁zrezygnował -9057
ugh -9058
ąco -9059
▁poezji -9060
▁pogląd -9061
▁lewo -9062
▁plecami -9063
▁chó -9064
lizacji -9065
37 -9066
▁dorad -9067
lady -9068
▁red -9069
▁prowadzić -9070
▁dalsze -9071
▁drzewo -9072
▁stanowiły -9073
▁wpadł -9074
▁francuskiego -9075
▁zabrał -9076
▁30. -9077
▁kwiaty -9078
▁panowania -9079
▁pozostała -9080
▁bramy -9081
▁byliśmy -9082
▁służb -9083
nnie -9084
▁powtarz -9085
▁mieszkanie -9086
95 -9087
owatych -9088
▁najwyższy -9089
ciami -9090
terium -9091
▁front -9092
▁zakry -9093
▁ciekawe -9094
▁poprowa -9095
▁usy -9096
▁zep -9097
niejszego -9098
▁brytyjski -9099
▁prezes -9100
grafia -9101
▁zauważyła -9102
▁50. -9103
▁pewną -9104
▁holandii -9105
czkach -9106
▁chno -9107
▁przemo -9108
▁produkcję -9109
▁wen -9110
lgrzym -9111
▁amerykańskiego -9112
lski -9113
tnik -9114
▁stadi -9115
heim -9116
stron -9117
▁założony -9118
ken -9119
żeni -9120
▁instytut -9121
też -9122
▁zająć -9123
▁zaproponował -9124
acji -9125
kowała -9126
liście -9127
▁ambi -9128
▁nicht -9129
▁zmieniła -9130
▁pou -9131
▁with -9132
▁leci -9133
▁perku -9134
▁przystąpi -9135
▁cara -9136
och -9137
zależ -9138
żoną -9139
▁powodów -9140
▁tale -9141
▁nosił -9142
▁królewskiej -9143
▁ree -9144
▁nieskoń -9145
▁szefem -9146
▁konferencji -9147
▁pewnej -9148
▁przyznać -9149
▁skompli -9150
▁otwarcie -9151
▁boli -9152
▁uwzglę -9153
▁własnością -9154
▁pió -9155
▁zły -9156
wanym -9157
twór -9158
▁magne -9159
▁inżynier -9160
▁wyraż -9161
▁roberta -9162
▁przyczyn -9163
▁angli -9164
▁libe -9165
44 -9166
▁lea -9167
▁Śląska -9168
▁will -9169
▁najmłod -9170
▁północnym -9171
▁ue -9172
▁muzuł -9173
▁rozryw -9174
▁niemożliwe -9175
żonym -9176
▁przecię -9177
pięk -9178
▁praktycznie -9179
▁rysz -9180
▁teledy -9181
71 -9182
ctor -9183
▁odsło -9184
▁nastro -9185
▁gon -9186
▁kawalerii -9187
▁doje -9188
▁dora -9189
▁pozby -9190
▁proste -9191
▁współpracował -9192
▁kapitana -9193
▁prawdziwe -9194
▁reprezentant -9195
owic -9196
ciągnął -9197
▁zgodził -9198
▁targ -9199
▁rana -9200
▁słyszy -9201
▁tut -9202
▁błąd -9203
▁stół -9204
▁ewaku -9205
▁łazie -9206
czącego -9207
▁sypialni -9208
▁pras -9209
▁położył -9210
▁wskazuje -9211
▁trwo -9212
▁wtrą -9213
leniem -9214
▁funda -9215
66 -9216
▁tygodniu -9217
▁podium -9218
▁porównaniu -9219
▁zmarła -9220
▁zaczęto -9221
▁wspó -9222
▁policja -9223
▁oblę -9224
▁zdarza -9225
▁lord -9226
czącej -9227
▁monach -9228
ówka -9229
▁wykonał -9230
lki -9231
orze -9232
▁recen -9233
▁zesta -9234
▁dowiedzieć -9235
łom -9236
czymy -9237
▁tren -9238
▁witold -9239
bii -9240
dym -9241
▁ożenił -9242
▁powierzchnia -9243
22 -9244
▁srebrny -9245
▁tamtego -9246
▁jemu -9247
▁powiąz -9248
▁poglą -9249
rzono -9250
▁porę -9251
▁wskazy -9252
▁używane -9253
▁zachować -9254
▁sieć -9255
▁spółki -9256
▁woła -9257
▁wysłu -9258
▁tadeusza -9259
▁rozpro -9260
▁szcz -9261
▁ewa -9262
▁walkach -9263
▁cios -9264
▁que -9265
▁wel -9266
▁rzeka -9267
▁zarzu -9268
▁pur -9269
▁przema -9270
sje -9271
▁przewidy -9272
▁współpracę -9273
▁barwy -9274
▁równi -9275
▁wiedzieli -9276
stad -9277
ńcem -9278
▁zakresu -9279
▁potrzą -9280
▁szczegó -9281
▁funkcjonariu -9282
czyka -9283
brz -9284
wiło -9285
▁lotu -9286
źnia -9287
–201 -9288
▁160 -9289
▁fabu -9290
▁stale -9291
woje -9292
▁nawie -9293
▁przestał -9294
▁prześla -9295
▁ukrainy -9296
▁mir -9297
▁firmę -9298
▁august -9299
▁wał -9300
▁grający -9301
▁pozostali -9302
▁wyróżnia -9303
ologicznych -9304
jek -9305
▁pełen -9306
▁pójść -9307
▁przynios -9308
▁school -9309
▁wspina -9310
▁niedźwie -9311
▁pielgrzym -9312
▁uśmiecha -9313
owsze -9314
▁białej -9315
▁eduka -9316
▁hipote -9317
▁record -9318
▁pełnym -9319
▁wroga -9320
▁afryki -9321
▁dobrej -9322
▁zbrojnych -9323
rena -9324
▁prą -9325
wione -9326
▁waka -9327
▁duszę -9328
▁ustach -9329
▁zary -9330
▁rozło -9331
▁pokładzie -9332
▁paru -9333
▁dynastii -9334
▁dowództwem -9335
ńcz -9336
▁pokład -9337
▁biało -9338
▁chorwa -9339
▁triumf -9340
▁stronach -9341
▁partner -9342
▁wit -9343
skute -9344
tacja -9345
kak -9346
▁znisz -9347
▁przekła -9348
▁przestra -9349
▁przychodzi -9350
▁rozwiązania -9351
▁północny -9352
▁zdolności -9353
cieka -9354
▁dokumenty -9355
▁zarejestr -9356
sson -9357
▁prom -9358
▁3, -9359
▁twarzą -9360
▁jaj -9361
▁gracz -9362
▁grob -9363
▁indyj -9364
▁treści -9365
▁obiekty -9366
▁wojskowy -9367
▁zamierza -9368
▁metropoli -9369
▁dziennikarz -9370
▁wyjątk -9371
▁egze -9372
dowego -9373
▁lekarza -9374
▁terenach -9375
▁takimi -9376
dzący -9377
nili -9378
▁poga -9379
▁warst -9380
▁próbowała -9381
▁podla -9382
▁gle -9383
▁sekund -9384
▁dziećmi -9385
▁egzemplarzy -9386
▁piłki -9387
▁większy -9388
▁publikacji -9389
cław -9390
pisu -9391
▁trzeciego -9392
▁słyszałem -9393
▁siedząc -9394
▁kome -9395
kania -9396
▁wola -9397
▁złote -9398
▁głosy -9399
52 -9400
chnął -9401
▁jazz -9402
▁żal -9403
▁bogi -9404
▁lasy -9405
▁wyrzut -9406
▁dwoje -9407
▁rośliny -9408
▁schroni -9409
▁głosie -9410
59 -9411
77 -9412
▁india -9413
▁zagi -9414
▁ciśnie -9415
▁korespon -9416
lian -9417
▁uchy -9418
tycznym -9419
▁rozpra -9420
▁konwen -9421
▁zgromadzenia -9422
▁łatwiej -9423
▁ner -9424
▁juniorów -9425
▁przyspie -9426
dzkie -9427
▁marka -9428
▁pokar -9429
▁przesy -9430
▁własność -9431
wne -9432
czyma -9433
▁obóz -9434
▁szes -9435
▁autost -9436
▁twoją -9437
ista -9438
ds -9439
▁q -9440
▁hotel -9441
▁dole -9442
czyński -9443
▁krokiem -9444
▁stosuje -9445
gas -9446
▁inteligen -9447
ssa -9448
conych -9449
▁koleż -9450
▁posie -9451
▁przeno -9452
etry -9453
▁zawodników -9454
rodą -9455
zują -9456
owską -9457
▁państwowej -9458
▁komórki -9459
lając -9460
▁zama -9461
▁chłopcy -9462
▁transportu -9463
▁sojusz -9464
▁jezusa -9465
▁psy -9466
▁skan -9467
owiska -9468
▁1915 -9469
▁wkro -9470
▁kaplicy -9471
▁dyscypli -9472
▁[... -9473
▁terenu -9474
▁nat -9475
▁wnios -9476
▁ent -9477
▁różno -9478
nna -9479
żając -9480
▁silnika -9481
biny -9482
dora -9483
nnej -9484
▁nico -9485
▁granice -9486
▁zygmunt -9487
▁uprawi -9488
▁opuszcza -9489
▁int -9490
owne -9491
dencji -9492
▁ulicę -9493
▁nosem -9494
▁kawaler -9495
muje -9496
▁zawodnik -9497
▁kir -9498
▁liczyć -9499
▁ac -9500
▁uważnie -9501
▁przyjechał -9502
bc -9503
regu -9504
rest -9505
▁alter -9506
▁biuro -9507
▁znajdowało -9508
tele -9509
▁leg -9510
▁rośnie -9511
▁pojęcie -9512
▁polskę -9513
▁leżała -9514
▁przedtem -9515
▁profesj -9516
▁polityczne -9517
▁ministerstwa -9518
tno -9519
▁sztur -9520
▁bramek -9521
▁ewentu -9522
▁zmieniono -9523
▁sateli -9524
▁przywró -9525
▁38 -9526
▁xii -9527
▁naraz -9528
▁spadł -9529
▁poziomu -9530
▁120 -9531
▁uroczystości -9532
ienie -9533
▁laure -9534
▁peter -9535
▁zmianę -9536
▁określenie -9537
sum -9538
▁kroków -9539
▁okry -9540
▁przykry -9541
pany -9542
▁schro -9543
pą -9544
▁wydawnictwo -9545
▁pisać -9546
▁popeł -9547
▁dolinie -9548
▁wejścia -9549
▁dna -9550
szości -9551
kazują -9552
▁kroki -9553
▁mogłaby -9554
▁nastąpił -9555
tum -9556
▁izo -9557
▁zanu -9558
▁rządów -9559
42 -9560
▁gazety -9561
▁młodości -9562
▁uciec -9563
▁wale -9564
▁all -9565
▁deko -9566
▁goli -9567
▁karty -9568
▁tygodnia -9569
▁fat -9570
kanów -9571
▁nieszczęśli -9572
▁odło -9573
▁sensu -9574
▁tło -9575
szonych -9576
▁daniel -9577
▁publicy -9578
▁doszedł -9579
▁gol -9580
▁mane -9581
▁myślałam -9582
▁czci -9583
▁budże -9584
cznością -9585
▁nieruchomo -9586
pka -9587
▁ciot -9588
▁jechać -9589
▁szwajcarii -9590
▁phi -9591
▁narko -9592
▁skończył -9593
▁wad -9594
▁dopu -9595
▁nagra -9596
▁rozwija -9597
enek -9598
▁psa -9599
▁kolonii -9600
▁pożegn -9601
rys -9602
▁militar -9603
▁uszy -9604
▁niesp -9605
tis -9606
▁walka -9607
▁realizacji -9608
cuje -9609
▁terytoria -9610
dowej -9611
▁koryta -9612
▁zabrać -9613
▁prowadziła -9614
▁feli -9615
▁obronie -9616
niesieniu -9617
▁niemu -9618
dzieliśmy -9619
▁granicą -9620
▁istnienie -9621
▁powinny -9622
▁zwyciężył -9623
bus -9624
▁maciej -9625
▁powstrzymać -9626
lio -9627
gnął -9628
▁włosów -9629
▁rejestru -9630
▁toteż -9631
▁platfor -9632
▁wskazał -9633
▁wydanie -9634
▁dziewczę -9635
bol -9636
świe -9637
▁instruk -9638
▁rany -9639
▁upamię -9640
▁przyniósł -9641
▁materiału -9642
▁dziewczynka -9643
▁rosyjski -9644
▁religii -9645
▁stawi -9646
▁ucieka -9647
▁dotyczy -9648
▁najważniejszych -9649
his -9650
▁ober -9651
▁podniosła -9652
▁firm -9653
▁umoc -9654
▁płytę -9655
▁trudne -9656
▁wersję -9657
▁skał -9658
nictwo -9659
▁geografi -9660
▁top -9661
▁edycji -9662
▁pokazać -9663
▁trenerem -9664
46 -9665
▁manu -9666
▁opieki -9667
tani -9668
▁ape -9669
▁wyrok -9670
▁tekstu -9671
▁piosenek -9672
▁otóż -9673
▁wolę -9674
▁sla -9675
▁przod -9676
▁zmart -9677
▁formę -9678
▁tronu -9679
▁powrotu -9680
▁lotnictwa -9681
▁komunikacji -9682
▁kwestii -9683
▁prokura -9684
tet -9685
▁raci -9686
▁progu -9687
▁trybun -9688
▁mruknął -9689
▁mowy -9690
▁nieobec -9691
letniej -9692
▁przekazy -9693
▁torpe -9694
hm -9695
▁zerw -9696
▁warunków -9697
▁południowy -9698
▁wyglądało -9699
pkę -9700
▁sun -9701
▁ludwik -9702
▁pięćdziesiąt -9703
gom -9704
▁edukacji -9705
▁odwróciła -9706
▁pożąd -9707
▁kuch -9708
▁europejskiego -9709
pek -9710
▁dosł -9711
▁zalicz -9712
ens -9713
▁wystą -9714
▁górach -9715
57 -9716
▁sposobem -9717
pieniu -9718
▁przynależ -9719
▁pełną -9720
▁złośli -9721
▁wan -9722
”). -9723
▁clar -9724
▁bogat -9725
▁kawi -9726
▁sala -9727
▁podzię -9728
23 -9729
98 -9730
▁maszyny -9731
gó -9732
▁traktu -9733
▁pochodził -9734
knie -9735
zował -9736
▁postu -9737
▁towar -9738
▁naukow -9739
cjoni -9740
entuzja -9741
▁thomas -9742
▁wygrała -9743
▁zakładu -9744
▁arystokra -9745
iz -9746
▁poleg -9747
▁drewna -9748
▁kilkak -9749
▁regularnie -9750
ceni -9751
▁przykładem -9752
amie -9753
▁recep -9754
▁przeważnie -9755
esa -9756
put -9757
kur -9758
▁pospie -9759
▁protestan -9760
wskie -9761
▁chleb -9762
▁walczyć -9763
pot -9764
ingu -9765
▁wioski -9766
▁rezerwat -9767
▁schodach -9768
▁egzeku -9769
▁przyci -9770
▁nigdzie -9771
▁skazany -9772
▁biblioteki -9773
kują -9774
▁kart -9775
▁kolana -9776
▁szkoda -9777
łki -9778
▁zbrod -9779
▁podnosi -9780
▁planie -9781
▁krótkim -9782
47 -9783
▁mah -9784
▁kupić -9785
▁założenia -9786
▁ustawy -9787
▁czerwone -9788
▁sc -9789
▁księżyc -9790
▁chin -9791
▁andre -9792
▁obfi -9793
▁usług -9794
biegła -9795
▁dziwnie -9796
▁przyjąć -9797
national -9798
61 -9799
▁wygra -9800
▁jedyne -9801
▁krytyk -9802
▁związków -9803
▁pismo -9804
▁przedsięw -9805
▁wszelkich -9806
▁przeciwnika -9807
▁sensie -9808
▁wiedząc -9809
▁odrodzenia -9810
stkę -9811
▁trą -9812
▁mózg -9813
▁zaczą -9814
sur -9815
▁idą -9816
mac -9817
▁publika -9818
▁opowiadał -9819
▁prezesa -9820
▁czytelni -9821
▁zespołów -9822
sky -9823
elle -9824
jami -9825
▁kredy -9826
▁wspaniał -9827
▁podstawowej -9828
mierz -9829
▁uzyskała -9830
iel -9831
▁nara -9832
▁zamierz -9833
ili -9834
ńczyków -9835
▁sekcji -9836
▁małopol -9837
▁musiałem -9838
▁testam -9839
▁stowarzyszenie -9840
▁iwan -9841
▁kawę -9842
bierać -9843
▁przedmiot -9844
▁wrz -9845
▁natar -9846
▁konstanty -9847
▁pięcio -9848
▁większa -9849
▁mniejsze -9850
▁spowodowało -9851
▁udostęp -9852
▁dziadek -9853
bez -9854
▁umieszczono -9855
gany -9856
▁wul -9857
kiewicza -9858
▁przerwy -9859
63 -9860
▁postanowie -9861
▁), -9862
▁bawi -9863
▁ża -9864
▁uzysku -9865
▁wyobraż -9866
▁szczą -9867
gne -9868
▁ramieniu -9869
piła -9870
▁wzy -9871
kowanie -9872
▁mierze -9873
▁tragi -9874
▁szczycie -9875
▁leni -9876
▁zaprowa -9877
▁amuni -9878
”) -9879
▁młode -9880
▁sukcesy -9881
▁trzę -9882
przewodni -9883
chan -9884
stycznie -9885
▁dysp -9886
▁próbuje -9887
▁słuchać -9888
▁laty -9889
▁wasza -9890
▁ponu -9891
▁zmysł -9892
▁zobowiąz -9893
▁bogów -9894
▁czyta -9895
▁united -9896
▁wchodząc -9897
▁najszyb -9898
▁ei -9899
▁nastąpiła -9900
ore -9901
▁ala -9902
▁oddali -9903
▁lee -9904
▁śmiał -9905
▁terenów -9906
▁postanowiła -9907
27 -9908
▁udziel -9909
▁komitet -9910
▁publicznego -9911
▁2: -9912
▁gorzej -9913
▁przypadkiem -9914
▁współczu -9915
wny -9916
▁dur -9917
▁deka -9918
▁sołec -9919
▁wyprawy -9920
▁kwar -9921
▁zginęło -9922
▁regionie -9923
▁materiałów -9924
▁preten -9925
▁opol -9926
▁brutal -9927
głów -9928
▁dis -9929
czanie -9930
▁teksty -9931
▁igrzysk -9932
▁rosną -9933
▁wydania -9934
ring -9935
letu -9936
▁owi -9937
▁święto -9938
▁najwyżej -9939
▁bory -9940
▁obiad -9941
▁chem -9942
▁tron -9943
▁rat -9944
▁okrzy -9945
▁tony -9946
olo -9947
▁selek -9948
▁odprowa -9949
ves -9950
łowi -9951
▁prawem -9952
▁księdza -9953
polu -9954
▁urządzenia -9955
▁idąc -9956
▁jedyna -9957
▁oczyma -9958
cus -9959
bienie -9960
▁filip -9961
▁singel -9962
▁filozof -9963
▁ludzkie -9964
▁dotyczących -9965
▁Śmier -9966
▁przesł -9967
▁chirur -9968
41 -9969
▁ogromne -9970
kró -9971
▁prus -9972
anią -9973
▁poślu -9974
▁augusta -9975
▁jezus -9976
▁lepsze -9977
czyni -9978
▁poda -9979
▁fortu -9980
▁uczuć -9981
▁junior -9982
▁startu -9983
▁syno -9984
▁dotrze -9985
▁zawołała -9986
▁zniknął -9987
▁kanał -9988
▁wniosek -9989
dzoną -9990
▁goty -9991
▁próbę -9992
▁zamówi -9993
▁zachodnich -9994
▁doo -9995
▁unika -9996
▁osz -9997
▁metra -9998
▁skraj -9999
▁uderzył -10000
▁wiedniu -10001
▁gri -10002
▁oca -10003
▁miesię -10004
▁wejście -10005
▁stopy -10006
▁dodatku -10007
▁przedstawił -10008
▁kanadyj -10009
rozu -10010
▁popi -10011
▁szat -10012
▁gola -10013
▁rzymu -10014
▁włodzi -10015
▁mieszkaniu -10016
ołnie -10017
▁grub -10018
▁ewolu -10019
▁silne -10020
▁entuzja -10021
towa -10022
▁idę -10023
▁uci -10024
▁podtrzym -10025
▁dynami -10026
▁musiało -10027
▁mac -10028
▁nożnej -10029
▁wpada -10030
spa -10031
▁jacek -10032
▁żadnym -10033
▁czarnej -10034
▁święta -10035
▁dokt -10036
▁okazała -10037
▁170 -10038
▁zabił -10039
▁ucha -10040
dzielić -10041
spir -10042
▁oznajmił -10043
▁nocą -10044
▁planu -10045
▁byś -10046
▁dokoń -10047
▁rozstrzy -10048
▁ameri -10049
▁starannie -10050
▁wile -10051
▁kolejowej -10052
ręt -10053
dowa -10054
▁state -10055
▁sporzą -10056
▁głąb -10057
▁żadna -10058
▁westchnął -10059
▁szansę -10060
kp -10061
▁zabytk -10062
▁negatyw -10063
▁silny -10064
▁profesorem -10065
▁żart -10066
▁kontrol -10067
▁stosunki -10068
żny -10069
▁ole -10070
▁zachował -10071
▁powstaniu -10072
▁przechowy -10073
▁stanowiła -10074
▁zobaczyła -10075
wek -10076
pała -10077
▁kompleks -10078
▁opublikował -10079
▁uto -10080
styna -10081
▁obyd -10082
▁odznak -10083
▁pozostało -10084
▁konkurs -10085
▁zakłady -10086
▁fazie -10087
▁reprezentował -10088
▁tk -10089
▁len -10090
pomor -10091
▁ryn -10092
▁twierdzi -10093
ast -10094
▁joe -10095
▁następuje -10096
▁naru -10097
▁tore -10098
pul -10099
▁wodo -10100
▁zwro -10101
▁piękny -10102
▁stanęła -10103
▁zamknął -10104
▁przyjaciele -10105
▁zawodów -10106
▁katolickiego -10107
▁odpar -10108
▁rozważ -10109
▁kongres -10110
▁ucieczki -10111
▁zamieszkał -10112
▁ji -10113
▁lą -10114
▁ekran -10115
▁daleka -10116
▁wzgórza -10117
▁siedzibę -10118
▁przem -10119
▁węgla -10120
▁choroba -10121
▁sufi -10122
ałyśmy -10123
▁wyborów -10124
liwy -10125
▁polacy -10126
▁obcho -10127
▁radość -10128
▁rozpad -10129
▁meda -10130
▁rannych -10131
▁przynosi -10132
▁czuj -10133
▁old -10134
▁odma -10135
▁oddać -10136
▁założona -10137
▁wprowadził -10138
lotni -10139
wiona -10140
▁fryderyka -10141
▁potrzebuje -10142
ankę -10143
▁", -10144
▁Świą -10145
▁bronią -10146
▁edwar -10147
▁land -10148
▁ośmiu -10149
ré -10150
▁decydu -10151
din -10152
▁dopły -10153
▁głup -10154
▁moni -10155
▁ciąży -10156
▁wypeł -10157
▁trzecia -10158
▁plo -10159
▁york -10160
▁wyciąga -10161
▁hiszp -10162
tyczną -10163
▁prędzej -10164
czkami -10165
▁gun -10166
▁związana -10167
żonej -10168
▁budzi -10169
▁pewnych -10170
▁ciele -10171
▁wspier -10172
▁budowie -10173
▁zaka -10174
▁ścianę -10175
▁» -10176
▁artysta -10177
▁miejskie -10178
▁fali -10179
▁okład -10180
▁sztyw -10181
▁pedagogi -10182
▁nało -10183
▁rozwa -10184
▁występujący -10185
miła -10186
▁pion -10187
▁federacji -10188
▁delikatnie -10189
▁uległ -10190
▁czytać -10191
▁archite -10192
dzam -10193
▁przyjaź -10194
▁boles -10195
▁chica -10196
▁wybory -10197
▁szlache -10198
▁fragmenty -10199
tas -10200
▁odległość -10201
▁płynie -10202
▁zasiadał -10203
▁granic -10204
▁połowę -10205
amery -10206
nięciu -10207
▁nogami -10208
▁synago -10209
dowę -10210
wood -10211
▁osady -10212
▁osada -10213
▁repor -10214
▁drog -10215
▁jedwa -10216
▁lublinie -10217
wieni -10218
▁sano -10219
ńczycy -10220
▁oddał -10221
▁prawdziwy -10222
▁przyczyny -10223
▁żydowskiej -10224
▁cenę -10225
▁okazy -10226
▁wcześnie -10227
▁terrory -10228
fać -10229
▁wzór -10230
▁palcami -10231
▁dodatkowe -10232
▁pta -10233
▁złoto -10234
▁babcia -10235
▁obecny -10236
▁pozwolił -10237
▁brytyjskiej -10238
▁rozwiązanie -10239
▁nego -10240
▁epoki -10241
▁przewodniczący -10242
43 -10243
śka -10244
▁niecier -10245
▁remi -10246
▁bizan -10247
▁porze -10248
▁uzbroj -10249
▁pozwolić -10250
▁specjalnych -10251
szała -10252
▁1000 -10253
▁rozumiesz -10254
▁nomin -10255
▁przysł -10256
▁uniósł -10257
▁chodzić -10258
▁koncentra -10259
ńscy -10260
▁seni -10261
▁przejście -10262
▁przeciwnie -10263
▁uk -10264
▁Święto -10265
▁zagłę -10266
▁grzegorz -10267
▁złu -10268
▁major -10269
▁trenera -10270
▁dąbr -10271
▁uniemożli -10272
▁wyraża -10273
▁dat -10274
▁analiz -10275
▁pułkownik -10276
▁komenta -10277
▁czarnego -10278
▁monachium -10279
▁uzasad -10280
▁kaj -10281
▁vin -10282
▁wytwórni -10283
▁czynności -10284
▁1910 -10285
▁emil -10286
▁opada -10287
▁nóż -10288
▁zrobiło -10289
gio -10290
▁zdążył -10291
▁białorusi -10292
▁sekretarza -10293
▁marta -10294
▁skończy -10295
nasto -10296
▁kancle -10297
uracji -10298
▁36 -10299
▁les -10300
▁babi -10301
▁mówiłem -10302
▁waw -10303
▁wilhelm -10304
▁mej -10305
▁autobu -10306
▁lubił -10307
▁mieczy -10308
▁australij -10309
▁wystrze -10310
▁zaż -10311
rodku -10312
szczeń -10313
▁restauracji -10314
▁poet -10315
▁byłaby -10316
▁rozleg -10317
▁posel -10318
▁imprez -10319
▁programie -10320
dowym -10321
▁uwierzyć -10322
wat -10323
▁ciężar -10324
▁oświadczył -10325
▁magazyn -10326
piony -10327
▁kibu -10328
nieśli -10329
▁utrzymać -10330
get -10331
▁osiedli -10332
bad -10333
▁rose -10334
▁wierzyć -10335
▁olej -10336
▁poku -10337
▁tożsamo -10338
▁raka -10339
▁elektro -10340
▁bohaterów -10341
finale -10342
▁synte -10343
▁napad -10344
▁zdawał -10345
▁ziemie -10346
▁ziemią -10347
▁przeprowadził -10348
▁adol -10349
▁przep -10350
▁benedy -10351
▁trwało -10352
▁krz -10353
ones -10354
▁nóg -10355
▁faktycznie -10356
hil -10357
skop -10358
▁20. -10359
▁odje -10360
▁odbior -10361
▁lasów -10362
▁zygmunta -10363
fur -10364
▁jim -10365
▁generalnej -10366
▁kilkakrotnie -10367
▁późniejszych -10368
▁obecnej -10369
▁przenik -10370
▁potrzebne -10371
▁będący -10372
▁dokony -10373
▁gą -10374
▁emis -10375
▁czerwony -10376
▁pojawiają -10377
▁przekazał -10378
miesz -10379
▁nawy -10380
▁armię -10381
▁duszpa -10382
▁zaplan -10383
▁opowiedział -10384
▁zasy -10385
▁języków -10386
▁trybu -10387
▁stanowił -10388
▁opinii -10389
▁6. -10390
▁eliza -10391
▁dziedzictwa -10392
rzało -10393
▁beat -10394
▁skinął -10395
ide -10396
czeć -10397
▁omi -10398
▁ptaków -10399
▁kolejna -10400
▁pasz -10401
▁przedsięwzię -10402
▁zacznie -10403
paść -10404
▁jezui -10405
▁świadomość -10406
▁cez -10407
▁przydziel -10408
westi -10409
▁jakości -10410
▁podłogę -10411
▁utru -10412
▁gotowa -10413
▁kardynał -10414
▁wrażli -10415
▁używany -10416
▁pięknych -10417
nger -10418
▁robią -10419
▁szybciej -10420
głe -10421
tują -10422
▁liczył -10423
▁środki -10424
▁wszystkimi -10425
▁sand -10426
▁katowicach -10427
▁spojrzeniem -10428
▁play -10429
▁pogrą -10430
▁śniegu -10431
▁krwią -10432
▁środek -10433
▁procesie -10434
▁wysz -10435
▁przyjaźni -10436
▁kau -10437
▁włoski -10438
▁gwi -10439
▁male -10440
ün -10441
▁żołąd -10442
▁jeno -10443
▁powiada -10444
dzią -10445
▁odtąd -10446
▁nick -10447
▁reakcji -10448
▁kierownikiem -10449
▁spró -10450
▁zwró -10451
▁miejskich -10452
beth -10453
skoczył -10454
▁przedost -10455
tina -10456
▁moskie -10457
▁wybrzeża -10458
koma -10459
▁poślubił -10460
▁dąb -10461
▁het -10462
terem -10463
▁podar -10464
▁zainteresowanie -10465
▁king -10466
▁ście -10467
▁uczynił -10468
▁wicemist -10469
▁kolejowa -10470
lanych -10471
▁kąpie -10472
▁specyfi -10473
▁sekretarz -10474
▁oznaczało -10475
wani -10476
▁staną -10477
▁eko -10478
szeniem -10479
źle -10480
siąść -10481
▁waszy -10482
53 -10483
▁mówili -10484
sali -10485
▁szyję -10486
▁pomyśle -10487
▁ściśle -10488
demok -10489
▁mate -10490
▁mogi -10491
▁prędkość -10492
▁dusza -10493
▁przecie -10494
rana -10495
▁byłego -10496
▁kance -10497
▁sztuka -10498
czerw -10499
▁zacząć -10500
▁dźwi -10501
▁records -10502
torzy -10503
▁rogu -10504
ney -10505
▁wpół -10506
▁wysokich -10507
tkach -10508
▁przedmie -10509
▁gabr -10510
▁ciepło -10511
▁odległ -10512
▁rozczar -10513
▁om -10514
▁rzesz -10515
▁partyj -10516
▁rezygna -10517
▁zadań -10518
darności -10519
ceń -10520
▁najwyższej -10521
ux -10522
▁wpat -10523
głych -10524
▁imieniem -10525
▁zostawił -10526
▁porzu -10527
▁tutej -10528
▁biznes -10529
▁rapor -10530
▁wysłał -10531
nionych -10532
▁vir -10533
▁lokomo -10534
▁wyścig -10535
▁zastanowi -10536
▁polak -10537
▁wspiera -10538
▁wci -10539
▁powodzenia -10540
▁zamów -10541
żnych -10542
dzanie -10543
▁grecji -10544
▁wyjął -10545
▁trasie -10546
▁struktury -10547
zując -10548
▁niezad -10549
fikowany -10550
▁niepraw -10551
▁usłyszała -10552
wcy -10553
▁stłu -10554
▁słup -10555
▁sięgnął -10556
cken -10557
właści -10558
▁kolejnego -10559
▁bezpośre -10560
hor -10561
▁koły -10562
▁nadał -10563
▁naboże -10564
▁pojazdu -10565
mać -10566
para -10567
▁liz -10568
▁cien -10569
▁pistolet -10570
▁przypadek -10571
▁najpo -10572
▁przypomniał -10573
▁zabiera -10574
▁siódm -10575
▁ciężarów -10576
▁wschodnich -10577
lop -10578
▁wyjazd -10579
▁waszyng -10580
▁zaak -10581
▁niedzie -10582
án -10583
▁szpie -10584
▁kontakty -10585
▁ky -10586
▁wyląd -10587
▁studyj -10588
lądu -10589
nnym -10590
▁hil -10591
▁spisu -10592
kazując -10593
urów -10594
rzonych -10595
▁zainteresowania -10596
▁bara -10597
▁33 -10598
▁przedstawiciele -10599
tzw -10600
▁jord -10601
▁skorzy -10602
nota -10603
▁krym -10604
▁posługi -10605
▁przywilej -10606
tnia -10607
▁czarnych -10608
▁świetnie -10609
ue -10610
▁dłonią -10611
▁południowym -10612
51 -10613
▁wierzę -10614
▁past -10615
▁czarną -10616
▁wyjaśnił -10617
ned -10618
phy -10619
▁zupeł -10620
bre -10621
▁ruszyła -10622
oro -10623
▁kum -10624
▁nieko -10625
▁royal -10626
▁uprzej -10627
łani -10628
▁tch -10629
ceniu -10630
▁tara -10631
▁rab -10632
wum -10633
atur -10634
nięto -10635
pha -10636
▁kilkunastu -10637
▁ara -10638
▁niespokoj -10639
▁krzesła -10640
▁szkie -10641
▁rozstrze -10642
▁wspólnoty -10643
▁1905 -10644
▁przeprowadzono -10645
▁pli -10646
▁emit -10647
▁tekstów -10648
▁debiutan -10649
▁miesiącach -10650
▁uczynić -10651
▁zamknięte -10652
▁posiadłości -10653
rwa -10654
▁płycie -10655
▁późniejszym -10656
▁komed -10657
▁zamiar -10658
dru -10659
▁she -10660
▁pełna -10661
▁wnętrze -10662
cht -10663
ial -10664
wąt -10665
▁1916 -10666
▁przeczu -10667
▁popularność -10668
onął -10669
▁skórę -10670
▁matce -10671
▁podaw -10672
skaku -10673
▁stacjon -10674
▁górni -10675
wające -10676
▁dramat -10677
▁straj -10678
▁wykonane -10679
cti -10680
jne -10681
zało -10682
dnienia -10683
▁pudeł -10684
▁dobrych -10685
▁fabryki -10686
▁rzut -10687
▁col -10688
▁udzie -10689
▁kłopoty -10690
▁zatrzymać -10691
▁odpowiedzieć -10692
▁homoseksu -10693
▁robotników -10694
▁hek -10695
laty -10696
▁1900 -10697
▁gigan -10698
▁zakładów -10699
▁reszty -10700
▁wiernych -10701
▁stworzenia -10702
▁zachodnim -10703
pora -10704
nnego -10705
▁trzykrotnie -10706
▁blon -10707
▁kawy -10708
▁fundam -10709
▁poprosił -10710
▁prowadzenia -10711
▁sekretarzem -10712
▁ryby -10713
▁służyć -10714
▁dyplomaty -10715
▁uczęszczał -10716
▁bramki -10717
▁wojskowym -10718
▁shi -10719
▁dokoła -10720
▁poprzedniego -10721
▁szczególności -10722
▁udowo -10723
▁dziewi -10724
lany -10725
nowy -10726
via -10727
▁dono -10728
▁właściciela -10729
▁pięknie -10730
▁Żydzi -10731
▁fotograf -10732
▁il -10733
▁ozdob -10734
▁zechce -10735
ship -10736
▁[...] -10737
▁cra -10738
▁efekt -10739
▁indian -10740
▁instytucji -10741
gali -10742
▁osobę -10743
▁niedob -10744
▁uważam -10745
bał -10746
▁przygotowania -10747
▁apara -10748
▁palcem -10749
▁nios -10750
▁zrozumi -10751
▁niewielki -10752
▁sma -10753
▁główna -10754
▁ołtarz -10755
▁pomyślałem -10756
czów -10757
zło -10758
field -10759
▁sando -10760
▁czułem -10761
▁zdenerw -10762
▁starszych -10763
▁zasięgu -10764
▁szkoleni -10765
wschodniej -10766
▁jakuba -10767
ktury -10768
▁fan -10769
▁systemie -10770
▁lokalnych -10771
▁znaczeniu -10772
mani -10773
▁wój -10774
▁nieud -10775
▁wieczor -10776
▁potencjal -10777
▁mostu -10778
▁formacji -10779
łując -10780
▁sfor -10781
▁altern -10782
▁interw -10783
▁piłkarską -10784
xi -10785
▁ołta -10786
▁pada -10787
▁zasob -10788
▁dokumentów -10789
cać -10790
tyczna -10791
▁pracą -10792
▁ny -10793
▁adi -10794
▁białą -10795
▁lider -10796
▁rower -10797
▁krótkie -10798
▁techniki -10799
▁nogę -10800
▁przywiąz -10801
▁wierzcho -10802
rada -10803
▁katalo -10804
▁chicago -10805
śń -10806
▁przewie -10807
▁konflikt -10808
▁przystos -10809
▁specjalne -10810
blo -10811
kały -10812
▁narodowy -10813
▁opozycji -10814
▁ślad -10815
▁zagroż -10816
▁ama -10817
▁strategi -10818
▁jesteście -10819
▁łaska -10820
▁gospody -10821
drze -10822
▁górnej -10823
▁kosza -10824
▁posiadają -10825
▁ranny -10826
▁studio -10827
▁krymina -10828
▁uzyskać -10829
▁bazyli -10830
▁podobnych -10831
▁przyjęcie -10832
▁jaw -10833
▁ukryć -10834
owny -10835
▁suł -10836
▁zjad -10837
sunęła -10838
mistrza -10839
▁opó -10840
▁tvp -10841
▁dachu -10842
▁chłopców -10843
▁wyobrazić -10844
gg -10845
▁klubów -10846
centa -10847
▁niepotrzeb -10848
▁kolejnej -10849
▁nareszcie -10850
▁przeniesiono -10851
som -10852
▁audy -10853
▁start -10854
▁słyszę -10855
odła -10856
▁odebrał -10857
lnik -10858
▁dali -10859
▁litur -10860
▁autorów -10861
▁wysia -10862
wań -10863
▁teni -10864
▁wisły -10865
▁czerwoną -10866
▁porozumienia -10867
▁pokazał -10868
▁zadzwonił -10869
▁dzisiejszego -10870
▁bater -10871
▁oznak -10872
▁smith -10873
▁czarna -10874
czeki -10875
▁obra -10876
▁szaf -10877
spozycji -10878
%. -10879
▁kroku -10880
▁podobie -10881
▁uderza -10882
▁źródło -10883
▁reżyserii -10884
szer -10885
ralne -10886
▁odbyły -10887
obo -10888
▁umiał -10889
▁zacząłem -10890
▁założyciel -10891
edy -10892
▁chęć -10893
▁baron -10894
zacho -10895
▁stanowczo -10896
▁obda -10897
▁mechanizm -10898
▁pozostawał -10899
▁nai -10900
▁zastosowanie -10901
▁złotym -10902
▁świętego -10903
▁peru -10904
▁architektury -10905
▁dookoła -10906
▁Łącznie -10907
▁wyw -10908
▁jake -10909
▁okup -10910
▁meksyku -10911
ckimi -10912
▁nadzor -10913
▁bul -10914
▁zapal -10915
▁działać -10916
▁uniknąć -10917
▁kolegium -10918
▁kun -10919
kowano -10920
żach -10921
▁służy -10922
miało -10923
▁kupił -10924
▁zdrowie -10925
demu -10926
▁wsie -10927
▁sierż -10928
▁instyn -10929
owszechni -10930
▁pośrodku -10931
▁zimno -10932
▁dominu -10933
▁mickie -10934
▁tamtym -10935
▁przyniosła -10936
▁kapła -10937
▁obrazów -10938
▁dalszych -10939
▁należały -10940
▁dziewczynę -10941
▁zgody -10942
lana -10943
▁doby -10944
▁wiąże -10945
▁historyk -10946
biec -10947
▁liści -10948
▁wzroku -10949
▁podziału -10950
▁trzymać -10951
▁problemu -10952
▁rozmowie -10953
resji -10954
▁wznosi -10955
▁dotarła -10956
▁ib -10957
▁nakrę -10958
▁własności -10959
▁naza -10960
▁ciemne -10961
▁stanowiło -10962
sha -10963
pami -10964
▁nast -10965
▁księgi -10966
▁świadomości -10967
▁stany -10968
▁przest -10969
▁rozgry -10970
▁filmach -10971
▁mógłbym -10972
knąć -10973
▁zrę -10974
▁czarnym -10975
▁spotkaniach -10976
▁masa -10977
▁szli -10978
▁przeba -10979
▁trafia -10980
▁Żołnie -10981
▁współczesnych -10982
▁zajęli -10983
łow -10984
▁obszer -10985
▁spój -10986
▁ledwo -10987
▁decyzja -10988
▁przejmu -10989
▁zmuszony -10990
▁poły -10991
▁kraje -10992
ör -10993
▁śpiewa -10994
▁czekała -10995
▁tamtych -10996
dż -10997
lała -10998
▁kwo -10999
▁komplek -11000
▁niemi -11001
▁umowy -11002
▁spróbu -11003
kroć -11004
▁mace -11005
▁wargi -11006
▁zakrę -11007
▁wypowiedzi -11008
füh -11009
▁ryba -11010
▁słowami -11011
lig -11012
▁zago -11013
▁muzycznej -11014
bku -11015
▁najnow -11016
puł -11017
▁euge -11018
▁żyją -11019
▁interne -11020
▁przypadkach -11021
stanu -11022
▁wysie -11023
▁wyję -11024
▁gdybyś -11025
▁jer -11026
▁bohatera -11027
▁angielski -11028
jutrz -11029
▁zgodę -11030
▁znaleziono -11031
biegał -11032
▁publicznych -11033
▁parlamentarnych -11034
zdem -11035
▁sztuce -11036
▁zamierzał -11037
▁kiel -11038
▁trage -11039
▁nogach -11040
▁wyświet -11041
▁podeszła -11042
kłó -11043
gała -11044
uszki -11045
▁inwa -11046
cyna -11047
▁zapomina -11048
▁waty -11049
▁bramkę -11050
▁naturalnie -11051
▁profesjonal -11052
ńsku -11053
▁manew -11054
biła -11055
▁analo -11056
▁półfin -11057
▁rosjan -11058
▁najwyższym -11059
ssen -11060
▁1912 -11061
▁archiwum -11062
▁widzieli -11063
▁pasażerów -11064
onuje -11065
▁szerokości -11066
▁wid -11067
▁hero -11068
▁zwłoki -11069
▁(3 -11070
▁wari -11071
▁wieża -11072
▁oddal -11073
▁warmi -11074
▁rozkła -11075
▁wściek -11076
▁ciał -11077
▁czuć -11078
▁wyrze -11079
blu -11080
▁odkąd -11081
kowanych -11082
▁antoniego -11083
test -11084
▁hau -11085
▁laborator -11086
▁potrafiła -11087
▁odwro -11088
▁szepnął -11089
▁doprowadził -11090
zno -11091
onomii -11092
▁zasie -11093
▁próbując -11094
żna -11095
▁wuj -11096
▁twoich -11097
▁przytom -11098
▁jerozoli -11099
liwe -11100
▁niew -11101
▁buddy -11102
▁usiadła -11103
licz -11104
▁zawier -11105
▁islam -11106
▁propag -11107
▁stwierdziła -11108
▁1/ -11109
łowie -11110
▁obiektu -11111
▁odziedzi -11112
sili -11113
chałem -11114
▁indii -11115
▁serial -11116
▁nazajutrz -11117
▁week -11118
▁habili -11119
▁opisał -11120
▁przyjmuje -11121
gnor -11122
▁harcer -11123
▁wojskowe -11124
▁cyfr -11125
▁oma -11126
▁drobne -11127
▁państwowych -11128
▁Ści -11129
▁trza -11130
▁charles -11131
▁3: -11132
▁zare -11133
ychy -11134
▁zespoły -11135
▁restaura -11136
▁widocznie -11137
▁tedy -11138
▁śnieg -11139
▁prowadzone -11140
ląt -11141
▁zbier -11142
żał -11143
▁powia -11144
▁miastach -11145
▁admi -11146
▁starsze -11147
▁zjawisko -11148
archi -11149
▁wracać -11150
▁wzięli -11151
taż -11152
▁następny -11153
▁powodem -11154
▁figur -11155
▁otrzymy -11156
▁zamachu -11157
▁dokonano -11158
anek -11159
▁idei -11160
▁służbie -11161
▁rosyjskich -11162
żać -11163
▁uciekł -11164
▁zmierza -11165
nowo -11166
▁bill -11167
▁niewąt -11168
▁wydziel -11169
▁sukcesem -11170
zachod -11171
▁sędzia -11172
▁przyjęcia -11173
▁mona -11174
▁strona -11175
▁opuścić -11176
▁cias -11177
▁osiągnięcia -11178
dd -11179
▁tatu -11180
▁komor -11181
Ży -11182
▁lini -11183
▁"„ -11184
▁4, -11185
▁bój -11186
▁precy -11187
pri -11188
▁ero -11189
▁Śląsku -11190
2). -11191
▁zastępcą -11192
▁toruniu -11193
nać -11194
▁skały -11195
▁wpatry -11196
ile -11197
▁władcy -11198
▁przedmiotem -11199
godni -11200
▁każe -11201
▁spółka -11202
▁przyjemność -11203
▁christo -11204
▁pograni -11205
klu -11206
▁czułam -11207
▁rozkazu -11208
▁zawdzię -11209
▁that -11210
▁korony -11211
▁brazylii -11212
▁zmieniło -11213
▁posiadała -11214
lację -11215
▁ogniem -11216
▁policjant -11217
97 -11218
▁barw -11219
▁best -11220
▁wysokim -11221
▁gospodarstwa -11222
▁pomieszczenia -11223
▁zdjęć -11224
▁stoczni -11225
▁wschodnim -11226
robo -11227
gania -11228
▁przysłu -11229
sera -11230
▁powraca -11231
▁inf -11232
▁lei -11233
▁pójdę -11234
powi -11235
▁złą -11236
▁woły -11237
▁chleba -11238
▁przyjęła -11239
▁zajmowała -11240
kot -11241
tując -11242
▁myślała -11243
▁naukowe -11244
▁stadion -11245
▁from -11246
▁kamienia -11247
▁pojechał -11248
▁czynienia -11249
▁istniał -11250
kl -11251
sey -11252
▁odet -11253
▁akcep -11254
fizy -11255
▁produkcja -11256
sau -11257
atorium -11258
▁zaliczył -11259
▁heł -11260
▁lubo -11261
▁wygn -11262
▁ubezpie -11263
▁beł -11264
▁ludzkiej -11265
▁czterdzieści -11266
ódł -11267
▁bałty -11268
▁ciałem -11269
▁startował -11270
szne -11271
▁alu -11272
▁rum -11273
▁prąd -11274
lecie -11275
▁divi -11276
▁długą -11277
▁wolny -11278
przestrze -11279
▁7. -11280
▁zai -11281
▁hein -11282
▁spojrzenia -11283
▁lodow -11284
grze -11285
▁szum -11286
▁myślach -11287
czeb -11288
▁hip -11289
ferze -11290
▁kamer -11291
▁słuchaj -11292
▁żela -11293
dob -11294
▁komplet -11295
▁bali -11296
▁ocal -11297
▁rewi -11298
▁jakbym -11299
▁obywate -11300
▁widoczne -11301
▁pojedynku -11302
owro -11303
▁aże -11304
tonie -11305
owując -11306
▁dowci -11307
▁czwarty -11308
▁minę -11309
▁padł -11310
▁wybier -11311
▁dou -11312
▁martin -11313
▁poznań -11314
▁doświadczenie -11315
ltacie -11316
▁lokali -11317
▁zastanawi -11318
▁rezultacie -11319
▁wspomnienie -11320
▁ochoty -11321
nas -11322
▁pul -11323
▁syl -11324
▁naśla -11325
▁autory -11326
▁dworca -11327
▁siedli -11328
▁plecy -11329
▁szukał -11330
ciłam -11331
▁bała -11332
▁użyciu -11333
▁postępu -11334
euro -11335
▁racji -11336
▁siostrę -11337
▁zmianie -11338
▁zapewnia -11339
▁westchnęła -11340
▁róża -11341
▁zawody -11342
▁usłyszeć -11343
▁wet -11344
▁śród -11345
▁obyczaj -11346
▁spła -11347
▁zada -11348
▁systematy -11349
▁ekstrakla -11350
▁przejścia -11351
not -11352
▁cd -11353
ando -11354
▁samu -11355
▁kontrolę -11356
▁woło -11357
▁muzyczny -11358
▁niemiecką -11359
▁minuty -11360
wczy -11361
▁cat -11362
▁izbie -11363
▁trwały -11364
▁ofen -11365
▁award -11366
▁politycznego -11367
▁jacka -11368
▁uczci -11369
▁piętnaście -11370
▁popełni -11371
▁wysokiej -11372
ges -11373
▁reż -11374
▁zrobię -11375
▁niezadowo -11376
▁wje -11377
organi -11378
stymi -11379
▁awar -11380
▁harmo -11381
▁ordyn -11382
▁liczbie -11383
▁podrę -11384
▁kolegów -11385
▁rządzie -11386
▁kolację -11387
▁mamo -11388
▁plecach -11389
▁niemniej -11390
▁wywiadu -11391
▁populacji -11392
▁uczestników -11393
pto -11394
▁had -11395
▁koja -11396
▁ustro -11397
▁rękopis -11398
▁moto -11399
▁show -11400
▁inteligent -11401
▁kuli -11402
▁zrozumienia -11403
▁związki -11404
▁światem -11405
▁pacjentów -11406
sztu -11407
▁more -11408
▁francisz -11409
▁prostoką -11410
tle -11411
▁użyte -11412
▁iry -11413
▁posu -11414
▁charakteru -11415
▁madry -11416
skryp -11417
▁dala -11418
▁odbyło -11419
▁odmian -11420
▁pielęgni -11421
▁dziesięcio -11422
oma -11423
wans -11424
dygna -11425
▁kochanie -11426
▁stosunków -11427
▁arka -11428
▁finan -11429
▁dociera -11430
▁wojciecha -11431
▁pomara -11432
▁angielskiego -11433
▁remont -11434
▁ministrów -11435
▁popatrzył -11436
▁drugo -11437
▁niesam -11438
▁dopuszcz -11439
▁kancelar -11440
▁kri -11441
▁powróci -11442
▁osiągnąć -11443
▁ulo -11444
▁jeść -11445
▁zyskał -11446
▁kolonia -11447
▁zachowały -11448
▁wolna -11449
96 -11450
słem -11451
▁lady -11452
▁filmy -11453
▁biblioteka -11454
erów -11455
giej -11456
ienia -11457
▁zgadza -11458
▁londynu -11459
wice -11460
▁maryna -11461
▁energi -11462
rując -11463
▁dolno -11464
▁namio -11465
▁któregoś -11466
▁redaktor -11467
▁wzniesiono -11468
snąć -11469
▁umiar -11470
▁składu -11471
miana -11472
▁rola -11473
▁nieleg -11474
▁jedzenia -11475
ep -11476
▁adri -11477
▁rozwij -11478
▁francuskich -11479
ostwo -11480
▁katedrze -11481
▁drewniany -11482
▁ministrem -11483
▁5, -11484
letniego -11485
honor -11486
▁zesz -11487
▁umowę -11488
▁choler -11489
lasy -11490
dzącego -11491
▁długich -11492
▁piosenkę -11493
▁stry -11494
▁najlepszego -11495
▁właściwości -11496
▁rzek -11497
▁zebran -11498
▁członka -11499
▁league -11500
▁medale -11501
▁wolnego -11502
▁piast -11503
▁technologii -11504
mes -11505
▁zamil -11506
▁uważany -11507
gun -11508
▁non -11509
▁wese -11510
▁ciszy -11511
mion -11512
▁oparciu -11513
▁powinienem -11514
jor -11515
▁kierownik -11516
▁sau -11517
▁przedwojen -11518
▁powta -11519
▁pojazdów -11520
wil -11521
ather -11522
▁brytyjskich -11523
▁abra -11524
▁podwyż -11525
▁twojego -11526
szonym -11527
▁popr -11528
różnic -11529
▁dostępne -11530
gad -11531
▁dwój -11532
▁formalnie -11533
dztwa -11534
▁zarzut -11535
▁pokolenia -11536
jest -11537
▁któż -11538
▁wolał -11539
▁powinnam -11540
▁centralnego -11541
miona -11542
▁reguły -11543
▁tamten -11544
▁aktorka -11545
ceae -11546
▁swojemu -11547
▁zaakcep -11548
▁krakowskiego -11549
pur -11550
wający -11551
▁namie -11552
▁nacjonali -11553
hat -11554
▁znasz -11555
wództwo -11556
▁skupia -11557
ralnych -11558
▁wzgórz -11559
▁źródłem -11560
▁kwalifika -11561
▁naczelnego -11562
▁ogrodu -11563
▁sukcesów -11564
▁mury -11565
▁moskwy -11566
▁widzów -11567
▁towarzysz -11568
▁twierdził -11569
stom -11570
▁piętrze -11571
▁ludzkich -11572
▁zwolniony -11573
85 -11574
wina -11575
red -11576
▁chór -11577
▁gość -11578
▁chmie -11579
▁helen -11580
▁ryzyko -11581
▁75 -11582
▁hindu -11583
▁pon -11584
▁namy -11585
tary -11586
▁prezbiterium -11587
▁neo -11588
▁musiałam -11589
▁udowodni -11590
▁kierunkiem -11591
chor -11592
▁pin -11593
▁wysu -11594
▁mądro -11595
▁edwarda -11596
▁materiały -11597
▁hun -11598
▁wsparcia -11599
▁uzbrojenia -11600
tniej -11601
▁śpiew -11602
▁dywizja -11603
▁elżbieta -11604
▁hej -11605
▁dzieciństwa -11606
▁kula -11607
▁ulice -11608
▁żonaty -11609
▁biegnie -11610
▁fr -11611
artagn -11612
▁festiwal -11613
▁sekretar -11614
▁nath -11615
▁portre -11616
▁literaturze -11617
▁ważnym -11618
far -11619
▁gałęzi -11620
▁wrażenia -11621
ini -11622
omy -11623
▁motyw -11624
▁półwy -11625
▁dawał -11626
▁rozdziel -11627
mencie -11628
▁irlan -11629
▁zwycza -11630
▁apostol -11631
▁socj -11632
▁przejści -11633
▁detek -11634
▁jeńców -11635
▁efekcie -11636
▁procedu -11637
▁kościołem -11638
▁tward -11639
▁pisarza -11640
!» -11641
śc -11642
▁str -11643
kają -11644
▁leczenia -11645
▁katolicki -11646
▁itd -11647
owcem -11648
▁leżą -11649
▁kochał -11650
▁sekundy -11651
▁przystoj -11652
▁karcz -11653
▁julia -11654
niusz -11655
▁modu -11656
▁przyjęty -11657
sena -11658
▁analizy -11659
▁niechaj -11660
▁czołgów -11661
▁wykonania -11662
▁długiej -11663
▁portugal -11664
▁powojen -11665
92 -11666
cke -11667
▁hory -11668
▁integra -11669
▁wypowia -11670
brzy -11671
▁10. -11672
czymi -11673
▁strefy -11674
kowskiej -11675
▁habs -11676
▁podą -11677
▁jasna -11678
▁music -11679
▁wrocław -11680
▁mowa -11681
-5 -11682
reśl -11683
▁ofia -11684
▁rytu -11685
▁charlot -11686
▁wyższych -11687
▁odpowiedni -11688
amo -11689
▁telefonu -11690
▁radzieckiego -11691
▁sile -11692
▁wrza -11693
▁uległa -11694
dzali -11695
▁club -11696
▁pragnął -11697
▁zbigniew -11698
▁katarzyna -11699
berga -11700
▁kina -11701
▁wykorzystać -11702
▁cur -11703
▁akty -11704
▁dając -11705
▁miejskiego -11706
zar -11707
▁anato -11708
▁czoła -11709
▁flory -11710
▁ogrod -11711
▁wiersz -11712
▁wizyty -11713
▁numerem -11714
▁sprzedaż -11715
▁głosi -11716
▁różnorod -11717
▁tajemnicy -11718
▁płó -11719
▁tamże -11720
▁mieszcz -11721
▁kres -11722
▁diabła -11723
▁wyobraź -11724
▁zaniepo -11725
▁likwidacji -11726
km -11727
▁mali -11728
alności -11729
▁belgii -11730
binę -11731
▁ciągnął -11732
▁obszary -11733
dorf -11734
▁nastolat -11735
▁konstytucji -11736
▁przyjacielem -11737
▁wyży -11738
▁danej -11739
▁rusza -11740
bela -11741
rzeli -11742
▁diam -11743
▁tworzenia -11744
▁tali -11745
▁poster -11746
▁bezwzglę -11747
▁potrafię -11748
▁osia -11749
▁napły -11750
▁obrońcy -11751
▁grubo -11752
▁karabin -11753
▁rozdział -11754
ńczyk -11755
▁naje -11756
▁wkład -11757
▁trzema -11758
▁usługi -11759
▁zapowia -11760
▁naukowej -11761
▁młodszy -11762
▁przyrodni -11763
▁musiały -11764
▁odpoczy -11765
▁znalezi -11766
▁flor -11767
▁nama -11768
▁zadu -11769
▁młodej -11770
▁jugosła -11771
▁stosowane -11772
zda -11773
▁większym -11774
cas -11775
tok -11776
▁celi -11777
zwycza -11778
▁elementem -11779
tain -11780
▁tegoż -11781
▁umówi -11782
▁nakry -11783
▁kochać -11784
▁szczytu -11785
▁trzecią -11786
▁latar -11787
lnia -11788
▁społeczne -11789
czków -11790
▁nosiła -11791
▁wiceprzewodni -11792
▁szła -11793
99 -11794
▁krem -11795
▁historycznych -11796
▁karl -11797
▁ośrodka -11798
▁położenie -11799
śnia -11800
▁folwark -11801
▁norwegii -11802
▁występów -11803
▁centralnej -11804
▁skru -11805
▁granat -11806
▁region -11807
zacją -11808
▁pomógł -11809
▁pewność -11810
▁ojczyzny -11811
▁gabinecie -11812
▁zapomnieć -11813
▁mike -11814
▁soko -11815
▁konieczne -11816
lau -11817
ącymi -11818
▁artysty -11819
▁poglądy -11820
▁zaszczy -11821
▁zróżnic -11822
▁ludowego -11823
▁sportowy -11824
▁chciałabym -11825
▁rozpoczęły -11826
▁obcych -11827
▁zauważ -11828
▁niemiecka -11829
:00 -11830
▁stosunek -11831
▁deleg -11832
▁posze -11833
▁robiła -11834
▁niemcami -11835
▁34 -11836
▁fort -11837
▁klas -11838
▁znalazło -11839
ktyw -11840
▁rzuc -11841
▁serb -11842
▁czekając -11843
śpie -11844
▁friedri -11845
▁ścianach -11846
▁dogo -11847
▁indziej -11848
▁pojazd -11849
▁scenę -11850
▁ekranie -11851
▁ojc -11852
▁ironi -11853
▁pytań -11854
▁słuchał -11855
ild -11856
▁przeraża -11857
▁fotografi -11858
▁drę -11859
▁móc -11860
▁wat -11861
▁robię -11862
▁wyspa -11863
▁obowiązu -11864
▁zdolność -11865
elu -11866
run -11867
▁owe -11868
▁redakcji -11869
▁brać -11870
▁alfre -11871
▁uznać -11872
▁czytel -11873
▁malarz -11874
▁zwróci -11875
dowo -11876
stali -11877
▁księżyca -11878
▁gole -11879
▁osiągnęła -11880
▁fon -11881
▁gwiazda -11882
▁kopu -11883
▁national -11884
ciwszy -11885
▁obietni -11886
▁odezwała -11887
glu -11888
wol -11889
▁korona -11890
▁równoleg -11891
▁niespodzi -11892
diece -11893
szczą -11894
wających -11895
▁domowej -11896
▁gruncie -11897
▁komórek -11898
▁samochody -11899
▁konkurencji -11900
owate -11901
▁obło -11902
▁prośbę -11903
▁odmówił -11904
▁high -11905
▁sform -11906
▁boskiej -11907
pana -11908
▁bronić -11909
▁brakuje -11910
▁polityka -11911
▁mole -11912
▁pocisków -11913
▁przyzwycza -11914
▁sylw -11915
▁dawne -11916
▁champion -11917
▁rejonu -11918
▁wilnie -11919
▁dostała -11920
nąwszy -11921
▁sympat -11922
▁konieczność -11923
▁dęb -11924
▁kibi -11925
▁wieść -11926
▁wersje -11927
▁kwiatów -11928
▁prawidł -11929
▁wyprost -11930
▁istotnie -11931
▁rundy -11932
▁street -11933
▁irlandii -11934
póź -11935
▁owoc -11936
▁spar -11937
▁artyle -11938
▁nacisk -11939
▁wędr -11940
▁zabra -11941
▁korytarz -11942
▁konfliktu -11943
▁aha -11944
▁obowiązek -11945
▁narodowych -11946
▁lak -11947
▁arcybiskup -11948
▁setki -11949
▁przybli -11950
▁twierdzy -11951
▁mau -11952
▁magistra -11953
▁mężczyznę -11954
dki -11955
kowska -11956
▁powód -11957
▁wyczerp -11958
▁mig -11959
▁nań -11960
dzące -11961
▁kontek -11962
ira -11963
mund -11964
▁drapie -11965
▁cierpli -11966
▁mór -11967
▁serie -11968
▁trójką -11969
▁powstaje -11970
▁seba -11971
▁dziwnego -11972
cemy -11973
▁natura -11974
▁jakichś -11975
▁dostanie -11976
▁kierowca -11977
▁godzinach -11978
▁żu -11979
▁jen -11980
▁kit -11981
▁1913 -11982
▁zakończenie -11983
▁pójdzie -11984
▁jedzenie -11985
▁komisarz -11986
▁bawar -11987
▁polityczną -11988
▁presti -11989
▁wierszy -11990
very -11991
▁ade -11992
▁dwana -11993
▁wciąg -11994
▁znanym -11995
▁nazywał -11996
▁wzmianka -11997
▁obiec -11998
ródziem -11999
▁dolnej -12000
▁długim -12001
▁floren -12002
▁rycerz -12003
▁nazywany -12004
▁pozostały -12005
▁rozciąg -12006
czyńskiego -12007
▁pośrednictwem -12008
▁międzywojennym -12009
▁jask -12010
rzyłem -12011
▁wchodził -12012
▁wygło -12013
▁świeżo -12014
▁pokazuje -12015
▁leśni -12016
▁stoją -12017
▁poważne -12018
▁wychowy -12019
▁zagrożenia -12020
szania -12021
▁znała -12022
▁ogólnokształ -12023
▁kopalni -12024
▁zaawans -12025
▁czwo -12026
▁neut -12027
▁caro -12028
▁częstotli -12029
ong -12030
▁sposobu -12031
▁trafiła -12032
▁straciła -12033
▁brytyjskiego -12034
▁przymus -12035
▁dostrzegł -12036
▁znika -12037
▁koloni -12038
▁fala -12039
▁chełm -12040
▁osied -12041
niętych -12042
▁przedmiotów -12043
▁liczeb -12044
ałoby -12045
▁przeciwlotni -12046
sad -12047
▁boję -12048
▁wsią -12049
▁twarze -12050
▁uzależ -12051
▁rumunii -12052
▁ubrania -12053
▁dalszej -12054
▁postacią -12055
▁siedmio -12056
▁telefoni -12057
▁1911 -12058
▁joseph -12059
▁sygnał -12060
▁komisja -12061
▁potrafią -12062
▁cro -12063
ujący -12064
▁potwor -12065
▁absolutnie -12066
nel -12067
▁zaklę -12068
▁pokonując -12069
▁bier -12070
▁pochwy -12071
▁weszli -12072
▁kompletnie -12073
▁przegranym -12074
▁48 -12075
▁ras -12076
▁rozpacz -12077
▁organizację -12078
▁sylwet -12079
▁eksploata -12080
▁deput -12081
szczone -12082
▁delega -12083
▁dotrzeć -12084
▁prywatnych -12085
▁wyposażenie -12086
ose -12087
pal -12088
▁płk -12089
▁agre -12090
▁strzele -12091
▁wysa -12092
▁gminę -12093
haus -12094
ornie -12095
▁insta -12096
▁piwo -12097
▁winie -12098
▁punkcie -12099
dują -12100
znaw -12101
▁blan -12102
istnie -12103
rzałam -12104
▁orderem -12105
fort -12106
rywać -12107
▁sprzęt -12108
▁odwraca -12109
lich -12110
▁hierar -12111
▁turcji -12112
▁rozkazy -12113
▁czerwonym -12114
▁wyeli -12115
▁odnaleźć -12116
chii -12117
lesa -12118
▁tylu -12119
rzać -12120
▁pytam -12121
▁pojemności -12122
▁trum -12123
▁brazylij -12124
▁systemów -12125
▁istoty -12126
▁paliwa -12127
▁love -12128
kańskiej -12129
▁kilkoma -12130
▁zachodzi -12131
▁zostawić -12132
łku -12133
▁filmowy -12134
▁ogrodzie -12135
▁politykę -12136
▁zapewnić -12137
▁ziar -12138
▁słowia -12139
▁obywateli -12140
▁plasti -12141
▁chwycił -12142
▁rozporzą -12143
▁politechniki -12144
▁wystarczająco -12145
▁czyżby -12146
▁ptaki -12147
▁„" -12148
▁sukien -12149
▁lotnisk -12150
▁historyczne -12151
▁niespodziewanie -12152
▁600 -12153
▁zabrz -12154
▁danego -12155
▁przypuszcza -12156
▁bożego -12157
▁skraju -12158
▁esto -12159
2), -12160
żną -12161
coną -12162
▁bach -12163
▁koza -12164
▁utk -12165
▁łodzi -12166
▁artykuł -12167
▁słyszeć -12168
▁nachy -12169
▁funtów -12170
▁miedzi -12171
▁zapomniał -12172
▁zakop -12173
▁pieczę -12174
▁ważną -12175
▁mężczyzną -12176
▁departamentu -12177
▁wypi -12178
▁maleń -12179
▁fortepi -12180
▁international -12181
▁artur -12182
ses -12183
omie -12184
vić -12185
▁rangi -12186
▁wstała -12187
▁zdał -12188
▁wiede -12189
▁próżno -12190
▁kwadrat -12191
ée -12192
▁hans -12193
▁podleg -12194
tw -12195
▁bloku -12196
▁płyną -12197
▁uchodzi -12198
▁amerykańska -12199
94 -12200
▁propozycję -12201
▁skro -12202
▁tabeli -12203
▁przywie -12204
▁fen -12205
▁zej -12206
▁drużyną -12207
▁przyzwo -12208
gich -12209
▁dostos -12210
natu -12211
szeń -12212
▁znosi -12213
▁wycofał -12214
▁odbywały -12215
▁cre -12216
▁wiersze -12217
▁dziwa -12218
nos -12219
witz -12220
tajem -12221
▁doży -12222
▁zarę -12223
▁przypu -12224
▁miliona -12225
▁wielkość -12226
▁140 -12227
▁zgrup -12228
▁rozgrywa -12229
mus -12230
dowanie -12231
▁deszczu -12232
▁krakowskiej -12233
▁prowadzenie -12234
yo -12235
jga -12236
▁schy -12237
▁twórczość -12238
cky -12239
lenda -12240
▁obrzy -12241
lew -12242
mara -12243
▁robisz -12244
▁układzie -12245
▁ówczesnego -12246
▁lwowa -12247
▁rankingu -12248
zachodniej -12249
▁mieszkała -12250
▁mianowicie -12251
▁miasteczka -12252
miernie -12253
▁radykal -12254
▁siostrą -12255
▁opowieść -12256
▁dwanaście -12257
▁doprowadzić -12258
▁amerykańskie -12259
bka -12260
gim -12261
muł -12262
▁dystrybu -12263
rony -12264
▁kanału -12265
▁kombina -12266
▁pozostać -12267
▁systemem -12268
▁przestała -12269
xa -12270
▁atom -12271
▁taksów -12272
▁trzymając -12273
▁zaczynają -12274
mić -12275
cząco -12276
▁spon -12277
▁większego -12278
▁czerwonego -12279
▁alfa -12280
▁litwy -12281
▁statków -12282
osto -12283
▁miły -12284
▁zimą -12285
ujące -12286
walifik -12287
▁ramionach -12288
▁rodzinnym -12289
▁podstawowych -12290
czątk -12291
▁kamienie -12292
▁ogromny -12293
▁znajomych -12294
▁sympaty -12295
▁szczęśliwy -12296
ffa -12297
▁1908 -12298
dztwie -12299
▁przepro -12300
▁paki -12301
▁radom -12302
▁trasę -12303
▁kłę -12304
nicze -12305
▁morskich -12306
▁udo -12307
jnych -12308
▁julie -12309
▁sportu -12310
▁przedmioty -12311
▁postępowania -12312
▁ato -12313
▁mocniej -12314
▁emocjonal -12315
▁liber -12316
▁firmie -12317
▁wież -12318
▁powyż -12319
▁pozycje -12320
▁7, -12321
▁8. -12322
▁miałby -12323
▁partię -12324
▁ego -12325
▁cykl -12326
▁nosa -12327
▁klawi -12328
▁seryj -12329
▁ścisł -12330
▁planów -12331
▁uzbrojenie -12332
▁ulicach -12333
▁pułkownika -12334
ture -12335
▁cieszę -12336
▁zajmują -12337
▁zaczynał -12338
3), -12339
▁prędko -12340
▁skończyła -12341
▁społecznego -12342
▁mórg -12343
ig -12344
▁teologii -12345
▁archidiece -12346
day -12347
▁brygada -12348
▁mające -12349
▁otwarto -12350
walił -12351
▁danii -12352
▁motor -12353
▁wieki -12354
▁kierowcy -12355
▁nagrania -12356
ody -12357
▁mno -12358
▁odrzekł -12359
▁warunkiem -12360
-10 -12361
▁joan -12362
▁opro -12363
▁seks -12364
▁umrzeć -12365
▁skórz -12366
▁amator -12367
▁patron -12368
▁występy -12369
dziach -12370
▁połowa -12371
▁puszczy -12372
▁milczenie -12373
stel -12374
▁nieroz -12375
▁upew -12376
▁różnica -12377
▁có -12378
dows -12379
▁umysłu -12380
▁praktyce -12381
▁pozostałości -12382
▁rot -12383
letnią -12384
▁zezwo -12385
cjom -12386
▁130 -12387
manna -12388
▁udaw -12389
▁zegarek -12390
▁rozgrywki -12391
cych -12392
▁postana -12393
ball -12394
▁fau -12395
▁postacie -12396
phi -12397
▁ukończyła -12398
fę -12399
syn -12400
▁fri -12401
biony -12402
ownia -12403
▁nieustannie -12404
▁ron -12405
▁imprezy -12406
▁porucznik -12407
▁zbudowana -12408
▁klej -12409
ujących -12410
▁odnowi -12411
▁komedii -12412
▁resztki -12413
▁silniki -12414
▁swobodnie -12415
fem -12416
▁tkan -12417
▁nieważ -12418
▁odchodzi -12419
kłą -12420
lit -12421
ymet -12422
styka -12423
▁bern -12424
▁kilo -12425
▁brała -12426
▁siero -12427
▁piłsudskiego -12428
3). -12429
żeć -12430
braj -12431
▁stri -12432
▁istnieć -12433
▁wilhelma -12434
▁ministerstwie -12435
91 -12436
▁czerwona -12437
uję -12438
towano -12439
rzadziej -12440
▁nazwał -12441
▁astrono -12442
▁czeko -12443
▁wyspę -12444
▁magazynu -12445
▁skrzydeł -12446
▁37 -12447
dzane -12448
▁dowia -12449
▁napra -12450
▁biurze -12451
boga -12452
▁jeh -12453
▁adap -12454
▁nawo -12455
▁skalę -12456
▁valen -12457
▁kuchen -12458
▁pytał -12459
▁fotelu -12460
▁ciężkiej -12461
▁starszego -12462
▁nan -12463
▁berlina -12464
▁pamiętasz -12465
▁miejscowych -12466
wamy -12467
lacje -12468
▁dziewczynki -12469
▁agnieszka -12470
▁podkreśla -12471
▁zastanawiał -12472
▁korpus -12473
▁zakoch -12474
▁kilkadziesiąt -12475
▁wytwarz -12476
▁Świętej -12477
▁prym -12478
▁popie -12479
dt -12480
trzy -12481
▁chcemy -12482
ima -12483
▁pilot -12484
▁aktora -12485
rzymie -12486
▁faktu -12487
▁pionie -12488
▁zapoczątk -12489
▁urządzeń -12490
▁hat -12491
krotny -12492
▁wydawała -12493
dka -12494
▁niemo -12495
▁wojskową -12496
▁potwierdził -12497
▁usytu -12498
▁metoda -12499
ppe -12500
rok -12501
▁manife -12502
▁stworzyć -12503
▁oficera -12504
▁reformy -12505
▁relacje -12506
▁świadec -12507
▁ado -12508
▁losu -12509
▁kątem -12510
▁czując -12511
▁wymienia -12512
▁żydowskiego -12513
▁cudzo -12514
▁żywności -12515
odor -12516
▁arm -12517
▁losy -12518
▁gazet -12519
▁froncie -12520
▁pociągu -12521
▁sklepie -12522
▁sklepu -12523
cznikiem -12524
▁odm -12525
▁grób -12526
▁ukraińskiej -12527
owna -12528
sper -12529
▁pierś -12530
▁bramka -12531
▁dużego -12532
▁usprawiedli -12533
▁skarbu -12534
▁zwane -12535
▁piękną -12536
▁rodzaje -12537
▁medycyny -12538
▁mogąc -12539
▁czwartej -12540
▁prezentu -12541
▁krzysztofa -12542
▁dosłownie -12543
miony -12544
▁pożegna -12545
▁znanego -12546
▁barto -12547
▁salonu -12548
▁stając -12549
▁wsparcie -12550
▁poznańskiego -12551
jają -12552
▁zielone -12553
▁mine -12554
▁zdobi -12555
▁propor -12556
▁przebie -12557
▁lotnisko -12558
▁odpor -12559
▁jezior -12560
▁sebasti -12561
▁senator -12562
▁rosyjskim -12563
▁spada -12564
▁lepszy -12565
▁miesiąca -12566
▁wyjaśnić -12567
▁najszybciej -12568
ame -12569
▁rom -12570
▁oder -12571
▁przystąpił -12572
bow -12573
▁dykt -12574
▁rekor -12575
▁brzuch -12576
▁połączone -12577
lanej -12578
▁kaden -12579
▁należący -12580
▁religijnych -12581
▁zuch -12582
▁nadaje -12583
zin -12584
▁renes -12585
▁mogłoby -12586
▁wyelimin -12587
manów -12588
▁paula -12589
▁zofia -12590
▁wystarczyło -12591
tri -12592
ller -12593
ming -12594
▁cyr -12595
towana -12596
rzeniami -12597
sfak -12598
▁liter -12599
▁nieprzyjem -12600
"? -12601
89 -12602
cor -12603
osta -12604
▁staw -12605
▁marsz -12606
▁polecenie -12607
▁angielskim -12608
▁architektoni -12609
sport -12610
▁piln -12611
kowskim -12612
▁hitlera -12613
▁reg -12614
▁odejść -12615
▁uznała -12616
▁godzina -12617
▁dez -12618
▁eve -12619
kinie -12620
▁zapytać -12621
rym -12622
piał -12623
▁działała -12624
▁kut -12625
ranej -12626
▁mosza -12627
▁parti -12628
▁zwierz -12629
świ -12630
gol -12631
kop -12632
zen -12633
szny -12634
▁mamu -12635
▁artykułów -12636
cker -12637
tonu -12638
▁chmur -12639
▁wykonano -12640
▁poświęcił -12641
▁przypadków -12642
niętą -12643
▁niewielką -12644
▁nisko -12645
▁piani -12646
▁niedzielę -12647
▁opór -12648
▁bernar -12649
▁goście -12650
ccy -12651
▁clau -12652
▁ukrainie -12653
▁posą -12654
▁milion -12655
zowany -12656
▁ażeby -12657
▁promu -12658
▁paramet -12659
równ -12660
▁rocznie -12661
▁fryderyk -12662
▁dojść -12663
▁przeto -12664
▁wydano -12665
▁otworzyć -12666
bio -12667
▁wytwo -12668
▁afryce -12669
▁okazję -12670
▁oglądać -12671
▁szepnęła -12672
▁mis -12673
stąpić -12674
▁cholera -12675
▁albert -12676
▁przesłuch -12677
bon -12678
tero -12679
▁wik -12680
▁wiecie -12681
▁krześle -12682
▁ligowych -12683
▁muzycznych -12684
▁jakoby -12685
▁ulicą -12686
▁podstawy -12687
▁powinniśmy -12688
▁konsekwencji -12689
▁dalszym -12690
▁powstań -12691
▁zjawiska -12692
▁obowiązków -12693
lata -12694
▁1907 -12695
▁spojrzeć -12696
▁duszpaster -12697
jew -12698
▁pzpr -12699
▁tole -12700
▁gesta -12701
▁agencji -12702
▁mez -12703
▁jani -12704
▁przegląd -12705
▁pięci -12706
▁nagród -12707
dową -12708
▁niewątpliwie -12709
biej -12710
▁rolnictwa -12711
skając -12712
▁wasze -12713
▁spodnie -12714
▁rodzicami -12715
sat -12716
▁repres -12717
▁kapu -12718
▁wysoką -12719
▁występowała -12720
▁wieków -12721
▁papieru -12722
▁poprzednich -12723
▁odkrył -12724
bile -12725
▁niebawem -12726
▁ant -12727
▁gory -12728
▁próba -12729
▁ugo -12730
▁skur -12731
▁prawdą -12732
88 -12733
wól -12734
pola -12735
▁piłkarski -12736
bierał -12737
▁podjęła -12738
▁dorosłych -12739
▁koncertów -12740
▁redaktorem -12741
ymy -12742
▁hei -12743
▁net -12744
▁tytuły -12745
▁kaplica -12746
nus -12747
▁unosi -12748
▁wiarę -12749
▁olimpia -12750
▁współczesnej -12751
cielu -12752
▁długa -12753
▁schwy -12754
▁wysła -12755
kru -12756
spraw -12757
stitu -12758
▁dworzec -12759
▁łe -12760
▁sió -12761
▁wart -12762
▁komunik -12763
▁jagieł -12764
▁podstawowe -12765
▁kadrze -12766
▁rzeczą -12767
województwo -12768
▁dzia -12769
sławem -12770
▁sprzętu -12771
▁doskonał -12772
▁ash -12773
▁kompozytor -12774
skał -12775
▁potrzebował -12776
▁zarządzania -12777
▁sani -12778
▁konieczności -12779
▁rap -12780
▁trasa -12781
▁wojsku -12782
▁wieloma -12783
cre -12784
sal -12785
▁miro -12786
▁klini -12787
▁ojcze -12788
▁poszukiwania -12789
pty -12790
pani -12791
erson -12792
▁począł -12793
bani -12794
▁niżej -12795
▁federa -12796
▁1906 -12797
▁piwa -12798
▁prawdziwą -12799
▁zadowolony -12800
▁mający -12801
▁rozpoczyn -12802
▁ogon -12803
niczych -12804
▁chwile -12805
▁społecze -12806
▁łagodnie -12807
▁środkowej -12808
": -12809
1). -12810
jako -12811
▁jacob -12812
▁maryi -12813
▁francuskim -12814
▁koniecznie -12815
▁konfi -12816
▁ujrzał -12817
▁poparcie -12818
▁najświętszej -12819
▁księżna -12820
▁miłością -12821
▁publicznie -12822
▁nagrał -12823
▁szlaku -12824
pular -12825
▁Życie -12826
▁wieści -12827
▁gdańska -12828
▁skonstru -12829
▁właścicieli -12830
▁ciężkich -12831
alność -12832
▁odpowiednie -12833
▁wydawnictwa -12834
▁apli -12835
joni -12836
śnięte -12837
▁nakaz -12838
racał -12839
▁ukształ -12840
▁niewielka -12841
▁skutecznie -12842
▁hall -12843
▁zasu -12844
▁mg -12845
▁wnet -12846
▁agent -12847
▁kwesti -12848
▁klaszto -12849
▁przekonany -12850
▁zobaczyłem -12851
▁opiekę -12852
▁wiatru -12853
▁chodził -12854
▁chłopów -12855
▁odcinka -12856
▁otwarty -12857
▁dun -12858
▁podwó -12859
▁nominację -12860
▁fizj -12861
▁nawzajem -12862
fla -12863
aniom -12864
▁gdyni -12865
▁andrew -12866
▁stalin -12867
▁opisuje -12868
▁wypełnia -12869
łonę -12870
▁policję -12871
▁płaszczy -12872
mieśl -12873
▁wspólne -12874
▁wywodzi -12875
▁programów -12876
▁królewskiego -12877
▁nasy -12878
▁obwodu -12879
▁komer -12880
▁portuga -12881
▁uzd -12882
▁rodze -12883
▁sakso -12884
▁prawdziwa -12885
▁est -12886
▁palec -12887
4), -12888
▁1909 -12889
kowice -12890
▁anioł -12891
▁poślubi -12892
▁składała -12893
isa -12894
▁pradze -12895
▁wynalaz -12896
▁znalazłem -12897
▁stworzenie -12898
▁mio -12899
▁fazy -12900
▁piosenkar -12901
▁zin -12902
▁monarch -12903
▁komendant -12904
▁otoczeniu -12905
▁zatytułowany -12906
sjon -12907
▁spy -12908
tyków -12909
▁wydało -12910
▁postawił -12911
▁działaczy -12912
▁poszukiwaniu -12913
ryn -12914
▁naród -12915
▁nakazał -12916
▁zamknęła -12917
▁pomocnika -12918
mel -12919
▁cało -12920
▁Łódź -12921
▁dzwoni -12922
▁bolesław -12923
tic -12924
grani -12925
▁autorski -12926
▁myślenia -12927
dn -12928
▁zaprzyja -12929
ult -12930
▁wychowan -12931
inie -12932
▁zauważyć -12933
▁powszechnego -12934
▁szczegóły -12935
▁kryzys -12936
▁przymie -12937
ózł -12938
głym -12939
ganie -12940
5) -12941
▁fik -12942
czach -12943
▁sprę -12944
▁traci -12945
▁twórców -12946
▁ola -12947
▁spry -12948
nących -12949
▁narodowym -12950
cyn -12951
kwd -12952
▁gö -12953
jenia -12954
▁popad -12955
▁stabi -12956
▁zanied -12957
▁stają -12958
▁osobie -12959
▁zdarzyło -12960
cowych -12961
▁pewny -12962
▁alkoholu -12963
▁komunistycznej -12964
▁ubi -12965
▁komuś -12966
▁obawy -12967
▁starą -12968
▁sztafe -12969
▁kolejności -12970
dźców -12971
▁wzruszył -12972
▁ósm -12973
▁serw -12974
▁dodatek -12975
▁podwór -12976
▁poszczególne -12977
▁odpra -12978
▁zasięg -12979
..." -12980
▁dawny -12981
▁cmentarza -12982
wsp -12983
towego -12984
▁kursu -12985
▁gardło -12986
tce -12987
▁may -12988
▁wsk -12989
▁lorda -12990
▁zagrała -12991
▁zwróciła -12992
mil -12993
vers -12994
▁mai -12995
cając -12996
▁cieniu -12997
▁kierunek -12998
asy -12999
▁tył -13000
▁zamont -13001
▁sumienia -13002
▁emeryturę -13003
szący -13004
świat -13005
bridge -13006
▁koloru -13007
▁palców -13008
▁stypen -13009
▁istniały -13010
▁narodowości -13011
owisko -13012
▁doprowadziło -13013
▁chory -13014
▁koncepcji -13015
gana -13016
dzało -13017
▁wodza -13018
▁negocja -13019
▁zaczęłam -13020
▁rozpowszechni -13021
▁holly -13022
▁infra -13023
▁zostaną -13024
▁określenia -13025
bać -13026
leya -13027
went -13028
▁dają -13029
bir -13030
▁niepokój -13031
▁rozpaczy -13032
▁haw -13033
▁kenne -13034
▁zaspo -13035
▁nadano -13036
▁salonie -13037
▁przeznaczone -13038
▁fio -13039
▁morskiej -13040
▁ludzkiego -13041
▁marce -13042
▁ferdyn -13043
/0 -13044
▁haj -13045
▁emocji -13046
▁pomyślałam -13047
ździ -13048
chuje -13049
▁galak -13050
stracji -13051
▁wybrać -13052
▁wyższe -13053
▁wskazów -13054
▁marszałka -13055
▁przyjemności -13056
▁mone -13057
▁głodu -13058
▁jéj -13059
▁ofiarą -13060
▁zainstal -13061
▁indywidualnych -13062
▁grodzi -13063
▁licząc -13064
▁pomoże -13065
▁asystent -13066
▁wystartował -13067
ida -13068
▁łamach -13069
▁patriar -13070
▁berli -13071
▁rozciąga -13072
▁siedzieć -13073
6). -13074
▁jehowy -13075
▁punktem -13076
▁przeszłość -13077
▁samochodem -13078
wień -13079
▁dolina -13080
podal -13081
▁odpły -13082
▁sprzedał -13083
▁pełnej -13084
▁zremis -13085
▁ik -13086
szyło -13087
▁sercem -13088
▁przyjaźń -13089
▁dziennikar -13090
▁fale -13091
▁klem -13092
▁sycy -13093
▁trzydziestu -13094
▁hill -13095
▁znaki -13096
▁odwagi -13097
▁wyobraźni -13098
▁równ -13099
▁owego -13100
▁starając -13101
▁podobnego -13102
goty -13103
▁puste -13104
▁sesji -13105
▁nazwiskiem -13106
uli -13107
▁łez -13108
cowej -13109
▁kościołów -13110
▁utworzenia -13111
▁okolice -13112
▁modlitwy -13113
▁przypada -13114
▁rzemieśl -13115
▁świętych -13116
▁(190 -13117
▁hart -13118
▁architekt -13119
▁funkcjonuje -13120
▁rządy -13121
▁wrogów -13122
▁dowodów -13123
▁demokratycznej -13124
▁[] -13125
▁wbi -13126
▁diagno -13127
▁uzyskując -13128
▁holo -13129
▁szor -13130
▁galer -13131
▁bezskute -13132
▁instynkt -13133
▁65 -13134
szku -13135
▁wikar -13136
▁lekkoat -13137
▁referen -13138
▁najstarszy -13139
▁dwuna -13140
noś -13141
▁tay -13142
▁nasta -13143
▁zepsu -13144
▁laboratorium -13145
▁teoria -13146
▁idi -13147
▁obserwacji -13148
▁auf -13149
▁bież -13150
▁data -13151
▁reelek -13152
▁państwowego -13153
▁murów -13154
▁odkryto -13155
▁począwszy -13156
▁zachodnio -13157
▁zakładach -13158
thy -13159
▁cri -13160
▁nea -13161
▁out -13162
▁oparty -13163
okrotnie -13164
▁autenty -13165
spe -13166
▁0: -13167
miały -13168
▁wolnych -13169
▁absolwent -13170
▁pozwoliła -13171
pce -13172
nicę -13173
▁zapu -13174
darność -13175
▁siedzieli -13176
tyzmu -13177
▁sprzymie -13178
▁szukając -13179
▁światową -13180
▁wywia -13181
▁stację -13182
▁wicemistrz -13183
top -13184
▁lista -13185
cyjnymi -13186
▁wysoka -13187
▁przecho -13188
▁błą -13189
▁prop -13190
▁bułgarii -13191
droż -13192
pione -13193
▁równolegle -13194
▁niewia -13195
▁nauczył -13196
▁przyjść -13197
▁ośrodkiem -13198
▁szkolenia -13199
▁gubernator -13200
▁nazw -13201
▁kolory -13202
▁głęboki -13203
▁najpięk -13204
▁pracach -13205
▁nieopodal -13206
▁ogólnopol -13207
▁nob -13208
▁nata -13209
▁odtwo -13210
▁wiosen -13211
sla -13212
▁raport -13213
▁wydaniu -13214
▁lotniska -13215
▁wykorzystywane -13216
▁nkwd -13217
▁uznany -13218
▁prawdziwym -13219
piąc -13220
▁łóżko -13221
▁końcem -13222
▁przesa -13223
▁środowisku -13224
▁kalibru -13225
▁lasach -13226
▁załoga -13227
▁kanadzie -13228
▁okolicznościach -13229
▁lucy -13230
▁dyspon -13231
▁kandyd -13232
▁sukcesu -13233
bój -13234
nowe -13235
▁zdej -13236
▁kowal -13237
▁przybyli -13238
▁chmury -13239
▁wpływu -13240
▁zniszczenia -13241
▁ruchy -13242
▁służą -13243
▁klo -13244
▁sut -13245
▁wei -13246
▁pewności -13247
▁wó -13248
szcząc -13249
lektury -13250
▁końców -13251
▁zabawy -13252
▁uśmiechu -13253
▁nauczyciela -13254
▁milczał -13255
▁mickiewicza -13256
stin -13257
▁acz -13258
▁white -13259
▁zaśpie -13260
▁dokonać -13261
▁dowództwa -13262
▁juda -13263
▁popę -13264
▁prosta -13265
wcześniej -13266
▁wyposażony -13267
▁ekspres -13268
▁szeregu -13269
ologicznej -13270
4). -13271
yne -13272
▁żelaza -13273
▁fotografii -13274
▁wprowadzenie -13275
▁arno -13276
▁patrzę -13277
▁budowli -13278
▁chinach -13279
▁ogromną -13280
▁biskupów -13281
▁odna -13282
letnia -13283
▁ludzkości -13284
▁temperatury -13285
ab -13286
iusza -13287
▁uefa -13288
▁zabitych -13289
▁emigracji -13290
▁kasy -13291
▁kluby -13292
▁zapadła -13293
▁rosyjskie -13294
▁250 -13295
▁hos -13296
założy -13297
▁korzyści -13298
towi -13299
trafi -13300
łyśmy -13301
▁wygła -13302
ан -13303
▁coro -13304
▁podobna -13305
▁wyznania -13306
▁przerwała -13307
▁Św -13308
owemu -13309
szają -13310
▁wasz -13311
▁reich -13312
▁prototyp -13313
rans -13314
dzały -13315
▁anie -13316
czasie -13317
▁mk -13318
▁roma -13319
▁piecho -13320
▁każdemu -13321
▁poprawi -13322
▁niezwykł -13323
93 -13324
cząt -13325
▁hydro -13326
chaliśmy -13327
▁maksymi -13328
▁9. -13329
▁mianem -13330
▁galicji -13331
▁pisarzy -13332
▁rados -13333
▁zawodowych -13334
▁amerykańskim -13335
▁opuściła -13336
▁papierosa -13337
stoku -13338
▁liga -13339
▁dekla -13340
▁gward -13341
▁dzieciom -13342
▁czasopisma -13343
▁dwudziesto -13344
▁północnego -13345
▁radzieckiej -13346
ffe -13347
▁przejm -13348
▁słyszała -13349
▁wychodząc -13350
szoną -13351
▁święty -13352
▁klientów -13353
▁nieoczeki -13354
▁samorzą -13355
▁sanitar -13356
▁przenosi -13357
list -13358
▁owym -13359
▁odwoł -13360
▁termina -13361
▁tłumaczy -13362
▁państwowe -13363
▁konserwatyw -13364
karpa -13365
▁poki -13366
▁uhonor -13367
▁projektów -13368
dowali -13369
niemie -13370
▁żydowskich -13371
▁przepisy -13372
▁silników -13373
:] -13374
▁wys -13375
▁podpi -13376
▁rozpat -13377
▁kalenda -13378
kano -13379
more -13380
▁pieśń -13381
▁nieźle -13382
▁zdobyli -13383
▁skierowany -13384
__ -13385
▁gusta -13386
▁odbywają -13387
▁wędrów -13388
▁zastępcy -13389
-16 -13390
▁aj -13391
▁obcią -13392
▁gromad -13393
▁sformuł -13394
hard -13395
▁bronił -13396
▁uznanie -13397
▁przyciąg -13398
▁kontaktu -13399
▁zuży -13400
▁nadej -13401
sing -13402
▁boż -13403
▁wyszu -13404
▁Świąty -13405
”), -13406
▁wiru -13407
▁piśmie -13408
▁odwiedził -13409
▁składają -13410
▁okolicznych -13411
▁młyn -13412
▁artykuły -13413
▁turystów -13414
iro -13415
▁gum -13416
▁wstą -13417
waliśmy -13418
▁zostają -13419
▁mianował -13420
▁prokurator -13421
▁wiod -13422
ńskimi -13423
▁panów -13424
▁koor -13425
▁sznur -13426
▁turniejach -13427
mum -13428
▁weł -13429
▁buda -13430
czniej -13431
▁nierów -13432
▁rzeczywistość -13433
rację -13434
▁śladu -13435
▁szkocji -13436
▁średnio -13437
▁pseudoni -13438
bec -13439
▁loj -13440
▁jadwi -13441
▁rozmie -13442
▁magdale -13443
▁hot -13444
▁rych -13445
▁objaw -13446
▁będące -13447
▁kategor -13448
▁siedziby -13449
▁rea -13450
▁chorą -13451
▁dozna -13452
▁rzadziej -13453
▁nauczycieli -13454
▁umieszczone -13455
ic -13456
plan -13457
▁coun -13458
▁owych -13459
▁jedzie -13460
▁rzeźby -13461
▁wynios -13462
▁trudniej -13463
▁wychy -13464
▁śmiech -13465
gara -13466
▁fos -13467
▁pobi -13468
▁dzierża -13469
▁ekspedy -13470
▁wspomnień -13471
▁właśc -13472
▁dostrzec -13473
zak -13474
▁hut -13475
▁pochylił -13476
▁podstawą -13477
▁mniejszości -13478
▁ocenia -13479
▁krzesło -13480
▁znajdujący -13481
▁charlie -13482
▁gród -13483
ceniem -13484
▁przebi -13485
▁wesoło -13486
▁wznowi -13487
▁krawędzi -13488
▁przyczynił -13489
▁copa -13490
▁stawał -13491
▁dolnoślą -13492
owcu -13493
▁wydane -13494
▁green -13495
▁serię -13496
▁nauczyć -13497
vil -13498
▁42 -13499
▁symbol -13500
▁rezerwy -13501
▁studium -13502
jny -13503
▁800 -13504
▁wstyd -13505
▁ryszard -13506
▁wiecznie -13507
▁naukowego -13508
▁zakończenia -13509
%) -13510
cjusz -13511
▁paste -13512
dzielni -13513
▁krytyków -13514
▁mniejszych -13515
uni -13516
unkami -13517
▁oceny -13518
▁macedo -13519
▁szerokie -13520
▁kardynała -13521
▁kalifornii -13522
asu -13523
otę -13524
cowe -13525
▁biod -13526
▁topo -13527
▁zwień -13528
▁wyjeżdża -13529
▁wicepreze -13530
▁zatrzymała -13531
dney -13532
▁posy -13533
spodar -13534
stępując -13535
▁pozostawi -13536
▁płuc -13537
▁odnaj -13538
▁puszcza -13539
▁kryształ -13540
▁metod -13541
▁doczek -13542
▁stolicą -13543
▁gold -13544
▁straszne -13545
▁dziewiętna -13546
oj -13547
cik -13548
wską -13549
▁obiecu -13550
▁przero -13551
▁chcecie -13552
▁starcie -13553
▁pomyśleć -13554
▁śniadanie -13555
▁przypomniała -13556
▁rozd -13557
▁piasku -13558
▁pociągi -13559
▁osobowości -13560
▁utrzymanie -13561
stwu -13562
▁podda -13563
▁młodym -13564
▁siłami -13565
▁przypisy -13566
▁konstrukcja -13567
tv -13568
▁miną -13569
szyn -13570
dowany -13571
▁piask -13572
▁metodą -13573
▁wyszło -13574
▁ela -13575
▁zadr -13576
▁reper -13577
▁domach -13578
▁kapelusz -13579
fikacja -13580
▁bombar -13581
wir -13582
▁oświe -13583
▁władza -13584
▁polityczny -13585
▁naprzeciwko -13586
▁występowania -13587
feld -13588
tnika -13589
▁aspek -13590
▁potok -13591
▁jeziorem -13592
szewskiego -13593
▁wykształcenie -13594
▁ważny -13595
▁stulecia -13596
▁zwycięstw -13597
1), -13598
▁wami -13599
▁niena -13600
▁kolanach -13601
▁patrioty -13602
▁przegrywając -13603
9) -13604
▁ukazy -13605
▁wietna -13606
▁wysokiego -13607
▁powodzeniem -13608
ryz -13609
var -13610
▁przemówi -13611
▁ciepła -13612
▁tarnow -13613
▁reaktyw -13614
tyfik -13615
▁step -13616
▁tato -13617
▁majora -13618
ownikiem -13619
▁chłopaka -13620
▁atmosfery -13621
andra -13622
▁schu -13623
▁prowo -13624
▁przemyśle -13625
▁zabr -13626
termin -13627
▁granica -13628
▁obliczu -13629
▁wykonany -13630
▁małgorzata -13631
budowę -13632
▁zerwał -13633
▁rosjanie -13634
▁wykonanie -13635
▁przeniosła -13636
▁odróżnieniu -13637
▁telewizyjnych -13638
▁bec -13639
▁ope -13640
▁upa -13641
▁dyskre -13642
▁pomarańcz -13643
▁męczen -13644
▁wnętrzu -13645
▁rodzajów -13646
▁1904 -13647
▁wymiany -13648
▁nieświad -13649
▁francisco -13650
▁pochodzenie -13651
▁temperatura -13652
▁oknem -13653
▁rzekę -13654
tin -13655
▁uru -13656
▁wierzch -13657
char -13658
▁tory -13659
▁poszli -13660
▁okazały -13661
▁odpowiadał -13662
▁dzieciństwie -13663
▁ozdobi -13664
kta -13665
najmniej -13666
▁prestiż -13667
▁międzynarodowy -13668
▁energe -13669
▁etapie -13670
▁litery -13671
▁wszelką -13672
▁infrastru -13673
szar -13674
▁włók -13675
▁rywalizacji -13676
▁dwiema -13677
▁atlanty -13678
▁jednozna -13679
tre -13680
anką -13681
boli -13682
cial -13683
▁pojm -13684
▁minęło -13685
▁spadła -13686
artagnan -13687
▁tel -13688
▁hami -13689
▁jast -13690
▁ustęp -13691
▁przepu -13692
▁przeklę -13693
▁strefie -13694
▁zawodu -13695
kujących -13696
▁przebojów -13697
▁przedszko -13698
▁podjęto -13699
▁czechosłowacji -13700
lię -13701
stce -13702
▁sztab -13703
▁wychowa -13704
▁konspira -13705
lea -13706
▁popły -13707
▁wysze -13708
▁oddano -13709
▁pozwól -13710
▁nastawi -13711
▁kierownika -13712
▁sądzi -13713
▁wolnym -13714
▁galerii -13715
▁moł -13716
▁tkwi -13717
▁śmigł -13718
▁przydom -13719
▁studiach -13720
▁królewski -13721
istów -13722
▁szkła -13723
▁zapar -13724
▁wzboga -13725
▁zareag -13726
▁przełęcz -13727
▁zrobiłem -13728
▁komendanta -13729
▁publiczności -13730
▁rozumu -13731
▁miliony -13732
skrzy -13733
▁kieł -13734
▁wymia -13735
▁nominacje -13736
▁55 -13737
szanie -13738
▁lecie -13739
▁grzbiet -13740
▁koncerty -13741
▁cesarstwa -13742
▁niesamowi -13743
zym -13744
▁tab -13745
▁kamp -13746
▁weszły -13747
▁bolesława -13748
▁wyników -13749
▁miłosier -13750
▁pokręcił -13751
▁twe -13752
▁uss -13753
▁fizyki -13754
▁prywatne -13755
▁stawia -13756
▁duchowny -13757
▁zachowała -13758
▁komo -13759
▁zasil -13760
▁górnym -13761
▁senatu -13762
▁zamyka -13763
▁zdrowo -13764
▁królowi -13765
▁skoczni -13766
▁wyruszył -13767
▁międzynarodowym -13768
▁obraca -13769
▁gnieźnie -13770
▁skrzydło -13771
▁marszałek -13772
▁det -13773
▁doch -13774
▁domyśl -13775
▁egiptu -13776
▁przyrze -13777
▁różnice -13778
▁podniesi -13779
▁przekonania -13780
▁44 -13781
conej -13782
▁wydać -13783
▁nieprawda -13784
rzyłam -13785
▁zapan -13786
▁osiadł -13787
▁kadłuba -13788
głego -13789
▁basen -13790
▁listopad -13791
▁określić -13792
▁stadionie -13793
▁cukier -13794
▁podchodzi -13795
▁katolickiej -13796
▁rozpę -13797
▁otu -13798
▁czytał -13799
▁decyzją -13800
▁indiach -13801
▁trwania -13802
ey -13803
urą -13804
▁nędz -13805
▁nadwo -13806
▁dyspozycji -13807
▁napisać -13808
▁niepowo -13809
▁słyszałam -13810
vd -13811
▁lech -13812
▁niespeł -13813
▁williama -13814
▁ah -13815
▁otto -13816
logiczne -13817
▁obronił -13818
▁zorganizował -13819
wei -13820
dzką -13821
▁neu -13822
▁draż -13823
▁uczyć -13824
▁potrzebuję -13825
amerykań -13826
▁odbiera -13827
szczył -13828
▁metalu -13829
▁słowach -13830
▁gospodarz -13831
▁stronnictwa -13832
bły -13833
▁6, -13834
▁kö -13835
▁metry -13836
▁ciężki -13837
▁american -13838
▁szczątki -13839
▁hoł -13840
▁obrzę -13841
▁prosił -13842
▁słusznie -13843
▁poniedział -13844
lów -13845
jali -13846
▁treść -13847
arm -13848
▁pch -13849
▁słowi -13850
▁znajomości -13851
▁kota -13852
▁mito -13853
▁krasno -13854
▁okazać -13855
▁prosić -13856
▁życzli -13857
ót -13858
▁zdob -13859
śników -13860
▁chwyta -13861
▁spadek -13862
▁przetłuma -13863
lind -13864
▁how -13865
ralny -13866
▁barbara -13867
▁uważają -13868
▁symbolem -13869
▁santa -13870
▁twórca -13871
▁zastępca -13872
mak -13873
żen -13874
▁uwi -13875
▁steve -13876
▁spokojny -13877
▁blues -13878
▁górno -13879
▁mięsa -13880
▁zadzi -13881
▁badanie -13882
▁chciało -13883
▁starsza -13884
▁scie -13885
▁davida -13886
▁świadkiem -13887
iera -13888
▁heli -13889
cym -13890
low -13891
▁kapel -13892
▁odtwa -13893
czników -13894
▁przyznała -13895
gy -13896
mas -13897
▁bliż -13898
▁nowak -13899
▁albowiem -13900
▁mieszkani -13901
▁this -13902
▁kaszu -13903
▁stylem -13904
▁zakres -13905
▁poznała -13906
är -13907
rak -13908
▁abym -13909
▁poem -13910
▁dziennie -13911
ologicznego -13912
▁używać -13913
▁nazwano -13914
▁nik -13915
letów -13916
czości -13917
▁dekan -13918
▁przeżyć -13919
▁zastosowano -13920
hama -13921
▁guzi -13922
▁wach -13923
▁włoskiej -13924
▁charlotte -13925
▁oczywiste -13926
▁wrocławia -13927
▁prawdopodobie -13928
▁für -13929
atury -13930
▁team -13931
▁walen -13932
▁zaple -13933
▁talent -13934
▁wyszli -13935
▁równowagi -13936
nali -13937
▁damy -13938
▁dreszcz -13939
▁zdarzenia -13940
▁stwierdzono -13941
ctw -13942
chester -13943
▁wpływy -13944
skali -13945
▁oknie -13946
▁zawiad -13947
▁nerwowo -13948
▁protest -13949
▁krajowych -13950
▁porozumie -13951
▁odsu -13952
▁kanoni -13953
▁satysfak -13954
▁otrzymali -13955
6), -13956
prz -13957
▁przypomnieć -13958
▁anoni -13959
▁zwrócić -13960
▁najwyższego -13961
▁pery -13962
▁put -13963
▁lada -13964
▁ogólnie -13965
▁odcinków -13966
słą -13967
▁kark -13968
▁4: -13969
cjum -13970
▁dyry -13971
▁pokarm -13972
▁gruntow -13973
▁porówny -13974
tio -13975
kane -13976
▁dramacie -13977
ror -13978
▁szczecinie -13979
87 -13980
kany -13981
▁zur -13982
sters -13983
▁bundes -13984
▁nazwać -13985
tacją -13986
liwości -13987
▁listów -13988
▁rozgło -13989
▁Żu -13990
waju -13991
▁zamiaru -13992
▁mających -13993
▁skutkiem -13994
▁ire -13995
▁zbudowane -13996
▁zesł -13997
▁składał -13998
▁porządek -13999
▁szczęśliwa -14000
▁psów -14001
▁zatoki -14002
▁ważnych -14003
lnika -14004
qui -14005
▁tarno -14006
▁chorób -14007
▁przeze -14008
▁sposoby -14009
▁godności -14010
▁obecnych -14011
▁telewizyjny -14012
▁akcję -14013
▁gniewu -14014
gowie -14015
▁wagi -14016
▁long -14017
▁opieką -14018
▁przesunię -14019
ms -14020
ficer -14021
rey -14022
▁staj -14023
▁czaro -14024
▁skutku -14025
▁wiedzę -14026
▁prawnik -14027
▁schodzi -14028
▁złożone -14029
▁zjednoczone -14030
gują -14031
▁kwie -14032
▁estety -14033
▁39 -14034
▁armią -14035
▁maciu -14036
ńskiemu -14037
▁słońcu -14038
▁klimaty -14039
▁pracownik -14040
▁samodzielnie -14041
lonie -14042
▁fern -14043
▁cechą -14044
▁transfer -14045
▁klasztorze -14046
ronić -14047
▁base -14048
▁carlo -14049
▁chału -14050
▁doznał -14051
▁gromady -14052
▁złotego -14053
iło -14054
▁minutach -14055
ychu -14056
▁gotowe -14057
▁obozów -14058
▁sióstr -14059
▁otoczony -14060
▁poparcia -14061
▁north -14062
▁stalina -14063
▁niejedno -14064
▁przechodząc -14065
zienia -14066
zienie -14067
▁zawah -14068
▁gotowy -14069
▁partie -14070
▁uciekać -14071
▁mieszkało -14072
▁wezwaniem -14073
new -14074
▁niepeł -14075
▁znaczne -14076
▁dzisiejszej -14077
▁przypominał -14078
▁etap -14079
▁tatar -14080
arty -14081
▁grab -14082
▁rzece -14083
▁znajdujące -14084
▁gazu -14085
▁gorąco -14086
▁niewielkim -14087
▁rusi -14088
▁darem -14089
▁rozróż -14090
▁fote -14091
▁ranka -14092
▁zażąd -14093
bom -14094
lonych -14095
▁kartkę -14096
ex -14097
wit -14098
▁jał -14099
▁zata -14100
▁wyczy -14101
▁island -14102
▁objęła -14103
▁powołano -14104
cra -14105
▁jamesa -14106
▁otrzymuje -14107
▁hym -14108
▁uka -14109
dią -14110
▁nawi -14111
▁pobu -14112
▁widy -14113
▁dowody -14114
▁użycia -14115
8) -14116
▁pkp -14117
▁poty -14118
▁patrol -14119
▁obszarów -14120
▁wypożyczony -14121
▁bą -14122
▁var -14123
▁schody -14124
▁czysto -14125
▁zmarłego -14126
opera -14127
▁louis -14128
▁spodob -14129
▁(4 -14130
czam -14131
tywa -14132
▁wybrano -14133
▁przegrała -14134
▁eur -14135
▁skoru -14136
▁odmiany -14137
▁wyrazem -14138
▁dwunastu -14139
▁najlepszą -14140
von -14141
▁benzy -14142
▁uchwy -14143
▁wspominał -14144
▁uś -14145
owiu -14146
giego -14147
▁listu -14148
▁pamiętaj -14149
▁zachodni -14150
▁radzieckich -14151
▁umieszczony -14152
.... -14153
hand -14154
▁rasy -14155
▁władca -14156
▁słucham -14157
▁włosach -14158
▁bliska -14159
▁drukar -14160
▁kompet -14161
▁spotkała -14162
▁krzyknęła -14163
▁francuskie -14164
▁chwa -14165
zowane -14166
▁zwana -14167
▁propon -14168
▁nies -14169
▁podstawowa -14170
ffen -14171
roku -14172
▁ami -14173
▁zbad -14174
▁rudol -14175
▁biurku -14176
▁merkel -14177
▁waldem -14178
gając -14179
▁ogląda -14180
▁królestwo -14181
▁pono -14182
dących -14183
▁hebraj -14184
▁jakimi -14185
▁zniesi -14186
▁starała -14187
▁transpor -14188
▁społeczeństwo -14189
▁wolf -14190
▁złość -14191
▁podjąć -14192
▁normalnie -14193
lope -14194
żają -14195
▁komand -14196
▁wskazując -14197
▁wewnętrznej -14198
cara -14199
ścili -14200
▁norm -14201
▁dominik -14202
▁role -14203
▁zagła -14204
▁dziwny -14205
▁gdańsk -14206
▁jedwab -14207
▁utrzymywał -14208
▁zaje -14209
▁świadczy -14210
▁elizabeth -14211
▁petersburgu -14212
▁awi -14213
▁etni -14214
▁powróciła -14215
▁rozmawiał -14216
órz -14217
▁ms -14218
▁lato -14219
▁zagrożenie -14220
▁dziennikarzy -14221
gował -14222
▁bezna -14223
▁sztukę -14224
▁drewniane -14225
▁naczelnym -14226
▁ćwierćfin -14227
▁misj -14228
kowymi -14229
▁porta -14230
▁kwestia -14231
▁panował -14232
▁śmiechu -14233
▁rekon -14234
▁marcina -14235
▁napisem -14236
▁gej -14237
▁kręgu -14238
▁berlin -14239
▁ciemność -14240
▁portugalii -14241
▁współcześnie -14242
wasz -14243
▁gestapo -14244
▁jarosław -14245
lono -14246
▁lun -14247
▁podje -14248
▁zakłada -14249
▁przyszły -14250
▁rucho -14251
▁skrze -14252
▁wątro -14253
▁silnikiem -14254
▁rzymskiego -14255
czami -14256
dziano -14257
ralnego -14258
▁austro -14259
▁dobrowo -14260
▁kolorze -14261
▁lubelskim -14262
▁należących -14263
▁ośmie -14264
▁spory -14265
▁konstru -14266
▁finlandii -14267
▁społeczny -14268
▁kawałki -14269
▁planety -14270
jon -14271
puje -14272
tine -14273
▁notat -14274
▁biegiem -14275
▁finansowych -14276
▁1,5 -14277
▁som -14278
▁luksem -14279
▁przygląd -14280
▁człowieku -14281
▁stanowisk -14282
▁przyjaciółmi -14283
ann -14284
cowi -14285
raną -14286
niłem -14287
czyłam -14288
dum -14289
nkę -14290
▁błyszcz -14291
▁problemem -14292
▁pisania -14293
blą -14294
strem -14295
▁głupie -14296
▁wpadła -14297
▁jugosławii -14298
▁pochodzący -14299
▁docze -14300
▁położyła -14301
hou -14302
jn -14303
krew -14304
▁sprzyja -14305
▁stoliku -14306
▁wyciągnęła -14307
▁pps -14308
▁upi -14309
▁namal -14310
▁miejski -14311
▁generalny -14312
▁dokumentach -14313
▁ante -14314
▁spełnia -14315
▁frankfur -14316
▁radością -14317
soci -14318
słych -14319
prawdy -14320
▁plaży -14321
▁piętro -14322
▁wnętrz -14323
▁pozwoliło -14324
▁przygotować -14325
▁onz -14326
▁gabrie -14327
▁podnios -14328
ping -14329
▁litwie -14330
▁mete -14331
▁rozba -14332
▁sławę -14333
▁różnymi -14334
demokraty -14335
▁nakładem -14336
▁oprogram -14337
▁zawartość -14338
▁generalnym -14339
▁rebe -14340
▁zgła -14341
obserw -14342
▁trzymała -14343
▁Śre -14344
▁kopy -14345
▁wszelki -14346
▁zbrodnia -14347
▁stosowany -14348
▁kandydatów -14349
5). -14350
wład -14351
▁muru -14352
▁grzego -14353
▁traw -14354
▁bandy -14355
▁rozkosz -14356
▁traktatu -14357
▁wykonuje -14358
7). -14359
▁lęk -14360
▁wle -14361
▁house -14362
▁czerwono -14363
▁produkowany -14364
ume -14365
▁królów -14366
▁włoskiego -14367
luje -14368
▁dołu -14369
▁jesieni -14370
▁wybudowany -14371
ciał -14372
▁naft -14373
▁fundacja -14374
▁szkołach -14375
▁wojennego -14376
▁navy -14377
szkiem -14378
▁styli -14379
▁belgij -14380
▁górnego -14381
▁zrzu -14382
▁blask -14383
▁pierre -14384
▁wydost -14385
▁największa -14386
▁zrozumiała -14387
▁prezydentem -14388
lanu -14389
▁ear -14390
▁kame -14391
grantów -14392
▁objawy -14393
▁miesiącu -14394
▁łazienki -14395
▁zwolenników -14396
▁uniwers -14397
▁podkreśl -14398
miać -14399
▁zan -14400
▁dama -14401
▁monar -14402
▁przyjaciółki -14403
▁bakter -14404
▁zbliżył -14405
▁upamiętnia -14406
▁wyposażenia -14407
lili -14408
▁prosty -14409
tte -14410
akami -14411
▁odcię -14412
▁cieszył -14413
▁dyskusji -14414
▁wywoły -14415
▁skończyć -14416
▁bost -14417
▁sprin -14418
▁książąt -14419
▁wejściu -14420
▁wysiłku -14421
▁kiw -14422
▁lodów -14423
▁przemów -14424
▁mened -14425
▁placówki -14426
▁świątynia -14427
gem -14428
ins -14429
▁klam -14430
▁getta -14431
▁karto -14432
▁tańca -14433
▁lśni -14434
▁zezn -14435
▁zakłó -14436
▁obiecał -14437
▁pluton -14438
▁lekarzy -14439
▁międzyczasie -14440
▁przeznaczony -14441
tm -14442
▁rudy -14443
▁schodów -14444
▁piłkarzem -14445
5), -14446
▁lewym -14447
▁akcent -14448
▁działają -14449
▁kosmo -14450
▁bogiem -14451
▁produktów -14452
▁uczestnik -14453
▁pozbawiony -14454
▁bunt -14455
▁waliz -14456
▁wybrzeżu -14457
▁niechętnie -14458
tło -14459
▁dram -14460
▁warzy -14461
zz -14462
grab -14463
▁sent -14464
▁wykładał -14465
▁informaty -14466
▁łzami -14467
▁ofensy -14468
▁portret -14469
yn -14470
▁gwardii -14471
▁miejscowej -14472
cks -14473
▁mr -14474
▁albumie -14475
▁napisała -14476
▁reelekcję -14477
dowski -14478
▁faszy -14479
▁medalem -14480
▁specjalny -14481
tyzm -14482
▁bramę -14483
▁nazist -14484
▁walter -14485
▁zapisy -14486
▁wyjściu -14487
▁fach -14488
▁sandomier -14489
▁samochodzie -14490
▁nowojor -14491
▁odwróci -14492
▁pamiętał -14493
▁utworzony -14494
▁kancelarii -14495
▁orto -14496
▁owej -14497
▁wódz -14498
▁finansowe -14499
▁lotniczych -14500
▁wychowania -14501
▁uznaje -14502
▁winter -14503
▁law -14504
▁udać -14505
▁następcą -14506
▁przeciąg -14507
▁xxi -14508
▁arth -14509
▁prasy -14510
▁rozumiał -14511
81 -14512
▁nauka -14513
▁państwie -14514
▁przyprowa -14515
▁roześmiał -14516
▁przypi -14517
▁oddziela -14518
▁gospodarstw -14519
ronów -14520
▁mile -14521
▁ulgą -14522
▁filiż -14523
▁muzyką -14524
▁niesie -14525
▁zachor -14526
▁członkami -14527
▁wprowadza -14528
-6 -14529
pł -14530
gają -14531
▁cudem -14532
▁stwa -14533
▁wyraził -14534
▁informację -14535
▁wolnelektury -14536
dzącej -14537
▁dodać -14538
▁inform -14539
▁królową -14540
rera -14541
▁tropi -14542
▁gwaran -14543
▁dostate -14544
▁precyzyj -14545
▁dana -14546
▁chęci -14547
▁pozbyć -14548
▁pojawiło -14549
▁grod -14550
▁alice -14551
▁czyste -14552
▁wydzie -14553
▁perspektywy -14554
▁kierownictwo -14555
▁wykorzystuje -14556
jnej -14557
▁pazno -14558
▁wykonać -14559
▁Łę -14560
▁cru -14561
▁zno -14562
trwał -14563
▁żało -14564
▁biblio -14565
▁budape -14566
▁istotne -14567
▁pamiątk -14568
▁orę -14569
▁salę -14570
▁chorobę -14571
▁pacjent -14572
▁samobójstwo -14573
▁dachem -14574
▁konfede -14575
▁anim -14576
▁prawym -14577
▁dziełem -14578
▁minucie -14579
▁kei -14580
bione -14581
przed -14582
▁zacie -14583
▁brytyjskie -14584
▁postanowili -14585
▁południowego -14586
▁podzielił -14587
▁mgła -14588
▁koalicji -14589
▁leczenie -14590
▁mniejsza -14591
loty -14592
biscy -14593
▁siera -14594
▁statki -14595
▁zamknięty -14596
▁mości -14597
▁okolic -14598
▁chrzest -14599
▁wskazują -14600
▁zdy -14601
▁namiest -14602
▁tomasza -14603
ostat -14604
▁rachu -14605
▁przecią -14606
▁systemy -14607
], -14608
éri -14609
▁uraz -14610
▁wróż -14611
▁pości -14612
▁żonie -14613
▁biskupem -14614
▁luź -14615
odręb -14616
▁mówiłam -14617
▁łączności -14618
źnik -14619
ratów -14620
▁wrest -14621
▁zmarłych -14622
ew -14623
▁musz -14624
▁ellen -14625
▁zgoła -14626
▁podała -14627
▁odku -14628
▁odwró -14629
▁muzyczne -14630
▁zdecydowała -14631
▁skierował -14632
▁() -14633
▁martwi -14634
▁rzucić -14635
▁naukowy -14636
▁zapewnił -14637
zmie -14638
▁zasi -14639
▁rozstrzyg -14640
▁stanowili -14641
dzany -14642
▁leżały -14643
▁słuchawkę -14644
siło -14645
▁lui -14646
board -14647
▁artyleryj -14648
▁scha -14649
▁kolacji -14650
▁filmowej -14651
86 -14652
▁pól -14653
żywszy -14654
▁spodziewał -14655
wczych -14656
▁zmody -14657
▁jednoli -14658
▁pragnienie -14659
▁elewa -14660
▁dziewczyną -14661
śliła -14662
▁klasa -14663
▁lubiła -14664
▁przyło -14665
▁wykonywania -14666
▁dziob -14667
▁sztok -14668
▁byłych -14669
▁potoku -14670
▁efektem -14671
▁półtora -14672
▁pamiętać -14673
▁odcie -14674
▁gestem -14675
isto -14676
▁defi -14677
▁znad -14678
▁wydawać -14679
▁niewidzia -14680
▁tłumaczył -14681
▁wyborczej -14682
▁marty -14683
▁kawale -14684
▁ochron -14685
▁wierzył -14686
▁plebiscy -14687
▁powiedzenia -14688
▁całych -14689
▁morzem -14690
▁ubranie -14691
▁michaela -14692
▁leszczy -14693
▁przekazać -14694
▁wzmac -14695
iet -14696
▁12. -14697
▁skóra -14698
wna -14699
▁alba -14700
▁rozmy -14701
▁chciałby -14702
▁nel -14703
▁wciel -14704
▁perkusi -14705
dzających -14706
▁championship -14707
▁sei -14708
▁auta -14709
▁godz -14710
▁sach -14711
▁armat -14712
▁leopol -14713
▁synowie -14714
▁najpopular -14715
▁scenariusz -14716
▁miar -14717
▁oboz -14718
▁pilota -14719
▁kulturze -14720
▁aktualnie -14721
▁wyposażone -14722
▁hard -14723
▁wyst -14724
▁znaczną -14725
▁lok -14726
logów -14727
▁organizacje -14728
▁alei -14729
▁boju -14730
▁wyty -14731
▁skutki -14732
niż -14733
dniki -14734
▁ścią -14735
łością -14736
▁trudu -14737
▁chorąg -14738
▁pacyfi -14739
▁uznania -14740
▁usiłował -14741
▁spółdziel -14742
onka -14743
▁isa -14744
▁korea -14745
▁sejmi -14746
▁żandar -14747
▁wysłany -14748
▁wyobraża -14749
▁dziewcząt -14750
see -14751
mych -14752
szały -14753
terów -14754
▁dino -14755
▁informacja -14756
▁przemocy -14757
▁glor -14758
▁wypła -14759
▁romans -14760
szyna -14761
▁obcy -14762
▁bracie -14763
▁widowi -14764
▁polityce -14765
▁zatrudniony -14766
ssel -14767
▁podmio -14768
▁przyku -14769
▁transmi -14770
▁podnieść -14771
▁arcybiskupa -14772
▁ec -14773
ktorów -14774
▁mięso -14775
▁wynosił -14776
▁szlachci -14777
▁lwów -14778
▁szturm -14779
▁przesie -14780
▁trening -14781
▁bieli -14782
▁zasada -14783
▁stanowić -14784
▁przyglądał -14785
stera -14786
▁alek -14787
▁złotą -14788
▁Śmierć -14789
▁dziadka -14790
▁znajomość -14791
▁uł -14792
▁Łó -14793
▁śladów -14794
▁kultura -14795
▁wynagro -14796
zmy -14797
izmu -14798
▁ską -14799
chło -14800
elem -14801
▁wsa -14802
▁mocą -14803
▁powtór -14804
▁wystawy -14805
▁naturalne -14806
▁zakładzie -14807
logy -14808
dnienie -14809
▁posiadanie -14810
gers -14811
▁spał -14812
▁obrze -14813
▁polsku -14814
▁czwarte -14815
▁powołał -14816
▁zbiorów -14817
▁dotrzym -14818
▁odnalaz -14819
▁popatrzyła -14820
▁jun -14821
▁pasy -14822
▁doktry -14823
▁katarzyny -14824
▁zgromadzenie -14825
hem -14826
▁god -14827
▁intern -14828
▁początki -14829
▁zniszczony -14830
oważ -14831
▁1500 -14832
▁etno -14833
mierza -14834
▁zbiory -14835
▁Śródziem -14836
▁rezerwatu -14837
ques -14838
▁wspania -14839
▁nieszczęs -14840
▁koszty -14841
▁mięśni -14842
▁czujesz -14843
▁zdawała -14844
▁narodowe -14845
▁skoncent -14846
▁słowacji -14847
▁wejściem -14848
▁centralnym -14849
▁cierpienia -14850
▁pance -14851
▁kanady -14852
▁przyzwoi -14853
%, -14854
▁1903 -14855
▁jechał -14856
▁płakać -14857
▁piwnicy -14858
▁poświęcony -14859
▁przeżył -14860
▁napięcia -14861
larz -14862
▁rycerzy -14863
▁stwierdza -14864
▁zalu -14865
▁rozumieć -14866
84 -14867
▁zdoł -14868
▁dźwięki -14869
▁wysunię -14870
▁dywizjon -14871
▁finansów -14872
▁wspólnej -14873
▁wykonana -14874
▁cudzoziem -14875
▁nieszczęście -14876
asady -14877
▁zacię -14878
czonymi -14879
▁weźmie -14880
▁uniosła -14881
▁wh -14882
▁bag -14883
▁francuz -14884
▁podporu -14885
▁generacji -14886
▁victor -14887
▁tworzył -14888
ince -14889
▁zgas -14890
▁podusz -14891
▁przełom -14892
▁lepszego -14893
82 -14894
chodzę -14895
▁uznano -14896
▁nagroda -14897
▁przekracza -14898
▁nauczycielem -14899
▁różnią -14900
▁herbatę -14901
▁wyodręb -14902
▁doprawdy -14903
▁aktywności -14904
cum -14905
▁prawą -14906
▁niewielu -14907
▁41 -14908
▁bogaty -14909
▁poczucia -14910
▁warian -14911
▁zestaw -14912
▁zależało -14913
▁ostry -14914
▁kobiecie -14915
▁prawnych -14916
▁dziewięciu -14917
▁użyć -14918
▁zamę -14919
▁biedny -14920
▁wzrosła -14921
aria -14922
▁hur -14923
węgier -14924
miertel -14925
▁pokryte -14926
▁opowiedzieć -14927
▁wzd -14928
▁apte -14929
▁wejści -14930
83 -14931
asie -14932
lego -14933
pela -14934
▁ann -14935
▁wywar -14936
▁rozmyśl -14937
▁wzgórzu -14938
▁kontaktów -14939
▁niebieskie -14940
▁wewnętrzne -14941
▁człowiekowi -14942
▁debiu -14943
▁odchy -14944
▁afgani -14945
▁samemu -14946
▁należące -14947
▁korzystając -14948
▁cami -14949
▁zwia -14950
▁programy -14951
▁lekki -14952
▁nawiązuje -14953
▁bagaż -14954
▁ruiny -14955
▁wymyśl -14956
▁nagrodą -14957
▁zajęcie -14958
▁znacząco -14959
ologicznym -14960
dzu -14961
▁swan -14962
▁urug -14963
▁nathan -14964
▁ochroną -14965
▁strzela -14966
▁antro -14967
▁ciągnie -14968
▁sztokhol -14969
▁piłkarskiej -14970
owoc -14971
▁śniad -14972
▁konfederacji -14973
▁beski -14974
▁biegną -14975
▁piekie -14976
▁zielono -14977
▁gościnnie -14978
▁bezskutecznie -14979
▁przeł -14980
tho -14981
▁doszła -14982
▁związał -14983
▁komandor -14984
▁szlachty -14985
nium -14986
▁kład -14987
▁powąz -14988
▁odruch -14989
▁kącie -14990
▁przekona -14991
▁królewska -14992
▁wątpienia -14993
ino -14994
▁Ły -14995
▁anonim -14996
▁pieszcz -14997
▁spróbować -14998
śnią -14999
▁fila -15000
▁średnicy -15001
▁karabinów -15002
▁uderzenia -15003
▁ząb -15004
▁zaży -15005
▁susan -15006
dnikiem -15007
▁emocje -15008
▁warstwy -15009
▁kochany -15010
▁pierwsi -15011
▁zdobycia -15012
-201 -15013
▁handel -15014
▁odrzuc -15015
▁księciem -15016
▁opowiadania -15017
▁1902 -15018
conego -15019
▁spadku -15020
▁pokonać -15021
▁hrabstwa -15022
▁istniało -15023
▁szerokim -15024
▁przyjeżdża -15025
▁hms -15026
▁doma -15027
▁traf -15028
ckiemu -15029
▁intry -15030
▁czerni -15031
[...]
